#version: 0.2 - Trained by `huggingface/tokenizers`
Ġ t
h e
o u
h a
Ġ a
y ou
r e
i n
Ġ w
Ġ s
ha t
Ġt he
Ġ you
i t
o n
Ġ d
Ġ b
a n
' s
Ġ g
i s
Ġ c
o o
l l
Ġ l
n o
Ġ m
Ġ p
a y
Ġ it
in g
e r
Ġ f
Ġt h
Ġ o
Ġt hat
e s
e a
Ġd o
e t
Ġ he
Ġt o
k e
o m
Ġ h
n d
Ġ on
x x
' t
Ġ ha
s e
w hat
o r
v e
l e
Ġg o
i g
Ġ in
i d
u t
t he
Ġ I
oo k
e e
n a
s t
Ġ k
Ġ is
Ġa nd
no w
Ġw e
o h
a r
h t
Ġ u
i c
o w
Ġl i
Ġw hat
Ġo f
a t
ig ht
om e
k ay
Ġyou r
Ġth is
an d
y ea
Ġli ke
Ġ r
Ġw an
yea h
l d
xx x
he re
i r
a d
Ġd on
ou t
c k
Ġ no
a s
t hat
Ġ e
a ll
u h
o kay
v er
in k
Ġs t
Ġ re
Ġb e
m e
h o
' re
Ġm e
Ġc an
Ġk now
w e
a b
Ġha ve
a l
Ġon e
Ġs ee
Ġa re
Ġthe re
oo d
Ġ n
it h
i e
c h
Ġw ith
u m
Ġg et
e n
Ġa t
Ġf or
e d
Ġth ink
Ġ j
it t
Ġhe re
Ġu p
Ġs he
Ġw as
t h
Ġd id
i m
ou ld
d o
Ġp l
Ġthe y
Ġa n
a ke
Ġl ook
Ġp ut
Ġg on
u st
Ġno t
u r
u n
Ġgon na
Ġwan na
o t
ea t
i f
Ġwan t
Ġ out
h m
Ġs ome
itt le
Ġa ll
Ġ M
Ġr ight
r y
' ll
Ġs o
in d
Ġl ittle
a ck
Ġ xxx
w here
p p
i ll
the r
o re
w w
t er
Ġgo t
m y
Ġ y
ab y
t a
ic e
Ġg ood
n t
l ook
Ġj ust
l y
Ġs ay
the re
Ġdo es
r o
on e
Ġpl ay
Ġ eat
h ow
w n
e ll
Ġhe r
Ġa b
a re
c an
ver y
d y
r ight
Ġb aby
w ho
h i
r a
he n
Ġab out
Ġdo wn
c e
u s
Ġs a
ou g
' m
l et
all y
Ġb o
we ll
Ġb ut
ea r
Ġthe m
Ġs p
Ġgo ing
Ġt oo
o p
h y
Ġo r
Ġh im
o se
a m
Ġh is
y es
ic k
Ġ now
b e
Ġm y
Ġb ack
i l
s o
ha n
h uh
i ve
om my
Ġ if
Ġc o
Ġan y
Ġo ver
Ċ Ċ
Ġb ook
a g
Ġm ore
e p
t y
c ome
ou nd
om et
s he
Ġth ing
Ġo kay
u re
Ġb ig
Ġw hen
Ġ C
Ġl et
b er
a st
Ġthe n
oug h
a u
the y
b ut
d id
u ck
Ġs omet
Ġk ind
Ġm ake
a k
h ing
Ġc ome
m hm
Ġc l
Ġe l
d ay
Ġf r
Ġw ould
Ġt i
Ġh ow
th is
f f
id e
Ġh uh
Ġa l
ww w
Ġel se
Ġre ad
a in
Ġ B
Ġc ar
a p
Ġ D
Ġn e
i es
Ġt ake
al k
w o
f ta
Ġof f
Ġp re
ou r
se e
ee d
Ġha fta
it e
q u
at er
ar t
Ġ S
Ġw ho
Ġdo ing
Ġth ose
Ġ very
Ġthe se
Ġre ally
ad dy
on g
Ġsa id
w hy
Ġb l
y s
r ow
Ġw here
Ġha s
u p
es s
Ġs h
c t
Ġdid n
o s
Ġt r
w ay
Ġm o
Ġa s
Ġo ther
z z
Ġsomet hing
a h
Ġt ell
g ood
Ġwe re
m m
ur n
er s
Ġti me
Ġw or
d on
Ġha d
na me
n y
ir st
t o
Ġpre t
Ġu m
Ġa r
Ġha pp
au se
w an
th ing
Ġ yeah
ay be
Ġdoes n
y e
oo l
Ġa g
e re
at ch
ou se
Ġlook s
han k
b o
u l
Ġd r
Ġw ay
g et
Ġc ould
Ġt wo
m ber
Ġc all
Ġb u
ar k
Ġn eed
an g
Ġn ice
c ause
re e
he r
g g
al right
me mber
o ck
Ġt ry
Ġc om
p ut
Ġ A
l i
in e
Ġg u
u ff
Ġthing s
Ġg ive
Ġ R
Ġc ook
Ġm an
Ġme an
ĠM ommy
is h
Ġb all
Ġag ain
oo m
Ġ J
Ġbo y
l or
oo r
Ġb et
um p
Ġl o
o on
Ġha nd
Ġg ir
at e
h ic
un ny
Ġh o
Ġt urn
u ch
one y
Ġc he
t ing
Ġhapp en
Ġh ouse
l p
Ġu s
oo p
e l
' d
p e
Ġt alk
Ġfr om
Ġf l
is s
ee n
a it
Ġs it
Ġgir l
ee k
Ġco lor
Ġb r
Ġf a
Ġp e
Ġw ill
Ġp u
Ġp ic
Ġu h
or n
Ġh ome
re ad
Ġar ound
g o
uh huh
l es
i on
Ġy a
Ġw ater
us h
Ġpret ty
' ve
u e
Ġa no
Ġf ood
Ġ N
Ġano ther
a me
ve n
s ay
Ġ T
Ġgo es
ke d
Ġm uch
ir d
Ġ P
t hank
Ġ L
Ġ name
s ide
l f
Ġp ie
Ġst uff
Ġs ha
Ġl ot
Ġre member
Ġhe lp
Ġwe nt
ag e
Ġc ha
oo t
Ġ F
im al
ea se
Ġs c
i x
Ġs ho
Ġa way
o f
is t
ut e
Ġsh ould
t ure
do es
e et
Ġw hy
s h
ch ool
Ġan imal
Ġ qu
he y
j ust
out h
Ġg re
Ġo h
ar d
Ġf ind
Ġd ay
ĠC hi
r ough
oug ht
c o
Ġ ke
Ġe very
bo dy
Ġm outh
Ġto day
Ġdo ll
wan na
Ġw on
ra w
p l
Ġbet ter
ea s
Ġpic ture
Ġg r
Ġth rough
ĠD addy
u g
t le
Ġs chool
no t
Ġdon e
Ġc r
Ġdo g
o st
Ġ G
Ġl e
op le
p en
Ġf irst
Ġst ill
Ġj u
v ing
v es
Ġp ro
Ġm in
hic h
Ġw r
il k
un g
Ġcall ed
Ġm ak
Ġs e
nd er
Ġc up
k es
Ġwor k
Ġl ea
Ġin to
le p
Ġc at
Ġy es
t s
Ġthe ir
Ġpe ople
a ur
Ġbe d
d er
o b
Ġwe ll
os s
Ġhe ad
ee l
Ġs w
Ġs how
Ġ our
Ġha ir
Ġu se
if f
le ep
Ġbe cause
c he
x t
m aybe
Ġju ice
n e
Ġto ys
Ġb ear
Ġdr ink
Ġsay s
b le
ab le
u ally
Ġo pen
Ġb it
Ġm ilk
Ġp ick
Ġm aybe
Ġs m
Ġsp oon
ad e
Ġb y
Ġbo x
Ġs ure
Ġu nder
Ġho ld
Ġn ight
itt y
Ġman y
Ġ H
Ġpl ease
Ġcha ir
Ġ v
Ġ E
f ter
we et
Ġanimal s
f ul
Ġhappen ed
Ġis n
Ġe n
b ab
Ġb ot
ung ry
as s
Ġth ree
Ġh oney
ap er
a ce
es e
li ke
re d
Ġs leep
Ġp i
Ġd uck
se lf
Ġw ait
ĠM ark
Ġf in
ou ch
Ġm ommy
r d
Ġany thing
s s
Ġb at
i p
Ġli kes
Ġl ong
Ġh ungry
or y
bab ly
Ġre d
oop s
w hen
f ore
w ould
Ġd iff
Ġre al
in n
Ġw alk
f t
Ġhe ar
ha nt
Ġf unny
Ġ z
um my
b ye
ll o
Ġh or
Ġmin ute
Ġp ig
h one
Ġtr uck
g e
Ġne xt
Ġread y
Ġ ice
Ġm ight
ill y
Ġ hat
Ġdiff ere
Ġst art
uh oh
Ġne w
Ġe x
Ġb een
Ġb re
Ġf oot
es t
Ġl ast
Ġo ld
e nd
lep hant
Ġf eel
Ġd oor
Ġc ame
Ġh ur
ou s
Ġa fter
en t
Ġat e
Ġbe fore
ke n
Ġk id
Ġp o
Ġw atch
i re
Ġth ought
is e
Ġr oom
you r
Ġth ough
Ġb ro
re am
Ġst ay
Ġb ird
Ġk itty
ke y
Ġha rd
Ġt able
Ġt ea
Ġgu ess
he d
eek ab
a c
read y
Ġget ting
Ġ na
zz a
Ġs weet
ar m
r i
Ġp art
Ġgot ta
Ġgre en
m a
Ġf eet
Ġm ade
Ġth row
Ġpie ce
Ġst ory
Ġf un
Ġlo ve
Ġno se
Ġbre ak
Ġdiffere nt
a w
Ġcook ie
Ġw h
Ġf all
Ġbook s
irst name
ĠR oss
Ġe ven
Ġpro bably
eekab oo
Ġt han
Ġd addy
Ġc h
m ore
Ġs or
ang e
Ġche ese
Ġc ow
Ġh ot
Ġr o
ell ow
be cause
Ġ K
C hi
d s
the n
im es
Ġto p
Ġkind a
Ġeat ing
get her
is ter
Ġbl ue
Ġ W
wan t
Ġ ear
Ġke ep
un ch
Ġc are
Ġa pp
Ġc ou
Ġin t
M ommy
am a
Ġon ly
Ġe gg
i ld
Ġto gether
t i
Ġw ear
Ġlook ing
a ir
he llo
le an
Ġsa w
a il
Ġt ap
Ġe yes
Ġe lephant
Ġwant s
Ġm on
w hich
Ġs l
Ġpu ll
Ġb ea
Ġs u
Ġd e
Ġsho es
in s
Ġbr ing
b it
ir t
Ġcom es
b all
hi le
way s
u ll
Ġl ight
Ġc ut
Ġplay ing
ere st
ho se
Ġpi zza
Ġhand s
ie nd
oo h
w ait
Ġt ra
Ġdo gg
Ġk iss
m an
Ġcl ose
Ġg l
Ġp age
Ġst ick
Ġf our
aur a
Ġint erest
Ġne ver
t hose
s ha
g ot
Ġc ho
Ġwas n
Ġbot tle
Ġbat h
a v
c l
Ġf ix
a ve
Ġj ump
g er
Ġt hank
Ġd raw
Ġy et
Ġfr iend
Ġs qu
t ell
Ġj ob
w h
Ġf ro
Ġen ough
f or
Ġb ad
Ġb us
as h
Ġs ound
Ġl ad
Ġhur t
Ġf ing
Ġh m
Ġf ive
Ġa ct
Ġs illy
Ġal ways
row n
w ow
Ġm orn
Ġc lean
y ep
Ġb unny
on s
m ost
Ġin side
Ġfa ce
Ġt ouch
Ġfl oor
Ġp ot
Ġr un
Ġs na
Ġy ellow
Ġd i
Ġe nd
Ġs k
an k
Ġm ust
t wo
Ġon es
Ġevery thing
Ġwho le
ĊĊ ĊĊ
Ġsa me
Ġal right
Ġto y
Ġtry ing
ĠF irstname
Ġst and
st er
Ġout side
Ġp an
Ġpret end
Ġmorn ing
p le
s ome
Ġbut ter
Ġc ream
v or
w atch
Ġw hile
ig h
Ġf ish
Ġbl ock
Ġmo ve
Ġtap e
sh ould
se d
ist en
Ġkid s
pp y
Ġdo in
pp ed
Ġb ite
Ġfa vor
re member
he ad
pp er
inn er
Ġre c
Ġp aper
Ġf ire
Ġor ange
ir th
c le
Ġs ing
Ġf it
Ġmak es
Ġ yea
Ġbu ild
g s
Ġst r
Ġf ound
Ġs ide
Ġf eed
Ġp en
Ġlea ve
ie d
p eekaboo
Ġp eas
Ġas k
Ġbu y
s it
ir ty
Ġyea r
Ġb irth
on d
Ġp ush
Ġsee n
Ġt ast
Ġpl ate
b l
p ill
Ġa ir
Ġd re
r ot
a ch
air s
Ġb read
om i
Ġco ld
Ġst op
Ġmak ing
w ith
an a
Ġe ver
i b
u b
Ġgu y
Ġs and
ater pill
m s
Ġc hi
oo f
Ġt ook
aterpill ar
Ġm at
Ġyour self
ĠL aura
l ot
Ġd inner
Ġr ock
Ġbirth day
Ġli ve
c i
Ġcook ies
Ġfavor ite
Ġa m
Ġmo on
ost a
e w
Ġt ree
Ġcom ing
ha h
Ġfin ish
on t
o ther
au g
t urn
Ġsp osta
an t
an e
Ġlad y
i z
Ġa head
um ber
it c
Ġwr ite
Ġc hic
Ġc orn
Ġm oney
Ġf ell
Ġp ar
co l
Ġ id
Ġgo in
b aby
Ġsm all
Ġapp le
o ve
Ġchic ken
Ġhor se
Ġw hich
Ġneed ta
ct or
Ġt eet
n g
Ġh i
re w
ea l
ff ee
Ġc ake
Ġcl o
k now
h in
f r
ar y
ow n
Ġb ab
look s
t ake
Ġh op
at ion
Ġst ore
Ġw ind
ak es
Ġact ually
Ġwant ed
Ġfl ow
Ġare n
re t
e x
n ess
Ġw eek
Ġhapp y
Ġmo ther
Ġc aterpillar
s p
g ive
Ġto ld
Ġrec or
Ġl unch
Ġb ye
Ġc han
Ġk no
b r
an y
Ġno ise
Ġany more
Ġwas h
t ry
Ġw he
Ġb ow
Ġal ready
itt ing
who a
Ġo w
Ġb ag
Ġse c
c ha
Ġtalk ing
u d
h ind
Ġsor ry
Ġdogg ie
Ġgu ys
Ġd an
w as
Ġco ffee
Ġsw im
col ate
Ġid ea
un k
Ġteet h
ab bit
re n
or row
the se
Ġto m
Ġwr ong
Ġal most
a ff
c es
he t
Ġbe l
Ġdr i
Ġlet ter
Ġwon der
ro p
Ġwh ite
Ġbut t
ag het
it her
the s
a se
h r
ou p
f ast
om an
u nd
Ġbe hind
Ġus ually
Ġs al
Ġr ide
aghet ti
Ġb ee
Ġro ll
is hed
Ġn umber
et s
Ġt ick
as k
in a
ĊĊ Ċ
Ġl ater
Ġp hone
Ġget s
Ġgre at
ea k
y ay
Ġp op
Ġf arm
Ġpl ace
Ġclo thes
Ġh it
Ġu n
s ure
Ġg ave
Ġcare ful
Ġp ain
h um
at or
Ġgl ass
Ġsh irt
ou n
d am
Ġc ute
no pe
Ġg ame
Ġblock s
Ġknow s
Ġf ly
Ġwould n
b oo
n ight
Ġm ess
Ġc ool
oo ked
i a
Ġc ry
or t
D addy
st and
ar s
g ie
Ġsay ing
Ġsho e
Ġz oo
Ġsome body
Ġt ur
uh uh
Ġwor d
l s
Ġtra in
zz z
Ġe m
ter day
Ġso ck
Ġyour s
Ġcou nt
k in
Ġc atch
Ġbreak fast
Ġti red
s c
Ġbe ing
Ġit s
ing s
Ġt ail
Ġl isten
o l
Ġha ving
Ġsomet imes
os aur
Ġna p
ic h
ear n
c er
i ous
Ġbo th
ar ah
Ġle ft
Ġfin ished
Ġhor s
ie l
an ut
Ġe ither
Ġsweet ie
ha ve
u se
on na
Ġd is
Ġl earn
Ġh ug
itc hen
ak ing
me nt
Ġr abbit
Ġy ummy
ĠB ear
e ver
st airs
Ġcho colate
Ġfr ont
Ġu nt
y a
and y
Ġlot s
i an
g an
Ġa h
Ġbl ack
wh oops
Ġf ast
Ġk itchen
Ġyes terday
t e
Ġt re
o d
Ġh igh
Ġpu zz
Ġs ong
Ġmat ter
Ġchi ld
ta in
in osaur
Ġb ang
Ġbab ies
Ġgon e
i ly
p er
t en
Ġt e
Ġcolor s
Ġtast e
Ġs ix
Ġc on
Ġhappen s
Ġd irty
Ġm eat
Ġm ag
ĠN omi
Ġs et
Ġtom orrow
e b
at o
Ġhave n
st op
ĠC hr
Ġsha ke
ea ch
c ake
Ġbow l
Ġpo l
ne y
Ġr ain
Ġs itting
Ġo wn
Ġsp aghetti
Ġfing er
Ġmo v
Ġpicture s
Ġwind ow
Ġbot t
Ġfro g
Ġpan ts
Ġg row
Ġput ting
p ush
raw ber
ea d
Ġs un
p h
Ġt on
re ally
s omet
Ġy um
Ġsand w
Ġow l
p s
Ġsec ond
Ġre st
Ġm om
ah hah
Ġche w
in t
Ġkno ck
l ittle
Ġk n
at han
Ġbo ys
ĠA be
Ġal so
Ġf o
Ġho le
a ct
Ġg i
ĠF r
Ġp r
Ġm us
pl ease
sha ll
r s
Ġc ir
Ġso ft
che s
Ġex c
i le
en ry
Ġunt il
in y
i ke
m me
Ġ eas
ho ld
ers on
g u
is n
Ġe ye
pp ing
ur p
Ġke ys
ĠMark y
i er
Ġb ar
c y
Ġ O
Ġbro ther
Ġgr and
Ġflow ers
f in
Ġdr ive
Ġs ister
a ther
c her
nt y
y y
ut if
Ġshe ep
Ġd inosaur
good ness
d d
ro ss
Ġear s
pl ane
utif ul
Ġbo at
ĠM om
r oom
Ġb an
Ġb rown
he s
Ġa w
l a
r and
Ġp erson
ci al
Ġton ight
Ġs oup
M ark
et a
bo y
el s
im b
ly n
ha ha
Ġm ay
Ġpie ces
an s
Ġinterest ed
Ġbl ow
Ġf ew
p t
f e
m ake
t in
Ġmo st
Ġmean s
Ġbr ush
Ġpar ty
Ġcar rot
Ġdre ss
p ret
st a
Ġk ne
Ġsp e
ee p
th ree
Ġcl ock
Ġinterest ing
Ġsandw ich
Ġa p
Ġcou ple
Ġfing ers
m er
Ġsc are
ig er
Ġwor ds
me ll
r ies
Ġlo ves
Ġr ing
Ġst rawber
Ġus eta
w er
we l
athan iel
b y
id ing
Ġm iss
Ġp at
Ġg ra
ĠM ama
Ġstart ed
ĠB aby
f ly
a a
r ook
Ġcr ack
s how
Ġw et
d le
b ur
m on
e very
u it
re et
Ġdi aper
ad a
Ġpe anut
Ġelephant s
Ġs n
h is
Ġp ink
ll a
ose ph
Ġle gs
c ould
Ġbea utiful
i pe
Ġt aking
Ġtick le
Ġg ar
Ġair plane
oo se
Ġl ooked
ask et
Ġpuzz le
Ġcr ay
ĠE r
rook lyn
Ġbe ll
Ġlike d
op en
aug ht
Ġf ull
Ġli on
m as
Ġw arm
Ġha sta
g y
Ġe ight
Ġneed s
ug ar
u zz
Ġpol ice
Ġb oo
Ġl ay
ĠB ig
Ġt en
iz e
w ha
Ġs now
Ġha m
Ġcl os
g re
i et
Ġunder stand
ĠChr ist
Ġchan ge
Ġf am
ĠA dam
Ġpu ppy
ĠN ina
w ard
le mme
Ġplay ed
Ġs mell
Ġp ur
au l
ed dy
Ġcar s
Ġbutt on
Ġchild ren
Ġa c
er t
et er
Ġqu ack
Ġrecor der
y um
Ġc ere
Ġap art
ut es
Ġst uck
Ġegg s
Ġbl ank
Ġb asket
Ġsomet hin
Ġn eat
Ġsor t
Ġcere al
Ġw ood
y up
th ink
h ur
Ġar m
Ġle g
n ie
Ġm ine
Ġno thing
uh hum
Ġspe cial
Ġp ump
m ing
w ill
Ġdo ctor
eb ra
R oss
ou d
Ġc one
Ġmin utes
Ġcl imb
oh n
Ġtea cher
o y
Ġs ugar
un t
Ġfriend s
it ch
Ġbig ger
Ġas ked
Ġmon key
b ig
Ġ each
Ġhe ard
Ġb est
Ġbott om
Ġb ump
am b
Ġsock s
Ġmov ie
l ea
Ġm ouse
Ġsc rew
l m
e y
an ta
Ġlea f
Ġgirl s
l ing
Ġcould n
Ġd ry
Ġfor got
Ġdoll s
Ġw all
Ġm ic
itt en
Ġsu pper
k s
Ġne ck
und ay
ir r
lep hone
c are
es day
ĠM ic
Ġ ve
Ġt iny
Ġc ur
Ġball oon
s sed
in ce
Ġstuff ed
g onna
Ġ U
Ġso on
Ġp us
Ġr ound
it y
Ġha ng
Ġevery body
Ġw aff
Ġspoon s
Ġse ven
Ġpain t
che d
p a
Ġsha r
Ġha lf
ti me
Ġf ar
Ġkne w
ar oo
pp le
Ġin st
Ġwear ing
m ommy
Ġbro ken
Ġt v
Ġs uch
Ġqu ite
c oon
ĠB ro
Ġdoll y
Ġp ark
se nt
Ġp eekaboo
ang aroo
B ird
Ġfoot ball
are n
Ġb oot
Ġche ck
f l
Ġf ine
Ġread ing
Ġsl ice
Ġre m
pl ay
Ġab le
Ġsp ill
Ġsc r
Ġhim self
ĠS unday
uck y
a id
c ar
he e
Ġf ig
ĠH enry
Ġtre es
Ġbutter fly
Ġhors ie
le w
Ġeat s
Ġmag n
irr or
Ġl aug
at es
Ġqu ick
Ġf at
pret ty
b oom
Ġmus ic
Ġs eat
id es
i o
av y
g one
Ġo ink
or d
Ġany way
Ġpu pp
Ġqu iet
Ġs ea
Ġt all
Ġsound s
p ull
Ġs ad
Ġst reet
rop hone
n ing
p eek
Ġ im
Ġd ro
Ġsome one
Ġhad ta
d own
he art
Ġd ear
Ġon ce
we nty
ĠG rand
a ld
g n
Ġp in
Ġte lephone
ear s
care ful
ook ie
Ġm irror
Ġp ast
ĠN athaniel
c ked
Ġfig ure
Ġt y
Ġhe y
ig ator
Ġsleep ing
an other
Ġp our
Ġsp l
Ġsp ace
Ġpre sent
Ġhop e
n ice
Ġlo st
ĠChrist mas
Ġbea ch
Ġs ick
Ġc am
d dy
Ġt imes
Ġ V
Ġto ast
Ġfr uit
um b
Ġm oo
ion s
Ġtur tle
Ġt eddy
or k
Ġtruck s
Ġstr ong
Ġmic rophone
um mer
Ġhe avy
ie ve
m oo
Ġban ana
o ver
Ġb oun
ĠM ar
Ġw ee
c ing
f our
as on
Ġscare d
urp r
Ġz ebra
Ġpot ato
le d
gg ie
Ġgr ound
Ġuse d
Ġre co
Ġ et
ĠJ oseph
ou ble
it ing
Ġcom b
id er
Ġr an
Ġthink ing
Ġdan ce
c orn
Ġwhat ever
Ġday s
Ġj ack
Ġbye bye
ag es
Ġkind s
Ġcl own
id ay
Ġsha ll
Ġyear s
o g
Ġwalk ing
Ġde c
ĠP ooh
Ġgr ab
Ġswim ming
z y
Ġb ike
me an
Ġsp ot
qu ack
fin ite
Ġet c
t oo
le x
Ġblank et
e ct
Ġwe l
e m
Ġrecor d
Ġreco gn
Ġal one
Ġbel ieve
v is
Ġp er
im my
Ġwel come
id dle
Ġt ummy
Ġd ra
Ġm ama
Ġany body
ĠR oman
does n
finite ly
ĠM at
Ġn ine
Ġqu est
S arah
Ġm ind
Ġco at
Ġl ate
Ġeas y
B rooklyn
Ġs urpr
Ġr ace
Ġhe llo
Ġpro ble
a le
n ic
Ġm ad
bye bye
y ummy
on y
ĠS arah
Ġgr ass
Ġdre ssed
ha el
Ġf lew
ward s
re ss
Ġto es
Ġco ver
Ġve get
Ġk angaroo
Ġtr ied
Ġd es
Ġup stairs
th row
Ġsp ell
cl ose
Ġsee ms
Ġst ra
Ġbird s
Ġrem ind
o ke
ĠS anta
Ġpur ple
el ic
bur ger
Ġbr ought
Ġcar ry
Ġpo int
Ġb ought
at ed
ro ll
Ġmon th
Ġm ail
Ġcry ing
Ġpump kin
Ġm ix
Ġsw ing
c r
ul ar
ĠChi ld
Ġ i
Ġs ummer
Ġfor get
Ġinst ead
n ce
p ro
Ġsweet heart
Ġrock et
l ie
Ġm m
Ġm uff
M ama
ha r
u ce
Ġp ill
ra id
Ġsha re
Ġd un
Ġg en
Ġl oud
Ġpic ked
Ġdog s
b re
what cha
Ġat t
av id
Ġb ase
Ġhold ing
Ġc ra
Ġget tin
Ġw ipe
on es
Ġf if
ill on
Ġdri ver
Ġfam ily
Ġt wenty
p ick
pp ose
al th
ot or
ard en
Ġp ay
Ġtr ue
Ġsm art
Ġbu g
bl ue
c up
l isten
w oof
Ġc raw
at ur
Ġsleep y
b et
Ġt ong
c akes
s y
Ġbe ans
Ġv is
Ġsna ke
un e
ĠJ o
Ġweek s
Ġf ur
Ġhe lm
d r
Ġc our
Ġtr unk
Ġpic nic
Ġwork ing
Ġch im
p es
Ġm ar
Ġk ick
Ġst ove
Ġlook in
Ġbell y
Ġc ause
or gan
Ġco coon
did n
ĠA n
Ġbro ke
Ġdogg y
Ġpolice man
atur day
Ġhelm et
who se
Ġduck s
Ġcir cle
w een
Ġm iddle
Ġst ep
d a
Ġplay s
r ing
Ġan g
ĠS t
Ġpig gy
Ġsal t
Ġg arden
me d
c us
Ġde finitely
Ġglass es
Ġdro pped
ke ys
Ġwith out
Ġsome where
o ink
Ġl and
ast ic
ri b
an ce
Ġl ap
or s
f ive
Ġa f
Ġsna ck
Ġdun no
Ġd ump
um s
inn ie
b ook
v in
it s
Ġli ving
sha ke
Ġrun ning
Ġsqu are
Ġm is
Ġchim ney
Ġre g
Ġtoo th
elic ious
Ġpill ow
d addy
ll ow
b les
Ġf ight
Ġlo b
ex c
Ġs er
Ġst ar
somet imes
a fter
Ġw ow
Ġp ock
il s
en ce
iss a
Ġsw eat
Ġr ib
Ġst airs
Ġturn ed
Ġe le
cl ock
Ġbar n
t r
id ge
Ġag o
Ġstrawber ries
Ġre ach
Ġto wel
f ish
ve l
al ked
Ġwhe el
k ing
Ġm otor
Ġ Ġ
Ġt er
Ġb oom
Ġm ark
Ġp et
all ow
if e
Ġal ong
Ġbo dy
Ġse w
a che
op e
Ġproble m
ĠP aul
pro bably
Ġs ince
ra m
Ġcup cake
Ġwork s
Ġcarrot s
ĠM on
Ġdown stairs
Ġcl ass
Ġbu ddy
Ġaf raid
s ing
Ġw a
ĠM rs
mm er
Ġtr ouble
s or
Ġw oof
Ġs li
un h
ag gie
Ġboot s
ic an
Ġli ves
Ġtell ing
Ġwalk s
lea ve
Ġh our
ig n
ĠS is
Ġd ark
Ġpl an
ap a
Ġsl ide
Ġstra ight
Ġw ha
irst y
Ġsu ppose
somet hing
Ġgrand ma
k itty
ke ep
Ġtong ue
e lephant
Ġd ad
Ġth irty
Ġst om
we re
L aura
ce pt
il t
ye h
Ġbu b
Ġsk in
Ġwaff le
Ġcour se
Ġho les
B ro
ather ine
k ind
Ġwatch ing
g ed
er y
c om
ur ing
Ġletter s
gre en
z e
Ġme n
im me
ab les
Ġcl ap
Ġsh ort
N omi
f eel
m es
Ġp oor
ow er
ĠC ar
Ġcom p
Ġc andy
Ġfor k
li ver
Ġcup s
Ġpen gu
ou nt
Ġsee m
Ġwhe els
Ġcray ons
Ġd rop
ull y
Ġsqu ir
Ġsna p
Ġt w
it al
Ġp ee
Ġbet ween
Ġro ad
t een
Ġw in
Ġp ages
Ġwh is
ĠFr iday
Ġflow er
Ġcrack er
Ġmagn et
p i
Ġan s
ĠJ en
ea ther
Ġwor ld
ĠJ ohn
c ho
u dy
on ald
Ġsha pe
Ġclose d
Ġstand ing
b age
it ed
Ġl amb
Ġme et
no thing
Ġth irsty
Ġh ide
un n
Mark y
d e
am es
at ing
Ġpl astic
Ġtr ick
Ġtr ash
Ġen g
ea th
ĠS aturday
b ack
Ġball s
Ġold er
h oney
Ġf re
Ġquest ion
Ġwere n
Ġbear s
Ġbel ong
Ġt akes
Ġto wer
Ġk ing
Ġsal ad
sor ry
Ġar ms
Ġscr atch
Ġh iding
Ġcorn er
Ġpotato es
T he
ig g
Ġbus y
Ġham burger
A be
Ġb unch
Ġcook ing
Ġpock et
j ump
ood le
Ġpen c
Ġgi ving
m kay
Ġb and
the w
Ġn ut
ren ch
Ġl ine
Ġf ore
Ġr i
ess ert
Ġbutt ons
la us
d uck
Ġr at
Ġbe g
Ġme d
el issa
Ġdri ving
w hee
Ġc aught
ic y
ĠM ister
Ġum bre
Ġbuild ing
Ġr a
Ġsk y
on k
ch oo
Ġd elicious
Ġk itten
pi zza
c at
er ry
Ġn ear
Ġkiss es
Ġstrawber ry
P ooh
Ġp ea
br ing
ang es
Ġdis hes
m ove
Ġno is
Ġre ason
me ow
Ġfly ing
b ird
t ick
Ġsh ut
in es
Ġd a
Ġd essert
Ġdo lp
b ug
Ġt iger
is ed
Ġdon key
Ġti re
ĠE ve
Ġcra zy
Ġumbre lla
c co
Ġlight s
fr iger
Ġty pe
cco li
f irst
Ġdan cing
und red
Ġhors es
Ġvis it
c les
el t
A dam
o ld
p at
Ġn ur
Ġup side
Ġsa il
Ġstay ed
m eal
t on
Ġon to
Ġr ub
fr om
Ġac ross
T y
s day
Ġt a
Ġc re
ra ct
f ully
n eath
Ġmiss ing
Ġmo ving
yy y
Ġw ave
do g
friger ator
re l
Ġm ach
ie ld
Ġcray on
Ġcat s
Ġt ight
Ġp ool
Ġlea st
Ġmis sed
a j
e gan
l ess
Ġha mmer
ĠD ad
Ġpre s
Ġtea ch
Ġna mes
Ġst o
Ġsc ary
Ġgar age
Ġch ick
n esday
an ny
Ġre frigerator
ro ver
Ġpop corn
uzz y
Ġw oman
Ġd ream
Ġb uck
ĠI n
ic s
ĠM r
Ġear ly
Ġstr ing
ic a
Ġshould n
Ġchair s
h om
oo ster
at meal
Ġlea ves
Ġnap kin
Ġclos er
Ġlob ster
Ġa d
Ġapp les
av ier
Ġremind s
exc use
Ġh undred
ing o
Ġgood ness
Ġke y
Ġmon ster
Ġgar bage
p oor
Ġno body
en ts
Ġcom in
hom as
Ġc ouch
Ġf elt
Ġr ice
up er
Ġfa ther
ri ble
g r
y ellow
Ġth rew
Ġgl ad
rib bit
he lp
ic al
ĠS p
Ġdoll ars
Ġb ake
Ġto e
Ġor anges
Ġdraw ing
Ġs ent
Ġjack et
Ġans wer
Ġpenc il
Ġw itch
um ble
fr ican
Ġveget ables
r ied
Ġa in
Ġd ust
Ġf an
ang er
p ort
s l
Ġgo sh
ap ers
Ġex act
Ġsl ow
Ġfro gs
Ġbase ball
s w
or ange
ĠD illon
ac es
Ġpupp et
s ho
Ġha ha
al most
am p
ast er
Ġbu ilt
Ġtry in
Ġv ac
w ater
in et
er a
Ġf is
Ġr id
hur sday
ĠD avid
Ġtr ip
Ġjump ing
ĠGrand ma
ĠMon day
u esday
Ġp eek
Ġsp ider
M ic
Ġo b
Ġgir aff
Ġtalk in
ves t
S is
ic ine
che ese
on ly
Ġr ather
Ġtur key
u gg
Ġw ish
ĠJ www
wh oop
Ġmonth s
X avier
Ġw ake
Ġg ro
Ġf ree
ĠP eter
b aa
Ġc er
and er
ĠM iss
Ġhas n
Ġen j
a pple
ver s
Ġst ack
ed nesday
Ġcar d
Ġv o
ell y
Ġbo ard
ĠC har
Ġse es
Ġfit s
b ie
r r
s qu
Ġo atmeal
Ġeat in
ĠB r
Ġfa ir
Ġch oo
w alk
Ġof ten
Ġy ell
am as
Ġs at
Ġs ize
Ġst ars
are nt
Ġcer tain
b ow
b and
Ġl a
ill a
let s
got ta
Ġsweat er
Ġc her
ent ion
st ers
Ġhappen ing
Ġdrink ing
Ġyou ng
Ġf ill
Ġo ven
sh h
Ġunder neath
Ġwait ing
Ġbird ie
Ġfo x
Ġboun ce
e or
Ġc al
Ġst or
ce an
Ġbro ccoli
Ġpi pe
Ġpus hed
s ix
Ġpl ates
bo x
Ġgro cer
p eas
Ġw o
Ġg as
Ġpig s
i ble
r m
al ie
ib ble
iz ed
Ġpain ting
Ġmom ma
dr ink
Ġfeel s
Ġstom ach
Ġmed icine
p ty
ou ds
Ġd ish
Ġli fe
thank s
Ġcow s
Ġcir cus
c ow
c ess
Ġr ooster
ĠC he
inn ing
Ġtra ctor
Ġnumber s
Ġatt ention
ĠW ednesday
Ġcraw l
g on
Ġb es
Ġm et
Ġo cean
ĠN ana
br ush
any thing
cy cle
Ġang ry
u c
Ġk ill
Ġwill n
elephant s
u nder
Ġp ears
ĠC atherine
ĠT immy
Ġfix ed
some body
Ġeng ine
o ff
Ġc ap
Ġc ont
at s
ink y
Ġst e
il ing
ĠU rs
Ġlaug hing
Ġt us
Ġb urn
pp ers
H enry
i am
Ċ Ġ
Ġp aj
Ġall igator
ĠM ot
Ġche er
ĠT hursday
Ġfall ing
sp oon
ĠMic key
ĠMic hael
Ġb a
Ġsa ve
ĠT he
Ġs ign
Ġst ir
gg y
Ġr iding
as er
Ġrun s
g imme
Ġb eat
Ġg oose
Ġplay in
ĠG od
Ġeas ier
t alk
Ġa dd
Ġp ack
am i
Ġdinosaur s
y an
Ġb ra
Ġc ro
ar ter
ot e
Ġmy self
Ġwonder ful
Ġclos et
d ing
ĠB ird
Ġwor ry
ĠA unt
Ġm ush
Ġco st
Ġcl ouds
aw s
Ġsqu eak
Ġsurpr ised
Ġenj oy
b ee
l ves
s ian
Ġs on
Ġpl ane
ĠEr nie
Ġmach ine
l on
p op
Ġg ames
ho t
act ually
Ġexc ited
ĠM ary
ĠM aggie
ore d
ra vis
ang le
Ġke pt
ne xt
Ġgen tle
ent ly
Ġrecogn ize
a pp
Ġs ink
Ġs ur
Ġus ing
J ohn
Ġs im
Ġh os
ll y
et h
Ġco ll
Ġbr idge
wel ve
f irstname
Ġhe alth
Ġy ep
Ġpret z
Ġbat ter
Ġturn ing
oop y
Ġwr iting
Ġjump ed
Ġmuff in
d ge
k no
r ay
Ġ Y
us age
ound s
ĠB ob
Chi ld
k ins
ĠJ une
ĠT uesday
g ra
i w
k y
ar a
ĠA l
Ġs i
an as
ab out
Ġso ap
ĠB ar
Ġpres chool
p ital
Ġb ib
ĠR ob
Ġpick ing
ĠM ummy
Ġcher ry
F irstname
s et
Ġt ie
Ġm ud
Ġh us
Ġy ard
Ġnew sp
Ġpar rot
Ġexact ly
Ġf ence
as hed
Ġball et
Ġspot s
ct op
li p
Ġpo in
Ġkn ife
Ġcam era
tick le
R oman
f ight
at ure
Ġkno cked
Ġem pty
ache l
Ġtus ks
e ven
Ġh on
id ent
Ġli ft
Ġpl ums
Ġsp eak
l and
Ġ er
oo sha
Ġshe ll
Ġrock s
Ġrib bit
Ġfre sh
Ġpaj amas
b uzz
m ilk
ha m
Ġp air
st ay
Ġr ac
ho p
ĠS te
Ġpick le
Ġpig gie
Ġgiraff e
Ġb ark
Ġh um
Ġthink s
Ġas leep
ere d
Ġcall ing
Ġfa ct
Ġhos pital
Ġr ug
g en
n cle
au nd
ĠA lex
Ġsho pping
iw i
r ic
t ie
Ġtr i
Ġdiffere nce
allow een
Ġs eal
Ġg um
ll ip
bo ard
Ġsing ing
Ġsmall er
ctop us
Ġf uzzy
Ġj o
ĠR yan
Ġmak in
Ġv an
llip op
Ġf ield
every body
Ġspl ash
Ġmotor cycle
icy cle
aund ry
b read
c a
m ay
u na
Ġ Z
Ġl aundry
Ġp il
me lon
ĠM organ
lot s
A lex
C laus
c ookie
p ig
Ġl ose
ĠC ind
Ġcar ri
ĠG rover
Ġhur ry
Ġbott les
Ġhus band
b ble
o th
y ing
ul a
Ġuh huh
st ick
ĠH alloween
A n
M ar
ha rd
Ġb ur
Ġl ick
ĠB rooklyn
ct ion
Ġar t
ĠP at
Ġlad der
Ġshar p
Ġsa fe
Ġany where
P eter
w r
Ġw ww
Ġd irt
Ġp ond
Ġpl ant
Ġpe pper
ri an
Ġfif ty
ha s
Ġd eal
Ġc ents
Ġsa uce
tr uck
vest igator
Ġw at
ur t
ĠM elissa
Ġeat en
ĠS am
Ġlisten ing
Ġfo llow
gu ess
ĠEr in
Ġsew ing
kno ck
f ind
what s
Ġwe ird
um mhm
hi p
Ġqu arter
Ġexc use
m other
Ġg rown
ĠI nd
Ġy ucky
Ġsm ile
c all
Ġhe art
st y
ber ry
Ġagain st
Ġlady bug
Ġban anas
Ġwaff les
b s
Ġw ild
Ġgo ld
Ġback wards
Ġdoll ar
Ġstick s
Ġsk unk
b unny
oo sh
Ġp ir
Ġto wn
ĠM a
Ġcup cakes
gre at
Ġdolp hin
ĠChar lie
n oopy
p ed
u al
ha ppy
Ġin d
qu ick
ĠG eor
Ġcrack ers
c ut
i pper
p et
Ġ ea
Ġs uper
il ar
ty cake
to day
Ġevery where
Ġfeel ing
Ġaw ful
Ġra is
Ġsto pped
i me
Ġm ister
er c
Ġn ibble
ĠT homas
Ġlong er
Ġfarm er
Ġstor ies
c in
t ur
ea pple
do ggie
Ġcho p
e h
k a
l o
Ġw ag
Ġtoo ls
ĠB oo
Ġhi pp
o e
Ġd ough
Ġg un
Ġlo llipop
pl ain
Ġgrand pa
J oseph
r ick
t om
Ġhand le
co d
Ġafter no
Ġde er
Ġfire fight
ĠMat ty
Ġwhis per
Ġnewsp aper
f ro
r u
Ġd anger
Ġh orn
Ġsp in
ĠK alie
b ang
g es
j u
l ight
and a
Ġe xt
Ġbl ess
Ġbu zz
Ġvo ice
ĠA frican
ous es
Ġfeed ing
Ġtast es
Ġreg ular
M ister
in ing
Ġf us
Ġsee med
en se
Ġan t
Ġplay er
Ġsa usage
M on
Ġm hm
ar on
ot ch
Ġy og
Ġpengu in
itt er
Ġcar to
ĊĊĊĊ ĊĊĊĊ
hur ry
Ġhealth y
oosha s
b u
g i
p ot
th in
ma le
Ġt welve
Ġc and
no body
ĠM egan
ĠJ ack
Ġbr oom
ĠG ra
Ġcam p
N athaniel
Ġt ear
Ġb orn
Ġc e
ke nd
ĠC ookie
Ġgr oup
Ġmag ic
Ġwee kend
ĠIn vestigator
p r
Ġs ir
et ch
ic ed
at ive
Ġr ad
Ġr oof
ch ic
ump ty
Ġbub bles
Ġafterno on
B aby
no se
ve nt
Ġbo ther
Ġfl at
ci ally
Ġtom ato
Ġroll ing
b ed
i v
id ed
na h
Ġme ow
Ġhur ts
Ġlearn ed
Ġfam il
l t
Ġb one
Ġm atch
Ġp or
Ġj elly
Ġsc ream
Ġthrow ing
Ġbee p
Ġmost ly
every thing
Ġac c
Ġlaug h
Ġc ross
Ġput s
Ġse nd
Ġfore st
c lean
Ġn ic
do ll
ĠMat thew
Ġnois es
c ock
Ġc ous
Ġl ess
Ġh ill
Ġr ough
me n
are d
ĠD o
mm a
ĠW innie
Ġpuzz les
Ġrat tle
chic ken
b ear
l ic
s weet
Ġduck ie
Ġchan ged
Ġw ire
Ġw alked
Ġs uck
Ġm eas
Ġp ac
itt in
Ġbeg inning
e me
w ork
Ġt alked
Ġf eather
Ġwas hed
ra c
Ġne igh
Ġcr ab
itc her
fin ish
M at
Ġ es
Ġd ig
Ġha r
le n
ab r
Ġher self
pe cially
Ġstart s
Ġpretend ing
Ġtast y
Ġt ub
Ġb right
Ġp oo
se lves
Ġno rm
ie nt
Ġpre ss
Ġtr ack
ĠL e
cl ap
Ġask ing
ious ly
Ġgi ant
bet ter
Ġcarri age
d ri
l er
if ic
Ġturn s
go ing
ĠN ew
Ġchi p
Ġwhe ther
Ġsal ami
sc ar
Ġsn eak
Ġsim ilar
i ar
Ġd uring
Ġm ice
us hi
ĠA nd
Ġwater melon
Ġdraw er
for t
Ġpen ny
fe ct
cho colate
Ġg e
se ven
Ġtr ay
Ġcr ib
ĠK aren
amb i
Ġdes k
Ġsquir rel
l ay
p ee
s sh
is on
ind a
ĠD an
Ġopen ed
Ġpull ing
bl ow
cha ir
Ġmuff ins
i os
m p
Ġm eal
Ġp as
Ġo ctopus
ul t
pe ople
Ġpresent s
Ġter rible
ĠCar l
cod ile
B ig
M organ
c ount
y uck
Ġd aught
en n
Ġkeep s
unh unh
Ġwave d
B rown
M om
e ight
Ġw ings
Ġk iwi
Ġsay in
Ġfall s
Ġcho ke
sp aghetti
ĠRob in
b a
k iss
Ġgo at
ĠP apa
Ġstick y
Ġmess y
Ġhug e
Ġgrow ing
Ġballoon s
Ġele ven
Ġsi ppy
Mic hael
Ġt ee
Ġc ab
Ġp itcher
Ġgo d
ome n
so on
ĠS noopy
Ġstart ing
f er
z er
Ġt iss
Ġre l
Ġab ove
Ġch in
ĠChr is
Ġd ead
Ġp le
Ġth umb
ee ze
ar n
Ġli br
Ġcar pet
Ġsh oot
Ġmean t
ĊĊĊĊ Ċ
Ġri ver
d oo
n um
w on
Ġp ract
Ġti p
Ġag e
een er
Ġsna kes
t les
ll en
Ġbu gs
ĠK at
Ġpull ed
Ġclean ing
Ġplan ts
r t
z ing
Ġc ast
pe anut
Ġdanger ous
Ġfamil iar
d ad
i um
t uce
ra p
Ġche st
Ġshow ed
Ġpart s
Ġpart ic
Ġim ag
Ġpin eapple
m ies
n ut
n ger
s m
v room
ha nd
Ġb umble
Ġg er
Ġgot ten
Ġdr um
Ġcow boy
bur g
Ġdra gon
Ġtrunk s
kind a
Ġrub ber
Ġvac ation
Ġgrocer y
ĠChe er
y m
it es
Ġl id
Ġp ony
es ame
Ġh ook
Ġh ouses
Ġcl ear
Ġbu ll
Ġname d
Ġkn ee
ĠU ncle
g ir
er ob
Ġth ird
Ġn inet
be fore
ul ia
Ġshow er
Ġmon keys
lm o
Ġnibble d
Ġdaught er
ing er
Ġf e
Ġli e
Ġsee ds
Ġco l
ĠL ittle
Ġcount ry
ĠFr aser
itten s
c ook
Ġc or
ur ch
han g
ĠB e
li a
Ġex cept
sc otch
Ġpus hing
Ġmagn ets
alth ough
Ġa che
re al
Ġc age
Ġin ter
Ġco b
ĠD onald
ĠR achel
Ġcr ied
aw oh
Ġstr ip
aa ee
Ġsuppose d
Ġcertain ly
Ġlibr ary
erob ics
y ah
Ġt unn
Ġw oo
ic es
Ġsp ank
Ġcar ds
Ġde liver
Ġfriend ly
Ġpot ty
pret end
Ġ Ċ
Ġp ass
Ġin v
ir on
Ġcom put
Ġrecord ing
Ġsurpr ise
Ġfirefight er
ju ice
etch up
Ġple nty
w oo
Ġp oop
al s
Ġfl o
Ġlive d
Ġhang ing
Ġcre ature
ĠInd ian
Mon ster
f it
u sed
Ġ oops
Ġs ell
ie f
ĠE aster
Ġfro ggie
Ġwo lf
Ġmush room
Ġpil ot
C ar
C hr
ter s
Ġgood bye
Ġtake n
Ġstr ange
Ġwag on
l ast
Ġt ill
Ġp rot
Ġpl aces
ta p
ere lla
Ġtre at
Ġwin ter
Ġha y
or ing
ta ins
ĠA sian
Ġsw itch
Ġmov ies
Ġfo ld
Ġexc iting
Ġwha le
D onald
i ana
Ġg ross
Ġc ough
ke e
ĠM c
good bye
Ġsha pes
Ġpi le
Ġbea ds
m om
it ion
Ġb al
Ġc ooked
le y
so ft
ĠS ally
Ġthank s
Ġpur se
r om
w he
Ġb aa
Ġm oun
Ġsee ing
ick y
Ġbr an
ĠL inda
ĠH ar
ĠH oney
Ġstick ing
Ġhop scotch
any body
dd ing
Ġkitten s
Ġcal f
Ġcro codile
Ġpartic ular
j ect
s es
Ġp eel
but ter
Ġwr ote
Ġpop s
Ġpengu ins
M andy
b ot
m st
p o
p ie
Ġt ough
Ġs le
um bo
ĠS he
Ġcr ash
Ġz ipper
Ġex erc
Ġfire man
Ġbel t
Ġyog urt
E ve
Ġ x
ĠB ert
Ġgi ves
Ġshar k
ĠGrand pa
Ġgen er
ĠAn n
Ġtunn el
mst ress
Ġa erobics
Ġm am
Ġp arent
ab it
Ġall ow
au ce
Ġbed s
Ġch urch
fl ies
roll er
sho es
l ings
ic ally
ck y
Ġsqu irt
Ġkne es
b oun
Ġl ar
Ġp ear
Ġo t
Ġu g
itt any
hi es
Ġal ive
ul p
Ġhat e
lea der
John ny
abr ie
P aul
d ow
i k
Ġw omen
ood les
Ġwas hing
il es
Ġrabbit s
Ġfe male
abit ha
c ool
l k
p u
v iously
Ġc ash
if er
Ġtoo l
Ġz oom
Ġcon f
Ġgra pe
Ġsn ip
Ġtri angle
l ove
st r
Ġr ip
al a
Ġthem selves
op her
ĠB rian
Ġsw iss
Ġsm oo
Ġreg ister
Ġtiss ue
F r
l ish
Ġc ord
Ġhe n
Ġshe lf
Ġnot ice
Ġy ay
us ually
pe ct
Ġhelp s
pl ace
Ġkn it
c ase
m in
s aid
w ood
he he
Ġb urp
Ġc ase
Ġre p
Ġbe ets
Ġn um
Ġsp it
Ġshow ing
Ġrain ing
Ġnur se
Ġwat ched
c al
c ed
id a
Ġcl aws
Ġle mon
Ġchew ing
Ġneck l
Ġdec ided
Ġcheer leader
Ġpretz el
Ġnic ke
h or
p ar
s na
it am
Ġm ac
Ġk etchup
Ġr ings
Ġno pe
am ie
Ġlet s
Ġlet tuce
Ġsea mstress
Ġper fect
Ġbes ides
Ġb oring
ĠS c
Ġtell s
Ġfl ies
iff y
Ġdi apers
Ġpir ate
Ġpas se
abrie lla
s illy
Ġd ing
id s
Ġr u
ho st
Ġn one
wo ah
Ġhelp ing
Ġbab a
vis ion
ĠJo e
Ġsail or
D avid
Ġ ought
ĠT ravis
Ġhelp ed
Ġun less
Ġpr om
ĠJo ey
Ġdust ing
dri ver
m ine
Ġd ie
st ill
ĠM andy
ag ain
qu it
Ġcha lk
Ġsu it
Ġpot tie
E r
c mon
s a
w hile
Ġb unn
or ts
as hing
Ġj am
Ġy yy
Ġwho se
Ġche e
Ġfood s
Ġevery one
Ġdoll ie
che w
Ġv ide
Ġfix ing
ol in
Ġaw hile
Ġsnow man
Ġveget able
Ġcomput er
Ġought a
a z
g ee
Ġa ma
Ġs ense
Ġb icycle
le vision
Ġout fit
Ġcut ting
Ġim port
Ġland ed
Ġrais ins
p ur
Ġt aught
Ġd at
Ġd ep
an o
Ġc op
Ġl ang
Ġm ill
Ġm ist
ic ked
Ġst ation
Ġup set
ĠD ingo
Ġlove d
tom orrow
Ġfeather s
ĠCheer ios
b or
n ine
Ġf rench
st ing
Ġj us
ust r
Ġany one
ĠB ambi
Ġwor m
Ġchicken s
ud d
use um
Ġcur tain
ale nt
g le
i let
s ie
z en
Ġs ittin
ĠS esame
Ġlo ad
iss ors
Ġbit es
Ġsm iling
Ġbox es
Ġext ra
Ġrad io
Ġlang u
P at
Ġt weet
Ġt ank
Ġd ar
Ġf ake
ve d
ve red
st art
Ġr ides
Ġnot iced
ne ver
Ġduck lings
Ġdec or
Ġlate ly
Ġprot ect
J o
e yes
oo kee
Ġm ittens
or gie
ic t
Ġr ob
ĠM other
Ġbaby s
she ep
Ġmet al
Ġsur f
Ġacc ident
Ġimport ant
S t
i al
u ke
w ash
er ing
Ġha ll
ar f
Ġso da
lor ida
ĠN onna
Ġpen n
Ġlearn ing
Ġte levision
Mat thew
Ġd ada
Ġp each
at h
Ġr uff
ie nce
ĠM an
Ġy uck
ell ent
Ġcar t
li er
Ġcha r
Ġjump s
Ġbelong s
Ġbuck et
aron i
ĠGra eme
J une
Ġhe e
ast e
ĠJ udy
ĠW eener
Ġmus cles
ĠO liver
a f
n eed
w ipe
Ġsp ray
ul k
Ġv room
Ġbea ver
ile d
car rot
Ġstep s
rom er
a e
e an
g est
w ise
re se
ic hard
Ġle mme
Ġdoor s
ĠK ent
Ġsu itc
ĠJohn ny
ĠDo ctor
Ġlangu age
b rown
e gg
es us
Ġn oodles
Ġcolor ing
ĠG r
Ġbit ing
Ġdogg ies
bl ack
Ġbrother s
Ġspill ed
Ġbatter ies
Alex ander
Ġcarto on
b eep
t ha
it ches
Ġha vin
what ever
Ġgo bble
Ġbaby doll
ber t
Ġpan cakes
iz es
any way
sc rew
Ġot ter
Ġmist ake
d raw
t ouch
Ġt eas
Ġs ushi
Ġk itt
Ġfor ty
Ġsp end
Ġtea m
ex ture
Ġdan cer
gen tle
Ġparent s
b an
b ea
s al
w ah
Ġh y
let e
Ġbl ood
Ġcall s
Ġpi ano
Ġsong s
Ġnut s
B r
b ro
c ent
m akes
o c
Ġw oke
is ha
Ġl ucky
Ġto ilet
ar ch
Ġfl av
ĠF lorida
ex cept
ĠAunt ie
M rs
g ies
s ounds
Ġb i
Ġto wards
Ġr ow
Ġpl ain
Ġoff ice
Ġus es
Ġtouch ing
oof y
hin o
Ġdec ide
Ġfif teen
bot tle
Ġug ly
Ġneckl ace
M r
M aggie
d oodle
m ade
v y
w ee
Ġb ones
Ġl ines
Ġm useum
Ġp oss
Ġth ro
et te
if t
ĠS www
ĠT od
Ġsc issors
ĠG ram
Ġcast le
c atch
f oot
Ġt exture
Ġcan not
Ġput tin
ĠC l
ĠK ay
bl ess
Ġbag s
was n
Ġob viously
f ood
Ġw re
Ġs y
Ġd ist
Ġd ire
Ġst roller
Ġsp ring
ĠC h
Ġuh oh
co lor
Ġv itam
ĠE lmo
oops ie
ĠMom ma
ĠCind erella
Ġcous in
Ġbunn ies
h ome
h unhunh
l ad
r abbit
ha ps
Ġl ist
Ġto t
us hing
ock s
Ġcr umb
Ġbath room
ud dy
Ġbasket ball
Ġdra in
Ġhour s
Ġnois y
Ġfan cy
f ine
h ors
m ust
s pl
u um
Ġc ity
Ġe h
Ġst udy
Ġbe an
Ġsh h
ĠA r
ĠT im
Ġex plain
ĠW ill
Ġbutter flies
Ġblow ing
Ġbub ble
fort able
p an
r on
s ive
u me
Ġt una
ha fta
Ġa unt
on ce
Ġg ate
Ġl oose
Ġst ink
Ġbe nd
Ġcl ip
Ġhome work
go d
Ġstay s
Ġsu dd
Ġfro sting
Ġchi ps
ant ha
ation s
Ġdis app
Ġclimb ing
Ġpast a
pat tycake
sl ow
Ġcol ored
Ġallow ed
Ġsudd en
p ress
Ġl ying
et e
Ġh ose
Ġst ool
ter n
Ġsomet ime
Ġsh iny
Ġsho t
Ġmove d
Ġrain ed
Ġpump kins
Ġvan illa
K ay
f ire
h ouse
h ins
n in
p eep
Ġf lip
Ġu nd
Ġcan e
ĠB rown
Ġtalk s
Ġopen s
ĊĊĊĊ ĊĊ
Ġhug s
Ġfast er
wr ite
Ġvide o
f o
f all
k ers
t ea
re ct
no rt
or m
en ny
Ġmo ves
Ġdi me
Ġclo th
Ġwonder ing
Ġsli ppers
Ġpac ked
Ġnicke l
J www
f eet
Ġb as
is c
Ġl ow
Ġp ad
et ty
th rough
Ġco ck
Ġcha se
Ġsm oke
ĠH e
ĠW ood
Ġwear s
Ġsec ret
ol a
Ġscrew driver
Ġmeas uring
Ġnorm ally
pur ple
D illon
M elissa
s ery
y ard
z ip
Ġg ym
Ġp ow
and ra
en ed
Ġab c
ak in
ĠT om
wh ite
Ġsk irt
ĠMar iana
Ġquest ions
Ġmark et
ĠUrs ula
ĠBob by
Ġhar der
Ġmac aroni
S te
g ing
h ones
Ġ iron
Ġg host
Ġm ashed
Ġf ool
ic le
Ġr ope
Ġj ar
ell o
ĠB o
Ġqu een
Ġgre w
ĠK ing
Ġear lier
Ġcut ie
Ġchan ce
z ebra
Ġ zzz
ic ing
ies t
ĠS w
Ġwor ked
eas y
try ing
cer os
Ġpr in
Ġpupp ies
Ġcarry ing
Ġsli pper
b ing
n ifer
er o
Ġf as
ĠC o
ĠD ada
Ġwh ist
Ġbring ing
Ġtur tles
ddy a
Ġcomp lete
G od
d i
l ass
p ink
Ġg inger
al if
Ġj e
ra in
Ġor der
ag ged
Ġhat s
Ġgl o
Ġsk i
Ġcount ing
Ġaw fully
rand ma
Ġtooth brush
ĠJen nifer
Ty rese
pr il
Ġneigh bor
d one
u es
Ġw ide
Ġd eep
ay len
Ġst eak
ust ing
us s
ak er
Ġz ip
some one
Ġpr oud
Ġmoun tain
hino ceros
B ob
b on
ha w
Ġg ulp
the ir
st rawber
ink le
Ġbe es
Ġfor th
ĠB en
Ġtr ies
Ġbea k
Ġam ount
Ġlay ing
Ġmar ried
Ġfight ing
Ġser ious
Ġdolp hins
Ġnur sery
ĠMa x
g oo
Ġb ank
is co
ome nt
op ot
ĠC laus
Ġfl ap
Ġfa ces
Ġteacher s
alif orn
Ġt est
Ġw ip
Ġit self
Ġst inky
um hum
ĠC romer
Ġas s
Ġwor ried
Ġsit s
ĠG abriella
Ġsand box
Ġrest aur
Ġcomp any
Ġbes ide
gi ving
Ġkitt ies
M oon
h oo
w aff
Ġw igg
Ġto r
ee z
ar ound
Ġli ons
ad ad
Ġat ta
ro ck
Ġlea ving
Ġpick s
Ġclean ed
Ġwhe at
Ġwindow s
Ġstar fish
lic op
aliforn ia
M egan
N ina
in ess
Ġm ain
Ġm erry
ic hes
ĠM ac
am us
bo at
ĠT y
Ġsha dow
ung le
Ġch oose
ĠEr ic
Ġty p
Ġmix ed
f ix
r uff
in ation
is ney
Ġl ake
Ġm oment
Ġp ost
Ġp ork
er g
Ġsp r
Ġwho a
your s
Ġmon sters
ud ge
Ġscrew s
Ġshar ing
Ġele ct
Ġwa ving
ĠGeor ge
opot amus
c ap
l in
r up
w a
Ġb ac
is l
Ġp unch
Ġp ounds
ho g
ch y
ĠM iffy
so l
ug s
Ġwood s
cup ine
Ġband aid
Ġea gle
Ġdar ling
r un
Ġa qu
Ġs ides
Ġp os
ar ium
Ġno thin
Ġst eal
ta st
she r
bo ys
ĠG ood
Ġsu nd
ng ers
Ġdri ves
Ġsquir re
l ookee
Ġhe at
Ġso ld
Ġbu d
ĠP ig
Ġsho vel
Ġmust ard
Ġcoat s
Ġvac uum
Ġes pecially
Ġpract ice
licop ter
isl inn
T ravis
b ump
l ater
Ġs hip
Ġp apa
Ġh ig
as ure
Ġback yard
Ġna il
Ġbee f
ment s
Ġcir cles
Ġgra pes
Ġpasse ngers
Ġsuitc ase
C atherine
c ame
p y
on ds
Ġh itting
ĠM ouse
ĠS ha
os h
Ġother s
thing s
ĠR o
pl an
Ġgr ade
ud e
Ġsandw iches
ĠChrist opher
Ġwhis kers
ĠJen ny
Ġfore ver
Ġrac coon
Ġama zing
agged y
Ġs eas
Ġd oo
Ġg imme
is es
Ġf ed
Ġh id
ĠM orgie
Ġy e
are t
ĠB aaee
ĠL ou
ĠL ee
Ġcha rac
Ġcr unch
ĠG re
Ġdrink s
end s
Ġtra ins
Ġcho ice
Ġbuy ing
Ġeight een
Ġrecogn izes
Ġpoin ts
Ġsle e
D ada
W innie
g usting
i or
z o
Ġw eather
it ies
Ġc a
Ġl ock
ber ries
ĠD isney
Ġnice ly
ĠJ ulia
go es
ist mas
co ffee
ĠDan iel
Ġglo ves
D ingo
a i
b ad
p ha
Ġm all
Ġp apers
er v
er ver
om p
Ġh oo
st ir
Ġst raw
Ġco vered
Ġneed ed
ĠN or
Ġle an
aur ie
Ġfin ally
cl oth
Ġbow ls
Ġbang ing
Ġmag az
Ġsmell s
Ġinst ru
Ġrecogn ized
Ġcoll ect
ĠSte ve
Ġlar ge
N ana
b ite
e ye
i ver
i ves
l as
n umber
s ab
v il
ha d
Ġl ou
Ġm ale
le en
Ġan ts
ĠD e
to ys
Ġcom fortable
Ġna sty
Ġcou n
Ġrock ing
ci ous
Ġquick ly
Ġfigure d
ĠY ork
Ġsmoo th
Ġpenn ies
hors ie
b ar
f an
i od
s ound
s ince
v an
Ġt ou
it ure
Ġg or
Ġp al
er ina
Ġhe licopter
ig ger
Ġwe ight
Ġr am
Ġst ud
ed y
Ġj oke
Ġall ey
urn iture
Ġway s
li z
Ġhead s
Ġro ared
Ġfavor ites
Ġun cle
Ġpupp ets
Ġfur ry
Ġfis hies
Mar ie
bs erver
Ġdough nut
Ġwhisper ing
Ġimag ine
hor se
e br
s leep
u ly
Ġp anda
Ġf il
Ġh onk
Ġbe in
Ġn est
um m
Ġj our
Ġgot cha
Ġher s
us hed
Ġbig gest
ĠC alifornia
ĠB l
bo th
ug h
Ġour s
ĠE l
Ġsqu eeze
Ġmat h
Ġpr ay
Ġpus sy
Ġmail man
Ġcont ro
Ġpoin ting
Car l
alent ine
Ġrestaur ant
t wenty
y n
in st
Ġs il
Ġyou nger
Ġf urniture
Ġo il
Ġr hy
Ġbe gan
ĠD umbo
Ġoff ic
ĠS eth
Ġsh orts
Ġdr ied
Ġsha king
Ġsw allow
Ġpig gies
eekab aby
ĠW es
Ġdre w
Ġtre asure
Ġsent ence
Ġpretz els
Ġtot ally
Ġjour ney
A nd
c han
s k
t ed
he ar
Ġb oop
Ġg oo
Ġp eep
Ġp oodle
Ġth ick
Ġfor m
qu e
up id
ĠJ ill
ost on
wh oosh
Ġcon tain
ĠO scar
wha d
sho e
Ġpor cupine
Ġcor rect
Ġmill ions
Ġaqu arium
Q u
d ada
f eed
m ama
Ġs hy
Ġs nort
Ġc row
id dy
Ġli p
Ġbe come
Ġare a
ot a
ĠM ike
Ġne cess
ĠS us
co ver
Ġhor rible
Ġsound ed
Ġow ls
Ġdri pped
Ġroll ed
wha ddya
Ġser ve
gr ound
Ġfill ed
ĠGeor gie
B ear
b ell
h it
p our
ar ate
me lia
ta il
Ġdr ank
get ting
pen cer
Ġex per
Ġex pect
ret t
od e
cr ack
Ġteach ing
ĠBr ittany
ĠPat rick
Ġwire s
z oom
Ġw rench
Ġc ot
Ġp ri
Ġp ower
er wood
Ġcl ay
ĠT abitha
ball s
bl ing
Ġsister s
Ġwood en
fl ow
em i
ĠThe o
fro g
bu ild
Ġthro at
T immy
s ame
Ġt ac
is hy
Ġc ave
Ġst ret
we d
so ck
ĠB er
Ġju dge
ne igh
ĠE ng
Ġlove ly
Ġdis gusting
Ġcur tains
Ġrib bon
Ġapples auce
won der
h ie
k angaroo
r ific
Ġ oo
Ġb ill
is y
st ra
Ġwe b
me m
ill age
ĠC at
Ġfr ies
ĠD www
don ald
say s
Ġsc oop
sh ut
co a
ug ht
ac ha
Ġrec ently
Ġcraw ling
Ġscratch y
ĠAlex ander
Ġchar ge
ban ana
Ġtac os
M ary
S am
S anta
d oor
n ed
Ġt ent
Ġw ar
et y
Ġbe n
Ġbe er
Ġj ungle
Ġy up
ĠB oston
pen sive
Ġbed time
ĠH ulk
Ġdiff ic
Ġbab e
whoops ie
J udy
T homas
c cer
e le
f if
t han
Ġd am
Ġd umb
Ġth in
Ġe d
Ġst one
en s
Ġup on
pp in
ĠD uck
ul es
ĠJ ason
ĠJ amie
Ġshow s
Ġpick les
hant illy
Ġmat ches
Ġpar ade
Ġpr ince
ĠO bserver
Ġpat tycake
fl ower
Ġbase ment
Ġfis hing
Ġteas ing
Ġflav or
ĠSw iss
Ġwhist le
lass es
d inosaur
l ong
m o
re s
Ġw rap
Ġs sh
Ġb out
ll e
Ġm a
le ft
Ġli ps
ad i
ad er
Ġe qu
Ġfr ustr
ĠS pencer
uff y
ĠT ony
Ġwork in
would n
Ġpo pped
Ġsn iff
Ġgas ped
Ġbatter y
Ġcand le
Ġbumble bee
Ġpops icle
D ad
b us
c on
d ies
g ram
p in
r ound
t ies
w or
y ucky
Ġd ied
Ġp ound
ho to
ch ing
hank s
Ġcame l
Ġtra il
Ġhigh chair
Ġfinger na
Ġpaint ed
Ġclown s
Ġbur ger
ĠBe cky
Ġhig her
Ġlou der
leen ex
Ġcoun ter
b at
d ie
g a
h igh
k er
o ah
in se
ll ie
Ġp itter
Ġel bow
up s
ct ions
zz y
Ġshould er
che ck
Ġear th
Ġcare fully
ĠFr an
aul t
ĠSt reet
Ġkill ed
Ġste ering
Ġninet y
sol ute
Ġ eel
Ġb un
Ġc ub
Ġl os
Ġp urp
Ġf ellow
Ġst ea
Ġj unk
th ough
eat er
Ġso re
Ġy arn
Ġeat er
Ġal pha
ĠR ichard
ĠJ im
ĠJ ess
ĠJ erry
Ġqu it
ĠH ung
Ġv illage
ĠE d
Ġbat s
play ing
Ġtw ist
Ġtrick y
Ġladybug s
mp oo
Ġexerc ise
isc uit
Ġmagaz ine
ught y
J ack
a ven
d ry
h ood
m it
Ġu huh
Ġst upid
Ġre mem
ĠM ay
ind e
pp ie
ĠJ illy
ĠP o
Ġsho p
Ġsw eep
arm er
Ġsqu ash
Ġmorn in
Ġside walk
Ġboat s
Ġaw ake
Ġdress ing
ĠSt ar
squ eak
ĠCind y
oth y
Ġprom ise
A sian
e uss
r is
s on
Ġt akin
Ġs ep
ig ers
ir ts
ch ick
oop er
ard s
Ġgr an
Ġcr ust
ĠG old
Ġex pensive
Ġkid ding
Ġsor ta
Ġro ast
irt een
Ġkiss ing
Ġdan cin
Ġring ing
Ġclimb ed
cr ash
Ġhipp opotamus
Ġstrip es
Ġcreature s
ĠShe m
boun ce
Ġcrumb s
hanks giving
b oop
s n
Ġt u
Ġw al
Ġs el
Ġh ush
ut h
Ġno m
Ġst ew
ho pe
ab eth
Ġout ta
look ing
ĠA llen
ĠA pril
Ġball erina
ĠN an
ĠF at
Ġsc re
Ġpro gram
Ġblank ie
Ġtw ice
Ġfus s
Ġger b
Ġbran ch
fo llow
Ġpow der
liz abeth
Ġdiffic ult
A frican
i ot
p oo
Ġm ask
ag s
Ġbr ick
Ġcha sing
Ġpro per
ĠH ungry
Ġafter wards
Ġna ils
Ġbath s
Ġcon ne
Ġcon vers
Ġdes ign
Ġpea ches
An n
Ġsneak ers
cook ies
Ġmushroom s
Ġben ch
r us
Ġt ha
Ġw ing
Ġd ip
Ġb le
is sed
Ġm oose
Ġhe ld
Ġh ugg
all s
Ġme m
Ġan ten
op hie
be red
Ġwor se
ĠJ an
Ġdoll ies
Ġfirst name
Ġsleep in
Ġduck ies
Ġreal ize
Ġblue berry
Ġbring s
Ġbus iness
Ġair port
ol an
Ġgrand mother
la x
Ġri pped
Ġge ese
Ġbal ance
Ġbac on
Ġanten na
b ara
e g
m ark
p aper
t weet
x y
Ġ vers
Ġg all
Ġc ons
Ġp hoto
ing le
ad ah
Ġe dge
Ġn i
itt s
Ġwhen ever
ĠD anny
Ġhad n
een sie
ease l
sh ine
cl imb
Ġsing le
Ġun if
Ġpay ing
ĠAn nie
Mic key
sweet ie
ĠAnd y
Ġvitam ins
C ookie
j ack
m ouse
Ġw ra
Ġm ood
Ġp atch
Ġh ung
Ġgo lf
ar ian
Ġre f
Ġre s
ĠM oom
Ġbo l
so ci
ak ota
ĠB etty
Ġgive n
ĠJ esus
Ġlo cked
Ġduck y
Ġpo le
Ġlob sters
Ġskin ny
Ġhipp o
Ġcand les
G rover
g uh
j i
re ssed
Ġw itches
Ġs wan
Ġd ouble
Ġo l
Ġh int
na rd
at os
we nt
yes terday
ĠC are
Ġcolor ful
Ġpu dding
imal s
ĠG ail
ne w
Ġv io
ĠE wo
Ġsu b
Ġgl ue
eb bie
Ġcur ls
ĠSam antha
Ġce iling
burg ers
Ġninet een
solute ly
a omi
v ie
y le
ha ir
Ġb ored
Ġb iscuit
is ing
Ġto ck
ar ily
Ġli f
Ġre inde
Ġme lt
Ġcan s
Ġsp read
Ġtell in
ump y
Ġsha mpoo
ĠG er
ĠH an
Ġnew s
Ġstick ers
Ġproble ms
Ġart ist
Ġrel ative
ĠHar ry
inst ead
d ear
m ight
r th
s now
v a
Ġb orrow
Ġc akes
Ġl aw
Ġf right
ut ch
Ġk ite
Ġr hinoceros
out side
Ġneed le
ĠR aggedy
Ġbear d
Ġhur ting
Ġro de
Ġsix teen
ĠFr ank
Ġpin ch
ĠMar ie
com ing
Ġyell ing
app les
Ġtomato es
Ġremem bered
itts burg
D an
d ump
m ister
r ub
r istmas
t eddy
Ġ ouch
Ġa x
in na
in ter
in oc
Ġm ash
Ġo c
Ġin c
Ġn oodle
row s
Ġtr ade
ĠL uke
Ġgre y
ĠE m
Ġsleep s
Ġdi ap
Ġtail s
Ġnap kins
Ġgrab bed
Ġper iod
exc ellent
Ġpea cock
truck s
ĠKat ie
pu ppy
ĠTod dy
Ġcontro l
M a
d ed
m ur
p ic
p ack
Ġw ore
Ġs ip
Ġl as
Ġdon ut
Ġst ri
do do
ĠM ooshas
Ġso ccer
ell e
os ie
Ġlo g
wh oo
Ġlad ies
Ġgra ce
Ġbump y
ĠAn ne
llow een
Ġmeet ing
sw im
Ġcamp ing
Ġtee ny
Ġcomplete ly
flow ers
Ġconvers ation
v ator
Ċ ĠĠ
Ġw ife
Ġd um
Ġh un
id ers
Ġe we
ver al
Ġst age
ĠM ad
ta pe
Ġcl uck
ong e
Ġas soci
Ġman e
Ġfl ash
ĠT hanksgiving
Ġmust ache
ex ter
Ġchan ging
Ġbump ed
cr ay
Ġsquare s
Ġtyp ical
M iss
c ou
f unny
j a
m ind
u ary
w ear
Ġb aking
Ġb lew
Ġg ently
Ġp ies
Ġp uff
Ġdo t
Ġre a
al es
ch io
en ter
Ġfor ward
Ġread s
our t
Ġsh out
Ġfl our
Ġgr ay
Ġsm o
ĠE mma
Ġwh oops
Ġfour th
Ġdi al
fr ica
Ġwhe e
Ġcry in
te lephone
Ġscr at
bre ak
Ġla wn
Ġhorn s
sm all
hand s
Ġgener al
Ġprin cess
Ġseas on
Ġoffic er
Ġpurp ose
Ġunif orm
E l
M ouse
S he
V as
b i
h ite
k ids
m iss
m outh
s mell
in to
Ġto w
st al
ar th
Ġr ipe
Ġst ate
Ġy eh
ĠD onna
ĠS andy
ct s
ĠA islinn
ĠP ot
co ld
ug ust
Ġopen ing
Ġna ughty
Ġpat ty
Ġpat ient
ĠV ery
Ġspell ing
Ġfree zer
Ġpack age
Ġhum an
Chr is
butter fly
Ġconf used
Pat rick
bea utiful
Ġginger bread
Ġsil ver
T im
h im
m at
w ind
Ġ Qu
Ġa ut
Ġp ail
es sed
Ġdo ts
Ġk o
Ġj eep
Ġpl ug
be hind
ĠD i
why n
ĠJ J
ĠP ittsburg
Ġbat ht
Ġtap es
Ġpot s
Ġrain bow
hur t
fl akes
Ġboun cy
Ġmar bles
The o
Ġbra ve
Ġspin ach
Ġinter act
Ġtou ched
Ġcontain er
Ġgerb il
M an
N ight
j o
m aking
in side
on nie
Ġp ets
Ġf ry
ar ry
Ġwhat cha
Ġsp ark
ĠC aterpillar
Ġsh irts
to e
ĠA mer
Ġya wn
Ġsha ped
ous and
Ġhands ome
Ġcon cer
Ġgrow s
Ġspe c
mon key
Ġcheck ing
ĠJo an
Ġchick ie
ĠMiss us
Ġcoll e
ĠSam my
Ġce ment
pie ce
ĠSc ot
Jo ey
Ġgor illa
Ġnecess arily
acha che
J oe
g or
n on
p ea
s oup
z ie
Ġt ut
Ġt igers
Ġd ou
Ġb onk
Ġl amp
Ġp un
es ome
es pecially
Ġin s
ic o
Ġr inse
pp ity
op s
ag a
ĠS now
Ġsh r
ĠA melia
ĠA frica
ĠR e
Ġevery day
iff ord
Ġv ar
Ġv alentine
Ġex pl
Ġsor ts
ĠK itty
air plane
Ġstick er
Ġfro ggy
Ġroll s
Ġcon st
Ġseat s
Ġslow ly
Ġscream ing
ĠMc Donald
Ġsy rup
plan es
Ġalpha bet
Ġgran ola
Ġreinde er
I n
J ulia
K at
d irty
d ance
h u
p ain
Ġ ig
re st
Ġw aste
Ġb om
Ġc rown
Ġth read
Ġh u
ig an
Ġst able
we ls
Ġn in
Ġj ello
un less
ere nt
ump er
ump kin
ĠT ra
ĠP e
ip s
Ġhard ly
Ġstop s
Ġdro ve
Ġtire s
Ġbake d
Ġfollow ing
Er nie
ĠBer nard
M ummy
b t
b ub
c as
d iff
g ar
l ift
n er
s ea
t ra
Ġth re
Ġhe aven
Ġk not
Ġr ules
Ġst re
un ches
one ly
Ġpre fer
ĠA b
Ġsc oot
sh irt
Ġse veral
lep hones
Ġhold s
ĠH umpty
Ġex p
Ġstay ing
Ġtea pot
Ġch ristmas
Ġfour teen
Ġact ing
Ġpan cake
Ġfish ie
Ġgra vy
Ġim p
Ġpocket book
duck s
Ġcost ume
ĠWill iam
Ġfas cin
Ġsquirre ls
Ġcharac ter
R achel
f ell
t al
u a
in ed
is hes
Ġl ab
Ġl uck
Ġth ousand
ea red
Ġgo ats
Ġk issed
ĠM ir
Ġsp an
ĠC ourt
Ġho l
Ġz ebr
Ġpo ison
Ġdi am
Ġid eas
Ġteet hing
Ġcon es
Ġbar rel
Ġpat tern
Ġbeg ins
Ġbuck le
Ġcarto ons
Ġnorm al
Ġcob ra
Ġwoo ly
Ġzebr as
A l
C har
G ra
g randma
n el
u le
Ġ ill
ha mmer
Ġs unny
Ġc ig
se y
Ġst ood
th ony
do zer
eat ing
Ġso l
Ġsa le
Ġsp iders
ĠC ap
Ġcl ick
ĠD r
Ġcook in
ĠP ete
Ġse vent
lep t
Ġsw am
Ġbat hing
Ġbreak ing
Ġswim min
Ġsun shine
Ġeas ily
Ġfruit s
Ġper haps
Ġrace car
ĠSp ider
uc umber
Ġste pped
Ġcous ins
Ġmeas ure
Ġtrack s
sna p
waff le
Ġsel f
R o
a the
d elicious
e ff
m ic
p art
no thin
Ġst ones
do gs
ff ic
Ġother wise
ĠR ed
ĠT igger
bab ies
ass ie
Ġwalk in
Ġro ar
Ġun screw
Ġte lephones
Ġmov in
Ġatt ack
Ġtrick s
ham burger
Ġind ian
Ġcab inet
iddy up
Ġbatht ub
J ason
t iger
Ġt im
Ġs ang
Ġf i
Ġh ood
Ġha h
st ack
Ġr amp
Ġre sc
Ġre lax
en ee
il a
ĠB at
art en
ĠL aurie
Ġhelp er
ĠF l
red ible
Ġz ero
ĠK e
Ġsk ip
Ġstand s
Ġte m
Ġgi vin
Ġwall s
Ġswing ing
cup cake
Ġkick ing
Ġstom achache
ĠCar ol
Ġcont in
Ġbran ches
Ġlemon ade
udd ly
Ġsurf ing
Bob by
strawber ry
Ġatta ched
erg arten
Ġsund ae
diff erent
O scar
T ony
a pping
b onk
c ur
m arch
s uch
t eet
v ia
w eed
Ġs lept
Ġb ah
is a
er ve
Ġha lloween
Ġin se
Ġr oot
th ought
un ior
ta ge
Ġsp are
Ġsp eed
Ġsp ort
li on
Ġbr ushing
ame d
ĠT ex
Ġwr ist
aw k
aw ai
Ġfro zen
for m
Ġbell s
Ġshar ks
ĠMar ia
Ġsnack s
Ġpillow s
Ġele vator
Ġpea ce
Ġburn ed
ĠAl ice
ĠBar ney
enn edy
gir ls
Ġpoop ie
ĠGr anny
Ġski pped
ĠSus an
Ġphoto gra
ĠCourt ney
C ind
c ir
c ream
d an
d en
e in
e xt
m ix
n one
Ġd ent
Ġc le
Ġp ou
Ġp ouch
ic ho
Ġbe et
Ġthink in
Ġsome place
Ġsp o
Ġco coa
ĠC hic
Ġcl ub
ĠD ebbie
ye isha
put ting
Ġlo af
ĠT adi
ĠP lay
Ġshould ers
Ġsw ord
Ġclean er
Ġpot atos
Ġrun nin
Ġroll er
Ġpain ts
sc r
Ġkn itting
every one
io ca
Ġdra g
Ġpoint ed
Ġcre ep
Ġgrocer ies
Ġbra in
Ġbra ce
Ġenjoy ing
Ġru le
Ġchee k
Ġflap s
Dan iel
ĠPittsburg h
Ġdou bt
Ġcig aret
A unt
B oo
h ug
t w
Ġw ise
Ġs led
Ġc inna
Ġm er
Ġo pp
ĠI sab
Ġme nt
Ġknow n
ab oom
Ġn erv
hm m
Ġfr idge
ĠD akota
ĠS ophie
os quit
li via
ĠR emi
ĠT eddy
Ġlot ion
ĠF rench
ĠE lizabeth
Ġbreak s
Ġpull s
ball oon
fr iend
Ġcatch ing
sc ope
Ġah hah
Ġpeanut s
Ġham burgers
Ġter rific
Ġwa ves
de finitely
Ġpir ates
Ġfus sy
Ġinv ite
foot ball
Ġje wel
Ġtrail er
follow ing
Ġnerv ous
B e
d ered
f ather
h onk
s un
Ġt in
it ar
Ġb ak
Ġb ush
Ġc ell
ll iot
ar r
out s
Ġlet ting
art in
Ġtr icycle
Ġar r
Ġcom m
Ġche at
Ġsc ra
Ġgr ill
Ġpro ject
Ġwh ining
ĠK it
ĠW hite
Ġdraw ers
bl ank
Ġcur ious
igg le
Ġposs ible
lad y
pan ts
Ġneighbor hood
ĠEng lish
Ġcolle ge
Ġhol iday
Ġcinna mon
M ooshas
T abitha
b ul
b ac
m us
Ġw ine
Ġd ate
Ġth irteen
Ġk leenex
al ong
Ġpl us
ĠM innie
there d
us ual
Ġtoo t
uck le
Ġcar ries
to gether
Ġcom plain
ĠJ ane
ĠJ immy
lor ia
ĠP ark
Ġday care
Ġcup board
ble d
Ġpig let
Ġtra ffic
ĊĊĊĊ ĊĊĊ
Ġpan s
fr uit
osaur us
Ġexc ellent
og na
Ġfur ther
Ġser v
Ġcap ital
Ġrac ing
ĠBoo boo
ashing ton
Br ittany
Ġsep arate
C hantilly
e ms
k ick
l ine
m ag
w uh
y l
Ġ ooh
Ġt ons
on no
Ġb are
Ġc el
Ġl onely
Ġm ap
Ġp aid
ve nty
Ġr ot
Ġno rth
al ways
ust in
ĠB ab
gg ies
ĠA ri
Ġgu itar
ĠJ uly
Ġlo gs
Ġfl akes
Ġpe g
Ġpe ppers
ĠL illy
Ġna ppie
ub by
Ġsec onds
Ġgra ham
Ġpour ing
cup s
book s
Ġant eater
Ġelect ric
Ġig no
ĠTex as
awai i
Ġcle ver
B rian
K alie
U ncle
b es
b zz
d inner
Ġt roll
Ġw i
on i
Ġd est
Ġg oofy
Ġc enter
Ġf li
or ld
id i
im i
im p
Ġsp out
omet ry
Ġkind ergarten
ĠS ara
ĠJ aylen
Ġfl uffy
Ġpe ck
ĠN oah
ĠL ily
Ġcr ashed
ri ly
ĠK im
Ġcho ps
Ġsqu ishy
bl ocks
Ġow ie
Ġswim s
Ġtick ling
per haps
Ġaw esome
Ġscr ub
com b
Ġmagnet ic
arent ly
ĠBar bara
Ġer ase
Ġrais in
Ġbull dozer
pu pp
carrot s
tast e
Ġwal rus
inoc chio
teet h
Ġment ion
Ġcel ery
T od
i key
p aste
t re
u ation
w et
Ġt ied
Ġs ou
Ġo p
na ck
Ġwe igh
Ġr ush
Ġst em
do ing
ry stal
Ġy ah
ra x
Ġsa f
art ment
Ġbl ink
ĠP r
Ġcr ooked
Ġpo ke
Ġna tur
Ġch ug
Ġro be
Ġtap ioca
Ġair planes
car ry
Ġquiet ly
Ġground hog
ĠJen ell
Ġdream s
ugg le
rr rr
Ġadd ress
Ġshell s
Ġbark ing
ict or
Ġdam n
ĠMir iam
Ġpou red
J J
a co
t adah
Ġt end
Ġw easel
it er
Ġb ars
Ġc oo
Ġc ucumber
Ġm op
ld ow
Ġsee d
ro ad
ep te
Ġal though
ĠS an
put ta
ĠA ll
Ġhome made
ĠN aomi
ĠT ommy
ĠL yn
ĠF ro
Ġsc arf
Ġcr ank
Ġen ter
Ġdi et
Ġun usual
Ġpr ice
hee hee
Ġboun cing
Ġatt ract
Ġbeg in
Ġcal m
An nie
Ġfus sing
Ġpor ch
par don
egg s
Ġbas ically
iver sit
Ġcot tage
Ġmem ory
Ġphotogra ph
C olin
J aylen
L ittle
R ob
c key
s u
Ġ ver
Ġa v
er k
Ġh ic
Ġre sp
hi l
Ġsp ent
Ġback pack
Ġread in
ĠB uzz
art s
Ġbl ah
ess ion
Ġdr ool
ate ly
Ġsc ience
Ġfind ing
Ġact iv
Ġstr uck
ib ly
Ġstore s
Ġtick lish
onna ise
Ġknock ing
Ġkn ives
ĠEr ica
Ġten n
Ġwat ches
Ġgold fish
Ġea ster
Ġger ms
gir l
cent r
Ġwre ck
Ġfil m
Ġfright ened
break fast
Ġko ala
epte mber
C at
G re
G eor
S www
c ra
c ca
d rop
j us
o lly
s and
t ree
is hing
Ġl itt
Ġp aws
Ġf ear
or der
st ic
st uff
Ġe nt
en ing
do ggy
ĠM el
ill s
ta king
Ġsa u
ag ed
come re
ain e
ĠB unny
Ġpre f
Ġsh oo
Ġtr uth
ĠL es
Ġbre athe
cl uck
Ġbag el
Ġun happy
ich igan
ile y
dd ie
Ġblank ets
Ġcur ly
Ġpres ident
Ġfair y
spoon s
Ġskunk s
tur key
ĠAnd rew
ĠChris ta
Ġcop y
Ġcrunch y
Ġslee ve
Ġfrustr ated
Ġfingerna ils
apples auce
Ġtut u
cas ion
Ġbrace let
d u
i ers
k o
re mind
in ny
Ġs om
Ġs our
on een
Ġd el
Ġm essed
Ġp h
id d
ch u
ĠM al
ce real
Ġbo lt
Ġback ground
Ġbook case
ĠD ick
Ġbl ind
Ġbl ond
Ġtr an
Ġcom ma
ĠJ ames
ame n
ĠL ord
ĠH a
ĠH awaii
Ġfall in
Ġact ual
other wise
ex act
unt il
Ġboot ie
Ġlaug hed
Ġspl inter
Ġmix er
Ġter ms
gr ab
Ġgiraff es
una te
wr ong
tur tle
Chr ist
Ġmam m
Ġchee ks
Ġabc s
ĠPig gy
ĠNor th
Ġconne ct
Char lie
Ġjewel ry
Ġenter tain
L iam
M e
b ake
h un
m oon
m unk
Ġ Xavier
Ġd ere
an imals
Ġl ower
Ġit ems
ea h
Ġha n
Ġr ose
Ġr aw
Ġr ail
ad le
as cal
Ġy o
Ġab solutely
han ie
ep hanie
ĠC hin
ĠC ount
li ves
co at
pen gu
Ġbre ath
Ġwatch in
Ġeven ing
Ġcut ter
man y
Ġfire truck
Ġsing s
Ġcorn flakes
Ġwash cloth
Ġhors ies
ĠO ld
Ġtall er
Ġtooth paste
vel op
ope ye
Ġob ject
Ġgold en
Ġforest s
kiss es
St reet
ĠWood y
Ġspr ink
crack er
Ġstea m
cray ons
Ġrea ched
Ġspec ific
Ġthre at
Ġdiam ond
ĠBat man
Ġtem per
osquit o
B aaee
M ay
b ly
f a
m ush
u ed
Ġp ed
Ġto wels
Ġr out
as p
Ġshe et
Ġpl ugg
Ġnot e
ag u
did ldow
ĠD or
Ġar my
Ġag ree
ul ie
ĠJ ones
ĠJ ean
Ġschool s
bab a
Ġmon arch
for ty
Ġstand in
ach oo
Ġhit s
Ġdis cus
Ġsix ty
ato es
mon ster
Ġsn out
Ġsn eeze
Ġham ster
Ġclos ing
Ġfif th
Ġang el
ram bled
Ġsli p
bird s
ton ight
Ġrep eat
Ġdep ends
ĠCl ifford
di aper
ĠJess ica
ĠEwo k
Ġscrat ched
Ġdent ist
B ook
b orn
g in
s pe
Ġw ool
Ġs ilk
on ies
Ġd igg
Ġm unch
Ġm ike
es ts
st ep
Ġme l
en ces
Ġsome day
Ġbo ss
il bur
Ġwor ms
ĠR enee
Ġpu dd
ĠP inocchio
ĠL in
ĠL ex
ist ic
ĠG loria
Ġsw ings
Ġdi zzy
Ġend s
Ġend ed
Ġam bul
sc oop
Ġcon centr
rand pa
Ġpark ing
Ġty pes
ale nd
Ġpock ets
com es
ĠSte ven
Ġgroup s
Ġspank ing
Ġgener ally
ĠGram pa
Ste ve
sock s
sn ip
Gra eme
exact ly
J amie
J esus
O liver
c ute
l ead
p ol
Ġt um
Ġm unches
Ġh oop
Ġha w
Ġst ock
Ġre ct
Ġme chan
Ġn et
Ġj ail
ro y
Ġsp itting
Ġsp onge
ĠD arth
Ġwor st
to ise
Ġfl ag
ĠT h
Ġwon t
Ġwr ink
Ġhead ache
Ġdrink in
Ġhear ing
Ġpig lets
Ġbird ies
col n
Ġbag els
Ġunt ie
Ġbowl ing
Ġkn ick
Ġbump s
ĠU n
Ġspl it
Ġspl at
Ġmar ble
Ġmach ines
sl ide
sw ing
Ġpil es
pig gie
Ġbother ing
boun cy
str ich
Ġdire ction
spl ash
Ġlip stick
fif ty
Ġlos ing
Ġdiap ie
Ġlas ag
iversit y
Ġtenn is
C he
D umbo
K ennedy
c ro
e ither
i olin
l ers
o int
p umpkin
r ice
s ort
y la
z oo
in er
Ġp ine
ay a
Ġf ault
Ġo strich
Ġto ad
Ġwe dding
Ġr unny
all ey
ot s
ĠM oosh
ĠM ichigan
Ġsp aces
ĠD erwood
ĠS qu
don key
ĠA ugust
ĠP l
ĠF armer
Ġex am
Ġwh om
Ġsl ices
Ġde velop
for get
Ġfire place
Ġsing in
any a
Ġbang s
Ġmom mies
Ġbump er
anta stic
Ġrem ote
Ġrat tles
Ġta x
sweet heart
rac ula
Ġge ometry
Ġjam mies
bro ccoli
Ġmall ard
ĠMoom ooshas
Ġoc casion
cou ra
Ro bert
icho las
G randma
Z oo
f at
g osh
j udge
m ar
p ies
p eekababy
r at
s chool
u u
Ġs ack
it in
on a
Ġd uh
Ġc u
Ġc ond
Ġc ooper
Ġl aid
Ġo we
et ho
Ġk it
Ġr ack
ad ada
Ġe ff
en e
en ough
Ġfor ks
Ġj ug
if ier
hi on
Ġbo dies
ag ag
ast name
ĠD on
ĠD en
ĠS ky
row ave
to ast
ĠA my
iss y
ĠP uddy
ĠF o
Ġle f
ĠE ddie
Ġpi zz
Ġreal ized
Ġz i
Ġthrow s
av in
most ly
Ġstr ings
with out
Ġsal ty
Ġpat h
ĠMon ster
ĠCar le
Ġsail boat
Ġchick s
ĠSp an
Ġsees aw
Ġla zy
pig gy
Ġsafe ly
iv al
ik i
Ġdep artment
nin ight
strawber ries
tast es
scr atch
ĠLes lie
remind s
etho scope
N or
R ichard
d ers
k iwi
p ir
r an
s ugar
u y
u cy
w ake
Ġb um
Ġm ous
Ġh unt
Ġon ions
st ar
Ġr ude
Ġre turn
pp les
ta kes
Ġcar ried
Ġwor th
Ġho ckey
orn s
Ġse venty
ĠK r
Ġkeep ing
air y
Ġbad ji
try in
Ġpol ish
Ġeye b
haha ha
could n
Ġhope fully
ĠV on
Ġcover s
Ġspell s
Ġwha ck
Ġalligator s
Ġcheer lead
call ed
mom ma
Fr aser
Ġhy rax
ĠTod d
Ġsudden ly
Ġsevent een
aco b
hun m
Ġambul ance
D e
E lmo
d in
m uch
t es
t ook
t welve
Ġ oop
Ġt ar
Ġb aker
Ġm ow
Ġm ater
Ġp onies
Ġth under
Ġo dd
Ġhe dge
Ġno ses
ust er
ĠM e
hy s
ĠB illy
ap an
ĠJ eff
el ine
Ġbr and
Ġcr an
Ġbed room
Ġpick in
Ġhold in
Ġgreen s
Ġtast ed
Ġcaterpillar s
Ġkno b
Ġbel ow
somet hin
Ġpr ick
ĠO re
Ġdry er
Ġmic rowave
Ġdra wn
da isy
Ġscratch ing
Ġmatch ing
Ġmoun tains
Ġperfect ly
ĠGood night
ĠRo bert
umm ie
ĠSpider man
bes ides
unate ly
B ut
g ue
h ungry
i ppy
m ers
p hone
s ave
w are
Ġ icing
Ġt ag
Ġw hi
Ġd ining
Ġit chy
ad dle
as y
al ing
th irty
Ġy all
ta sty
ro ar
us se
Ġbo thered
Ġback s
ag uh
Ġcl apping
ĠS ister
Ġar row
ree k
ĠP am
Ġmilk shake
ĠW ilbur
Ġapp ears
Ġtra vel
Ġmust h
Ġmess ing
Ġdis co
Ġmay onnaise
Ġgar lic
Ġeight y
Ġdes ert
bet ween
Ġreach ing
Ġpee led
Ġstack ing
Ġyell ed
Ġsqueak y
Ġenjoy ed
Ġchip munk
ĠKat hy
Ġinv ol
Ġdist ract
spl ish
ĠBo bo
Ġtor toise
Ġpos ition
Ġpray ers
Ġstret ch
stra ight
ele ven
Ġhugg ing
Ġgall ons
Ġbol ogna
Ġvar iet
Ġinse cts
Ġopp os
tre es
Ġsau cer
B ert
B ambi
D erwood
H e
J enny
L uke
S euss
W hat
c our
c aterpillar
f ound
g lasses
l ob
m eat
o ctopus
t ee
Ġt ease
Ġw it
Ġs hi
Ġd eter
Ġb on
Ġb itty
Ġb raid
Ġg oof
Ġg ums
Ġg iddyup
no m
er gy
Ġf oo
Ġto ward
Ġha bit
ver t
ink er
Ġbe came
ab ab
Ġn on
do lp
us ing
be ans
Ġco ke
Ġover alls
ag o
Ġmo d
get s
ĠA id
ĠR ock
Ġsha ve
ĠF red
Ġsho ve
Ġgr ad
Ġgr ouch
Ġna ked
ĠRoss y
ĠW ashington
Ġcut s
Ġcho pping
irth day
Ġside ways
ps st
Ġexc used
ĠO livia
Ġgra v
Ġdoctor s
Ġcomb ination
Ġsalt ine
Ġda e
Ġfis hes
gra pes
Ġlick ing
Ġgrown ups
Ġes cap
gir aff
Ġflo ppy
ict ion
Ġwre st
Ġvitam in
Ġwigg le
adad ada
Ġrhy me
ĠCat hy
ĠFran c
ĠHung ary
Ġscre en
N an
P apa
P ete
S ally
W ill
b ra
n uhhuh
s itting
u k
v ory
Ġt il
ha ving
Ġm osquito
Ġp ins
Ġh ooked
Ġk icked
ir l
as es
as hes
al ity
Ġdid dle
day a
ĠD a
up side
ul ts
Ġdr ill
Ġbu dle
gg ing
ĠR olan
el a
ĠN ext
ĠL o
ĠL isa
Ġcha sed
Ġsc rambled
Ġcr adle
Ġwr itin
Ġunder wear
Ġex press
Ġapp arently
Ġsu pp
Ġbuild ings
Ġcap tain
pop corn
Ġspeak ing
ĠSte fan
Ġcrab s
Ġpract icing
Ġflo at
ĠIndian s
po int
Ġmam ma
sal ami
Ġbi kes
waff les
Sam antha
Ġbiscuit s
pic ture
Ġtim er
Ġnatur al
S andy
T ommy
b yes
b awk
c ars
d ah
m orn
t ow
t ion
ha lf
Ġw ea
Ġd et
Ġo per
na p
ow l
ch ild
hi pp
am my
il ocks
but ton
Ġcl oud
ĠB ill
zz ie
Ġar gu
ool aid
ul ous
get tin
Ġcom mer
ĠR oy
ĠJ ustin
Ġbet cha
Ġhand ed
Ġche ep
ĠN athan
ĠP opeye
Ġle vel
Ġbit sy
Ġen vel
Ġfeel ings
Ġthrow n
ĠW e
got cha
Ġsk ate
Ġid ent
ud dle
Ġsoft ly
Ġap ron
Ġleg os
dr ive
jump ing
Ġpenc ils
ĠIn v
ĠBr isco
Ġhon est
Ġless ons
Ġpac ifier
Ġparticular ly
cal m
ĠHe len
Ġmain ly
Ġcub es
mark et
Ġwra pped
Ġresc ue
Ġpref ers
Ġsom ers
Christ opher
B unny
C l
D o
G ood
I t
L e
c ross
n eat
o le
Ġt at
ha ven
in al
Ġw ast
Ġw eensie
Ġs ym
Ġp hys
Ġk er
Ġli m
ad ing
Ġst irr
Ġst ethoscope
do ctor
ĠM ia
ĠC ity
Ġcl op
ĠD ay
ĠD racula
Ġsh ook
Ġche ating
ĠL ion
ip ment
when ever
Ġwalk er
end y
ri be
aw right
ĠK er
ĠW ars
Ġsu gg
Ġgl ove
sha r
col m
Ġchan nel
Ġdri vin
oun ce
Ġpol ite
int erest
Ġdrive way
cher s
Ġblow s
Ġspill ing
Ġscr itch
Ġsea weed
em o
Ġdes c
Ġmail box
Ġpet ting
bird ie
Ġcost s
Ġimag ination
Ġfas hion
erg ic
Ġsniff s
ris pies
Ġproper ly
ĠScot t
ĠCap tain
Be cky
Ġserv ice
spe cial
Ġpizz as
B ar
M ot
b aker
f uzzy
l ock
m oney
p ass
z ed
Ġ ll
Ġ ut
it zie
Ġc hose
Ġp a
Ġon ion
oh na
ad y
Ġre act
al o
Ġshe ets
un cle
if y
Ġall ergic
ĠM www
gg ed
ĠR www
Ġwater fall
Ġsc oo
Ġpro f
Ġcat ches
ĠH el
ge y
Ġkid do
Ġpull in
Ġjump in
Ġhop ing
Ġun zip
Ġmus hy
Ġmiss in
every where
Ġunderstand s
yum yum
ĠU sher
Ġpus hes
Ġgrab bing
Ġmix ing
cup cakes
Ġmar ch
Ġnut r
duck ie
Ġra ise
Ġad vent
Ġburn ing
Ġsur fer
ric ia
dad ada
Ġcor ds
udd en
Ġdecor ation
Ġrob ot
Ġdisapp ear
ĠBo zo
Ġslipper y
ĠHung arian
Ġtu be
vie w
Ġinc redible
Ġflash light
Ġconcer ned
Ġmer rily
Ġrot ten
Ġrail road
Ġtemper ature
ĠSpan ish
Ġcheerlead ers
Ġcommer cial
Ġenvel ope
F arm
S ha
T om
b ull
d at
m otor
m wuh
s udden
v r
v ard
re ach
Ġw ob
Ġw icked
Ġc alend
Ġm id
Ġp it
Ġp ra
ig hed
ut o
ut y
Ġr os
Ġe vent
ood ood
ed i
th y
ear ly
Ġsp inning
ber s
ĠD umpty
see ms
ĠS uper
ĠS euss
to y
ang les
ĠJ ulie
ĠJ apan
Ġho pping
Ġus ual
ĠP et
ip er
Ġhear s
Ġblue berries
Ġbea d
Ġde vil
sp in
Ġtrain ing
Ġtrain ed
Ġits y
imb a
ĠAn thony
Ġwa x
cow s
Ġjo in
Ġpasse nger
sa usage
rabbit s
Ġcollect ion
And rew
Ġexper ience
Ġequ ipment
ĠPot ter
Ġpeace ful
Ġhic cups
cour se
D umpty
J immy
K e
b ase
l amb
m are
n et
n inet
r ooster
Ġs us
it ive
Ġc uddly
Ġl ord
le br
Ġin k
Ġis land
Ġli z
as ha
Ġre port
Ġj ingle
Ġpl um
Ġsome how
be ing
Ġcar n
ĠS weet
ĠS har
bo l
alright y
ĠA ng
ĠR u
oor ay
Ġsit uation
ven ue
ĠT r
Ġcha in
Ġqu arts
Ġcr ane
ĠG oofy
Ġpro b
ĠH o
Ġv ol
Ġna ture
Ġwh oo
Ġhot dog
Ġro d
ĠK ate
Ġact ive
Ġsk ating
Ġrec ipe
bl ock
Ġchan ges
Ġtick ets
Ġton ic
Ġrest ing
Ġchew in
cher ry
Ġclimb s
Ġround ed
Ġspl ish
Ġcra cked
ppose d
Ġad ult
Ġfair ly
uc as
Ġtip toe
ĠBe cca
Ġexerc ises
Ġslee ves
Ġdoughnut s
Ġweb bed
Ġvers ion
Ġvio le
She m
ĠAmer ican
cir cle
blank et
Ġrect angle
ohna than
sudden ly
B o
B rett
F oot
I sab
P ig
S p
S unday
W ood
b by
b ears
f arm
g ah
m ac
o ys
p us
s i
t able
Ġt ables
re ci
Ġs ung
hat ty
oo s
Ġp hones
Ġf ra
Ġo lives
Ġhe ro
or ds
ĠI tal
Ġe vil
ie n
Ġout door
ĠM ikey
Ġsp ee
Ġtoo ts
be l
il ity
ep end
ĠC am
ĠC olin
ĠD exter
Ġoff er
Ġar f
alright ie
ĠN ame
ĠP an
ĠL assie
Ġcr is
Ġju icy
Ġwr itten
Ġnight time
Ġen ergy
Ġtable cloth
ti red
Ġtap ing
Ġdi bble
Ġfire men
Ġchi li
Ġmother s
boo sh
Ġset ting
Ġmus cle
Ġscare s
ĠMic he
Ġhang in
Ġper cent
Ġcover ing
Ġdump ed
Ġsweat shirt
Ġsew s
Ġad vert
Ġad ults
Ġsave d
Ġgun s
Ġfirefight ers
Ġce lebr
Mat ty
ĠHar vard
Ġposs ibly
ĠGram my
color s
Ġdisapp eared
mur f
Kat ie
Ġfascin ated
Ġill ustr
Cind erella
Ġcomm un
mush room
Ġspaces hip
Ġoccasion ally
Ġmater ial
Ġgrav it
morn ing
Ġadvent ure
Ġcalend ar
B en
D ot
E llie
d um
g aret
i ally
j am
n i
r ings
s li
t oot
u el
Ġ q
Ġ eensie
Ġt uck
re c
Ġw inner
Ġb in
an n
Ġl ic
no g
Ġf ol
Ġdo w
ic les
we red
ch in
ust y
look it
ro be
ell a
op hone
Ġor gan
han non
ĠB uddy
ĠB ugs
Ġcar ve
Ġne ither
ess a
ree ze
ĠA aron
lor y
Ġho ll
Ġbr ief
go bble
Ġsha ving
oot ie
Ġmouth s
Ġpro p
Ġsw ish
ne ck
Ġnight s
Ġv iolin
Ġwait in
Ġbre ast
Ġapp et
Ġapp reci
Ġint ro
Ġsl ides
Ġde f
cl own
lot te
Ġdri pping
Ġmess age
Ġset tle
Ġforgot ten
ĠV ictor
Ġmark ers
Ġstor m
Ġsim ple
Ġparrot s
Ġseal s
Ġyog hurt
Mom ma
Ġpony tail
Ġpenn ys
ĠCh uck
Ġspr outs
Ġlif ting
ĠEm ily
Ma x
ĠTra cy
bub bles
tra ctor
Ġtroll ey
Ġdest roy
Ġent ire
Ġthreat ened
ĠLin coln
Ġlef to
Ġvariet y
Ġoppos ite
Ġmod el
A m
C an
D exter
G www
L aurie
M ac
M ia
b ath
f ace
k n
p ooh
p apa
r ide
r hinoceros
w arm
y i
y all
Ġs ight
Ġd are
Ġb er
Ġb unk
Ġg ift
Ġc ent
Ġc av
oo gey
Ġm ou
Ġth r
es ting
Ġdo p
Ġto ss
na st
ad o
Ġdon g
Ġso fa
ĠS her
ĠS andra
ĠS murf
ct o
to es
ere nce
Ġdr ums
Ġbu ggy
ĠA m
ĠR abbit
ĠJ acob
ĠN icholas
Ġhelp ful
Ġcha rt
pl us
Ġsm ock
Ġunder water
Ġthrow in
Ġwh oop
Ġch illy
Ġhot el
Ġtop s
Ġde v
Ġstick in
Ġbus es
Ġact ion
Ġrecor ds
br idge
ier re
fin ity
Ġdec is
Ġdes erve
Ġmark s
Ġwha les
Ġsquir ting
squ are
Ġcher ries
Ġste pping
Ġbeat ing
talk ing
Ġgrown up
fro ggie
ĠJack ie
ĠGra mma
fort unately
sal t
ĠGre at
whad daya
Ġcorrect ly
Ġcrow ded
Ġpri ze
ĠEd na
Ġbrick s
ĠPe anut
Ġlab el
balloon s
Ġdigg ing
Ġeyeb rows
Ġinvol ved
Ġber ries
D www
G abriella
M other
W eener
b in
b al
c os
j e
j ah
m uff
r um
v al
Ġt ad
Ġt ears
he h
an tern
Ġc uddle
Ġth ump
ea rest
ea pples
na l
st em
Ġk i
Ġst ing
Ġst ream
Ġre fer
ab a
ab ee
al so
Ġfor t
Ġwant ing
hm allow
ĠM artin
ra ig
ick ory
Ġal ike
ĠB a
qu iet
Ġbl ame
li ons
go in
ue y
ĠN ick
ĠT oy
Ġsha kes
Ġremember s
Ġsc ar
Ġsc hed
sh oot
pl ate
Ġgr umpy
Ġcr ies
ĠH ow
ĠE mp
Ġroom s
Ġsl iding
Ġpan ties
Ġbuild in
Ġpen s
iz ard
cha se
oun tain
ars hmallow
sc oot
Ġpat ting
gre ss
Ġapart ment
Ġve hic
Ġfigure s
Ġtoast er
vis ible
Ġvis iting
Ġmar ry
feel s
Ġtw inkle
Ġfre ight
water melon
Ġwo k
ĠChe w
Ġcoll ar
Ġquarter s
ĠInd ia
Ġpas sed
Ġbal an
Ġbabydoll s
Kay la
Kay ode
eez ed
Ġsteal s
Ġsold ier
omp om
Ġstud ents
chan ge
Ġexper i
Ġble ed
Ġref le
swim ming
Ġscra pe
Ġsaf ety
ĠAll ison
Ġshoo ting
Ġblond e
Ġrout ine
Ġplugg ed
Ġsilk y
Ġlasag na
Ġtax i
giraff e
child ren
Ġsugg est
M c
U m
b elly
c re
c ie
d is
h on
l ife
z a
Ġt ab
Ġt wer
Ġa ff
Ġw eak
Ġs en
Ġthe ater
Ġb zz
an ts
Ġg ee
Ġm ul
Ġp eekababy
Ġf ir
Ġf antastic
Ġth i
Ġo pposed
Ġto re
le e
Ġin ches
Ġk in
Ġli qu
and e
Ġr ich
here sa
Ġst yle
Ġre nt
me nd
ch ief
Ġpl eas
ust ed
Ġnot es
ĠM oo
ĠM all
ta ils
so ap
ĠC e
Ġal arm
ĠB al
Ġpre p
ĠS m
Ġwhere ver
Ġsh ining
Ġcall in
Ġche f
ĠN anny
Ġsc ale
ist s
pl ums
ĠE lliot
Ġpi pes
Ġreal istic
Ġguess ing
ĠW al
ĠW endy
ooh oo
cl o
Ġsna ps
ant ly
Ġwind y
fin ished
Ġseven th
car let
Ġim it
Ġdro pping
Ġi vory
Ġdrop s
bug s
Ġrid in
Ġrid ges
Ġob s
Ġgrocer ys
Ġfact ory
ĠZ ach
pig s
Ġfollow ed
ient s
Ġbull s
Ġlar gest
Er ica
Ġsund ay
Ġcharac ters
Ġweight s
fif teen
pin eapple
Ġpitter pat
Ġelbow s
ĠHan nah
Ġassoci ate
Tim othy
Ġexpl ore
Ġcontin ue
ĠFro sty
cra zy
Ġlitt ler
Ġpudd le
Ġexam ple
lob ster
ĠWe ist
motor cycle
base ball
A llen
D uck
F l
M orgie
R olan
c andy
s ad
u ct
Ġ ee
re me
in cess
Ġs outh
Ġs ile
Ġp ure
Ġdo zen
or ter
ic ulous
Ġwhat s
Ġst amp
Ġbe nt
Ġsee k
ie w
um es
eat s
Ġbo iled
ick et
ick le
be lt
Ġany ways
ĠB rett
ĠS eptember
Ġwho ever
ong a
to ld
Ġhapp ily
bo on
Ġcook s
ĠN icky
ĠL ance
Ġsha de
Ġsha ky
ĠF itzie
Ġfind s
ĠG us
Ġhair s
Ġsm ack
Ġnight mare
ac ked
Ġdifferent ly
Ġch ief
Ġcow boys
Ġegg nog
ild a
Ġsl im
Ġde ck
Ġbus hes
Ġfire s
Ġpush in
Ġmat t
iz ing
Ġhop s
unk s
Ġlisten s
ian s
Ġfo cus
Ġpr on
Ġbar be
Ġdress er
Ġclock s
Ġgra mma
Ġcur l
Ġmusic al
dr ant
Ġser ving
Ġclass es
Ġans wered
Ġsail ing
Ġsail ors
Ġtight en
Ġanswer ing
Ġfree zing
under neath
Ġind epend
Ġsuper market
Ġnic er
Ġrel ated
ĠKat y
Ġflo ating
soft ly
Ġru in
ĠDisney land
Ġlean ing
bar row
Ġswallow ed
Ġfingerna il
Ġbol ts
Ġvio let
Ġsmo king
ĠChic ago
Geor ge
Ġdiscus s
Ġsomers ault
ĠEmp ire
carlet t
A islinn
B am
H umpty
J enn
K aren
N athan
b ah
b uckle
d uh
f y
f ill
f ull
g ers
m i
s eal
s uper
t ool
t ri
y ond
Ġ ing
Ġ icky
Ġt inker
re sent
Ġs aturday
Ġb ald
Ġl ookee
Ġm aster
Ġp aw
Ġit ch
se n
or anges
le mon
Ġin form
ut s
Ġst ere
Ġbe have
Ġn earest
um ing
th ur
ĠM ass
Ġplay ers
Ġeat ers
Ġher d
hi lip
Ġor ig
am ily
be ets
she s
Ġcl ink
Ġbu nd
Ġcom mon
ĠN at
ĠT anya
co coon
oss um
Ġhead ed
Ġspoon ful
Ġplease d
Ġen coura
Ġold s
ri ka
aw a
Ġpar ked
Ġbye byes
Ġswim mers
Ġmom s
els on
Ġsmell ing
oy o
lea ves
Ġpin eapples
Ġsummer time
med i
Ġland ing
Ġwheel barrow
cho p
squ irt
walk ing
gra pe
ĠBar ry
Ġless on
ĠLe ila
nut s
Ġbal oney
Ġchalk board
Ġmill ion
Ġhy drant
ĠKay la
Ġdire ctions
Ġbas ic
Ġghost s
Ġje ans
ĠJill ian
Ġcot ton
dinosaur s
Ġvers us
ĠMad eline
ĠPot ato
Ġconst ru
Al ice
ĠIsab elle
ĠLyn ette
Ġcrank y
Gre gor
ĠPam per
Ġdeter min
Do ctor
Ġstirr ing
interest ing
cto ber
Ġexperi ment
A id
M ad
V ader
c ry
c il
d ough
g rown
k ne
n es
o key
s aw
t ered
Ġt umble
in o
it a
Ġb ou
Ġg a
is bee
ay ay
se l
or ies
ut ter
the m
at a
at ee
Ġr asp
Ġn ana
Ġj oy
ice man
ra h
am ian
ĠC oke
ĠD yeisha
Ġche ap
Ġbr u
Ġbr ushed
Ġfa wn
go ld
ĠT ur
ĠP ep
oot s
Ġsc ene
of ten
sh ort
Ġwon dered
Ġduck ling
ĠW orld
wh is
Ġbuild er
Ġrock in
ng th
Ġclo thing
br oom
Ġpop ular
Ġpol ar
ead ow
ĠFr anny
Ġban jo
Ġpolice men
Ġsmell ed
eter y
Ġcam per
Ġstrong er
Ġcomb ing
ĠMat t
Ġtong s
Ġwa ist
Ġwhis p
Ġsto pping
Ġfis hy
squ ir
Ġfill ing
Ġsqueak s
ĠAl ad
Ġer aser
Ġjo king
Ġcab oose
ĠCheer io
Ġclear ly
Car ol
Ġtreat ment
whe w
Ġplain s
Ġthro ats
Ġdire ct
ĠHe idi
ĠPig let
Ġinstru ment
Ġpal ace
Ġrhy mes
ĠEng land
Ġed ges
bus y
hope fully
Ġshout ed
ĠJoan na
Ġnin th
Ġexp lor
Ġcigaret te
Rob in
ĠKr isten
Ġdesc ribe
ĠShar on
Ġsung lasses
Jenn ifer
medi ately
kne es
A pril
D on
D yeisha
H a
R osie
S us
f re
g oose
i que
n igh
s hip
u pp
Ġt rop
it us
it able
Ġd ying
Ġc ass
Ġc mon
Ġm arshmallow
Ġp ompom
id re
st uck
Ġwe ighed
Ġe w
uh o
Ġst at
Ġshe r
Ġpl ow
Ġout a
hm hm
ĠM um
ĠM am
ĠM ex
us hes
Ġbo ck
ick les
so da
ive d
ĠC on
ĠC hantilly
ain t
ĠB ur
our s
qu er
ĠS h
ĠS ean
up stairs
Ġtr ot
ang a
her s
Ġgu ard
oop ers
pe pper
Ġwater ing
ĠP ascal
Ġle mur
Ġlea vin
che ers
ĠH ood
ĠH am
Ġv ase
ĠW hat
Ġtra pped
Ġstr ang
Ġrock y
ret te
any one
Ġdan ced
Ġpain ter
Ġfly in
Ġtur keys
Ġcount ries
ol o
Ġpat ter
Ġgra cious
Ġsnow ing
Ġim mediately
Ġboun ces
Ġstep mother
Ġang els
Ġsweat ers
Ġplan es
Ġstraight en
Ġnear ly
Ġta co
Ġsent ences
Ġtrip s
ĠChar lotte
Ġba the
Ġsign s
Ġcost umes
ĠRob bie
Ġcarri er
Ġcough ing
whe els
Ġsmoo ther
sna ke
Ġprom ised
Ġsurf board
Ġbi ka
ĠGram py
Ġpad dle
Ste fan
Ġfool ing
Ġelect ron
Ġsquirre lie
ĠGold ilocks
ĠMoom oo
El ana
Ġpun ish
hu ah
Ġswam ps
Ġcreep y
Ġcigaret tes
Aunt ie
Ġactiv ity
ĠHa ppy
ĠDen ver
Ġcran berry
Ġcarn ival
nast ics
Ġsched ule
Ġmatt ress
tri angle
Ġdetermin ed
C h
J erry
O ld
R emi
Y ou
b urn
b irthday
f ing
f old
g um
g os
g own
k i
k aboom
n ers
o lf
p oon
s urpr
s ushi
v ark
v ious
Ġt ends
Ġd rown
Ġd arn
Ġc ork
Ġl at
Ġp up
et tle
Ġhe ck
Ġh om
ve get
id ence
na w
all igator
Ġst ub
Ġbe yond
al og
Ġn ummy
Ġup py
do lly
if ts
ter rific
nt own
us ages
Ġbo il
ear ch
Ġhis t
ĠC an
ĠB ea
Ġpre gn
ĠS hannon
Ġbl ouse
ĠR ex
ĠJ edi
Ġche cked
Ġche wed
ĠL a
ĠL iam
Ġsc rib
Ġgre ase
ard vark
Ġpro du
Ġshow in
Ġour selves
Ġbit s
Ġnight gown
Ġv ine
ĠE ma
Ġsqu ish
Ġsk ates
Ġfeed s
Ġask s
Ġsand als
Ġpar lor
ove mber
Ġtick et
Ġpol ka
int st
Ġbar rette
Ġdress es
Ġbottom s
Ġve l
aid s
Ġcomb ed
em pty
Ġcraw ls
Ġcraw led
Ġcour t
ĠSt ephanie
Ġeng lish
cat s
Ġsto le
Ġrid iculous
cow boy
Ġcap e
Ġadd ed
Ġnewsp apers
Ġsmile d
lo ves
light s
ĊĊĊĊĊĊĊĊ ĊĊ
bu quer
Ġcross ing
Ġstrip ed
ses sed
Ġgrape fruit
ĠSc oo
Ġdecor ate
Ġund ressed
Ġass uming
Ġpost er
van illa
wonder ful
wor ld
chick ie
ĠGold ie
Ġstri ke
Ġaut hor
ĠAmer ica
Ġyawn ing
Ġshr imp
Ġbak ery
mus ic
ĠChin ese
Nor man
Ġdet ail
Ġprop ell
Ġintro d
Ġinform ation
huah ua
buquer que
D i
G ram
K ip
M oom
N onna
T hursday
U sher
a way
a unt
b zzz
c am
d oh
g l
o id
p ear
p ast
t una
v io
y o
re ls
Ġw aking
Ġs ire
Ġs ets
on der
Ġd ee
Ġb ir
Ġb ul
Ġc em
Ġl it
Ġm ummie
Ġm eadow
Ġp sy
Ġf iddle
Ġf udge
Ġth ief
es se
Ġhe els
Ġh ye
st ood
st ed
Ġr oo
ad ding
Ġre ce
ho e
ch ie
ch ip
Ġwith in
Ġget cha
Ġfor ce
ur y
ĠM o
ĠM ill
Ġher ds
who le
ra is
ra ce
Ġbo ing
Ġsp orts
be es
Ġco ins
ĠC raig
au de
Ġfr iday
ĠD utch
ĠS ea
Ġsh it
Ġsh orter
Ġas pir
ĠA na
ĠR oo
ĠN elson
ĠT e
ĠP er
ĠL ucy
ĠL ady
ĠF ix
pl ic
pl astic
Ġgr ate
ĠG oogey
Ġlea sh
Ġv ote
ĠE s
Ġwalk ie
Ġhot dogs
Ġint ell
Ġcho ices
cl op
Ġfix in
sp ell
Ġtick les
ĠFr illy
Ġmus hed
Ġaw are
sta che
fly ing
Ġtickle d
mas hed
ĠGrand addy
umb re
ĠMar ty
Ġgrab s
em ee
Ġstra p
Ġdriver s
ĠAn na
Ġang le
Ġmark er
Ġsli pped
Ġplan ning
Ġob sessed
Ġenj oys
walk er
ĠAl buquerque
ĠBar nes
Ġsneak y
Ġcab in
whe el
Ġexerc ising
Ġx yl
Fr ank
Ġnicke ls
par ag
Er in
Ġama zed
Ġdecor ations
Ġsy stem
Ġwip ing
Ġass ume
Ġinstru ctions
ebr uary
sleep y
Ġfil thy
Ġpri v
Ġfrustr ating
wor ks
ĠNan cy
ĠJan et
Ġni pple
ĠFrank lin
Ġsilver ware
pupp ys
Ġsou l
Ġeff ect
Ġhedge hog
Ġprick ly
Ġut ens
Ġreact ion
Ġwob bly
Ġviole nt
Ġdow ntown
Ġdecis ion
Ġing red
Ġexplor ing
Ġhom es
Ġcem etery
Ġhye na
Ġxyl ophone
C are
D onna
E ric
G old
J ill
P ark
T igger
b ark
b asket
c ue
d om
d ges
h ush
h ooray
l oo
l ick
l ies
l unch
r idge
s in
s st
Ġa judge
Ġw eed
Ġs ized
Ġd ive
Ġd ub
Ġd ande
Ġb ink
is hi
Ġc red
Ġm iles
Ġp j
Ġp ause
ay s
Ġf er
Ġth igh
Ġh uff
Ġin f
Ġin visible
st reet
Ġk ings
Ġk arate
Ġk nack
Ġk oolaid
Ġr ake
Ġr are
ir a
ad ed
Ġcan t
im ber
Ġan n
ur se
ĠM er
ĠM imi
ce mber
Ġsa ving
Ġco in
ĠB ub
ĠS n
Ġas ide
Ġdr unk
ĠR os
Ġman age
ĠJ oy
Ġfl u
ĠN onno
ĠN emo
ĠP ierre
Ġshould a
Ġevery time
ug uh
Ġle op
Ġpro v
Ġmak er
Ġv ot
ĠE ars
Ġen v
ip t
Ġwh ine
Ġde m
ation al
sp eak
und e
cer tain
Ġsix th
Ġcon cept
eb ae
Ġexc itable
Ġclos es
ĠMic ah
ĠBro ther
Ġrecord ed
Ġrib s
Ġdad dies
Ġtw ins
Ġrub bing
Ġbuck ets
sl ice
Ġpeek ing
Ġcard board
bow l
Ġmud dy
Ġfield s
Ġbur nt
ĠPat sy
Ġind eed
fro gs
bu y
Ġsuck ing
ĠLe o
Ġinter rup
Ġfold ed
Ġsuitc ases
wah wah
Ġtexture s
Ġprin c
Ġtwist ed
Ġmelt ed
ĠGer man
Ġdonut s
Ġsmo kes
Ġtow ers
ĠDi andra
Ġstre ngth
pengu in
Ġmous ie
usse ls
Ġgrouch y
Will iam
Ġfashion ed
ĠJapan ese
Ġoutdoor s
Ġtwer p
Ġliqu id
ĠSm ith
Ġslim y
Ġwhisp ered
umbre lla
D oh
M oo
M ir
M al
O n
P ut
b th
c ot
d es
j eez
m ill
m ower
o ka
p it
p ears
r ar
s ister
t op
u z
Ġt it
Ġt an
Ġa le
re vor
Ġd iction
Ġb ible
is her
Ġc how
no rm
Ġm ult
Ġp sst
Ġhe he
Ġh ulk
Ġha nger
st inky
oh oh
Ġr ash
Ġe v
Ġme erk
Ġshe d
ake d
un x
ack s
ose d
am und
ap art
ĠD abee
qu ite
ĠS ab
ĠS ue
Ġtr ans
Ġmo b
Ġwere wo
Ġar k
ere my
bo ing
Ġdr ip
pe ck
Ġtalk ative
ĠN ep
ĠT ar
ĠT ippy
ĠP arent
ĠL ia
Ġremember ing
ĠF eet
ung s
Ġhair cut
che e
ĠH er
ĠH ilda
ĠE www
ĠE llie
Ġpig tails
Ġold est
ĠW ell
Ġwear in
Ġtap ed
for got
some where
bl ic
ud ley
unk y
Ġmess es
Ġunt ied
Ġrain coat
act us
Ġlay er
Ġfam ous
big ger
Ġrem ove
Ġlaug hin
ĠMar ch
ĠSt an
ĠĠ Ġ
Ġdark er
Ġfre ak
Ġfore head
ĠIn c
Ġtoe na
Ġste er
Ġjo kes
Ġtiss ues
num num
ition al
hehe he
ĠAr thur
Ġgym nastics
Ġwip ed
Ġhid den
And y
ĠEwo ks
mic rophone
Ġarr ange
Tod d
Ġmel ting
ĠTh umper
Ġphys ical
ĠKer mit
Ġscoo ter
ĠSuper man
Ġfra me
Ġlic ense
Ġbrief case
Ġappreci ate
Ġmou stache
ĠMall ard
Ġpregn ant
parag us
Ġenv iron
E d
E lliot
J en
M iffy
S ara
c et
c ers
c ul
d ee
g randpa
k le
l al
n els
o atmeal
y ed
you ng
in ts
Ġw hip
it ched
Ġd en
Ġd airy
an na
an ne
Ġg ifts
is andy
Ġc ages
Ġc ushi
Ġc actus
er sey
Ġf ee
Ġf ountain
Ġo pt
es h
Ġdo c
Ġhe ater
Ġin ch
id ents
ar i
ar l
Ġr ushed
ld a
Ġbe gg
ho le
Ġcan oe
we n
ab solutely
Ġn ug
ry l
us et
Ġsa uc
Ġnow here
Ġmy ster
Ġco con
ĠC le
Ġcl am
ĠD ie
Ġpre cious
ĠS outh
ĠS ully
row row
Ġsh ine
Ġar gue
el ope
Ġfl ight
Ġfl uff
Ġfa cing
ĠP ut
Ġsha me
oot chy
Ġday time
Ġwr ites
ne ither
Ġv iew
Ġwait ed
Ġpig e
end ing
Ġch ubby
ĠK ip
ĠK enny
ĠW izard
ail a
Ġmon day
av is
Ġsk ills
pill ow
ach uset
Ġchi huahua
Ġhi king
eal ous
rop ri
Ġfarm s
Ġdis p
Ġperson ality
Ġeight h
oy oy
ĠMar garet
pick les
Ġcomp ared
pat ty
gr an
Ġfree ze
Ġvo ices
ĠMary se
An ne
An thony
chicken s
dri ving
Fr an
bro ken
Ġdisapp oint
tea cher
ĠMac donald
cap ital
Ġstud ent
crack ers
Ġlawn mower
Ġinteract ive
Ġnin ight
Ġheaven s
ĠFl intst
dan cing
Ġspo iled
Ġigno re
Tod dy
Ġop ossum
Ġdisco vered
Ġescap e
Ġll ama
ĠHel ga
Ġliz ard
Ġspee ch
ĠMiche lle
jam in
Ġbund les
Ġstrang ers
Ġingred ients
Ġprinc ip
Ġsauc ers
B right
B www
C o
M oosh
N ame
S andra
S imba
W orld
b ors
c oo
h ill
n ummy
p ow
r al
u ing
v et
w ers
y og
Ġt ang
he avy
Ġa is
Ġa venue
Ġa ardvark
re r
Ġw akes
it zen
Ġd imes
Ġb ay
Ġc reek
ll ey
Ġm um
Ġm ule
Ġp ers
es ter
om mend
Ġh oot
Ġh ip
Ġha mm
Ġin it
Ġin finity
st ret
st ars
Ġwe d
Ġu r
ir gin
Ġno on
Ġst alk
Ġre qu
me re
Ġcan n
Ġn ick
im ee
Ġan no
if ied
Ġso cial
ind er
ta cos
Ġplay room
Ġsa usages
let tuce
ĠS im
ĠS carry
ess y
Ġar oun
ĠR on
Ġman atee
ĠJ on
ĠJ ohnathan
ĠN ate
ĠP hil
ĠL ind
ĠL arry
ug u
ĠG ab
ĠG uy
Ġle go
Ġse ction
Ġlea p
Ġsm il
Ġlong est
ge ous
Ġfeel in
Ġpo key
Ġsweet s
ĠK leenex
Ġsu c
Ġrec ommend
bl in
ub ub
ew is
br as
ol og
per fect
Ġrain s
Ġbar bell
ans wer
Ġfar ther
Ġsea horse
Ġjack ets
roll ing
Ġstar ing
Ġdad s
Ġstom p
Ġans wers
cho ke
sw iss
uc ed
Ġengine er
ĠY od
ĠBob bie
Ġpoin ty
Ġpor ridge
ĠDo lly
Ġneigh bors
Ġpress ure
Ġinv ited
Chr istmas
Br isco
Ġwip es
Ġhid in
Ġpower ful
Ġhu ggie
Ġcell s
Ġtons ils
Ġmention ed
ĠMal colm
ĠSky walker
Ġbraid s
ĠFranc is
Ġsym bol
Ġpra ise
Ġtoots ies
Ġadvert ise
Ġillustr ation
Ġsile nt
Ġindepend ent
Ġconstru ction
Ġstub born
Ġhist ory
cam era
Ġsire n
Ġintell ig
Ġdiction ary
ĠNep al
Ġenviron ment
achuset ts
ropri ate
A melia
G randpa
H eather
J ames
M el
M ike
P ot
R yan
b ies
f inger
j oy
j ingle
k h
k oo
k ie
k itt
m et
m eas
o ife
p ark
p ushed
s uit
s nort
v on
v able
w ave
z es
Ã ¡
Ġt une
Ġw and
Ġw addle
Ġd er
an ana
an essa
Ġc ust
Ġc uck
Ġl ungs
Ġm ot
Ġf ant
Ġf uzz
Ġo y
et ah
ke l
ke let
or p
Ġk aboom
Ġk ettle
ow ie
Ġst iff
Ġre as
ch i
ch ch
Ġj ealous
th irteen
do lf
Ġpl iers
Ġbaby sit
us es
ure d
ĠC hatty
Ġcl i
ĠB eth
ĠB onnie
ĠB umper
Ġcar ton
ap e
ĠD og
ĠS ch
ct ic
Ġtr icked
mm itt
Ġcom fy
ĠA va
go ats
ĠN i
ĠN o
ĠT www
ĠL www
ĠL astname
Ġsha ker
ĠF oot
Ġsc otch
sh ou
sh oo
Ġgre edy
ĠG www
Ġpro gra
Ġcat alog
Ġhead band
Ġunder arm
inn ers
ri kes
ma il
Ġfun ky
Ġfall en
ĠK www
ĠW illy
ĠW olf
lean or
Ġsl inky
sha s
Ġcho pped
Ġbath robe
cl ick
Ġsna il
some day
turn ing
Ġsmall est
Ġdan ces
Ġcool er
Ġcount ed
Ġfo am
Ġpat ience
Ġsnow y
Ġac orns
play ed
down stairs
Ġpin chers
ĠV as
Ġboun cer
Ġsurpr ising
Ġspell ed
Ġmis takes
Ġser ies
Ġter r
Ġplan et
Ġnur sing
Ġboard s
squ eeze
Ġpack ages
ĠZ ack
Mon day
Ġtub a
Ġmeal s
sm art
Ġwoo lly
Ġspank in
Ġsle dding
ĠKay ode
Ġdist ance
Ste ven
Ġatta ch
Ġsold iers
Ġinstru ments
ĠSus ie
Ġscre amed
Ġlif ts
Ġimp ressed
Cind y
Ġbare ly
Ġelectric ity
Ġcucumber s
Ġconnect ed
pengu ins
Ġconcentr ate
ĠPl uto
uu w
Ġdistract ed
Ġshi ps
Ġhonest ly
Ġprof ession
Ġcav ities
Ġmul berry
Sus an
Ġbir dy
Ġleop ard
Mir anda
Ġmob ile
A r
A my
C romer
D anny
E mma
G ail
H an
J ane
K ate
L astname
M innie
M artin
N o
N ew
P e
V on
b ike
b unn
c or
c ht
c raw
f un
f its
f rench
g lad
h h
k itchen
l ow
l aug
p uzz
t v
t rain
u ppy
u jah
w ide
z ipper
Ġ iced
Ġt ant
ha v
re nd
Ġs no
Ġd eath
Ġb illy
Ġg ear
Ġl ed
no s
Ġm ur
Ġm ang
Ġm ass
Ġhe el
or able
ĠI t
st ein
Ġli king
at hing
Ġe cho
Ġst ain
Ġn anny
en g
itt ney
Ġpl ans
un ched
ĠM oon
ack y
look a
dy a
omet er
au la
Ġcl ue
ĠB www
ĠD ave
ĠD udley
ĠS ears
Ġsh ield
Ġwor n
Ġhapp ier
ĠA www
Ġboy friend
Ġlo ving
Ġho g
Ġpe op
ĠT erry
ĠP ink
ĠL or
ĠL iz
ĠF ather
ĠF ebruary
Ġsho ck
Ġgr ader
pen cil
Ġju gg
Ġju dges
Ġpro cess
che ep
Ġunder stood
Ġhold er
Ġhat es
Ġbre ed
ire s
Ġpart ies
Ġro y
ĠW ee
Ġapp ropriate
Ġsl iced
Ġlight er
Ġlight ning
Ġkiss y
Ġfloor s
Ġstr anger
bl er
Ġun pl
Ġun iversity
boo boo
stand ing
Ġem er
Ġrain y
Ġchew y
Ġkn eel
ĠO ctober
Ġgra m
Ġsn uggle
hur ray
Ross y
Ġseat belt
ord an
Ġpupp ys
led ge
cr unch
Ġvis ited
rib ly
Ġstar ving
ĠĠ ĠĠ
com fortable
igg les
Ġband s
Ġband ana
Ġbeat s
Ġrac oon
Ġpepper oni
pot atoes
Ġsuck er
ĠLe go
ĠLe gos
ĠAnd re
eight een
Ġcab bage
str ong
Fr iday
Ġrep resent
Pat ricia
need ta
Ġspray ed
ĠGr an
screw driver
Ġstink s
Ġtor n
Ġtyp ically
sleep ing
Ġgoo ey
Ġnecess ary
ĠPo pp
Ġsep ar
ĠJan uary
Ġcons ist
Ġstri pe
pain t
Ġbom ber
Ġsol id
Ġblink ing
idd ler
Ġmamm als
Ġsprink les
ĠUn iversity
Che er
ĠRock y
Ġker nels
ĠItal y
Ġcommun ic
mushroom s
clo thes
tool s
ĠMex ico
ĠScoo by
Ġcred it
Ġmeerk at
Ġcocon ut
ĠDie go
irgin ia
Ġcuck oo
P l
P hil
S aturday
b eat
b ons
c ab
c ootchy
d ress
f is
f ig
g iggle
j unk
k ittens
l antern
m oom
p ork
p arent
r as
s ur
s ick
he w
he ver
Ġa id
Ġa str
Ġw ider
Ġs ake
Ġs can
Ġd ice
Ġb uh
Ġb ask
Ġb reeze
an imal
an che
Ġm aj
er m
er al
Ġf ans
et to
Ġha rm
le et
ĠI s
Ġk ak
Ġk night
Ġli mit
at ic
Ġr ang
Ġst itches
Ġre arr
ho ly
Ġme mber
ab oo
al ade
um n
im ag
ot y
ta ct
Ġsp ons
Ġsp icy
be an
ure n
ĠC r
Ġel ves
ĠB ack
ĠB am
ĠB oneen
ĠD avis
ĠS oopers
ong s
wan ts
bo ck
Ġcom plic
ĠA is
ĠA nt
ĠA stra
hic hever
Ġturn in
Ġche es
Ġfl ags
Ġbr ushes
Ġwill ing
ĠP en
ĠP op
ĠP enn
Ġlot ta
Ġsho el
ĠG avin
ĠG onga
Ġlea der
ob ile
ob viously
Ġsm ily
Ġunder pants
ĠE li
ĠE lla
Ġice cream
Ġbre athing
end o
Ġdoor bell
Ġna r
Ġapp ro
Ġsl am
Ġtra ve
cl ear
Ġfeed in
Ġbirthday s
sp ort
Ġkno bs
Ġem bar
Ġlisten ed
ol ine
Ġtre ating
per iod
Ġte ch
Ġmeat balls
Ġfo al
gu ys
urp hy
la ire
Ġwarm er
Ġboo ster
Ġlay in
play in
Ġspl ashing
ĠMar gie
too th
pick le
Ġang les
ram p
Ġroad s
Ġda isy
gr ass
ĠBr ussels
six teen
ĠChe ese
Ġbra ins
Ġsur v
Ġer r
ĠZ oe
tom atoes
cod iles
ĊĊĊĊĊĊĊĊ Ċ
Ġcand ies
Ġdeliver s
Ġcomput ers
ĠMc donald
Ġrob bers
St ephanie
Ġspend s
Ġdist ur
Ġclip s
Ġund o
Ġcock pit
Ġfool in
ĠNor man
ĠBl itzen
ĠFran nie
ĠJess ie
Ġble nder
climb ing
Ġouch ie
ĠTra il
Ġstre ets
Ġspan ish
ĠKe vin
bac ca
Ġcoo led
Ġobject s
Ġtum bling
Ġstock ing
Ġzi ppers
Ġtar get
ĠOre os
Ġwhi pped
Ġwrest le
Ġexpress ion
hipp opotamus
Bar bara
ĠHo ll
Ġlefto vers
Ġtad po
Ġrefer ring
Ġvehic le
Ġbarbe cue
Ġstere oty
ĠPotato head
ĠPep si
Ġtrop ical
ĠMum ma
ĠBur ger
Ġpunish ment
Ġvel cro
adding ton
ĠRos amund
ĠFeet man
Ġwed nesday
Ġreas ons
Ġbask ets
Ġcomplic ated
A ugust
B oneen
E lizabeth
G rand
K ent
L ee
L ance
M www
M emee
N aomi
S w
S noopy
S eptember
b uh
b umble
c ret
c used
d eep
f lip
g lass
h ide
n uuw
p ay
r ip
v o
w ish
w orm
y ley
Ã ©
Ġt ags
Ġa choo
Ġa men
in ea
Ġs ug
Ġs ession
Ġthe rm
on don
Ġd in
Ġd utch
Ġc as
Ġc ider
Ġl umpy
Ġm arm
Ġp y
Ġp ose
er ican
Ġf ile
Ġhe h
Ġto pping
Ġh ittin
ve y
ut a
ee zing
ar ant
Ġli ver
Ġr ag
uh z
Ġst ates
itt ed
Ġwas hin
do t
do key
Ġpl ugs
Ġlook a
eat ers
ĠM y
ĠM urphy
Ġsp ins
ick a
Ġcl iff
Ġfr isbee
ĠB eat
ĠD ot
Ġne g
qu et
ĠS alley
Ġbl ast
ct ric
Ġtr ad
ul i
Ġneed les
ĠR ice
ĠR iding
Ġmean ing
ĠJ osh
Ġho pped
Ġche ers
Ġche etah
go at
ĠN ovember
say ing
ĠT ime
ĠP oo
ĠL and
ĠL ove
Ġcha llen
Ġcr icket
ĠG o
Ġse wed
Ġhair y
Ġsm iles
ĠH ank
Ġen c
end rika
Ġna h
ĠK en
Ġapp eal
Ġfix es
Ġlad ders
Ġdi ving
bl ah
Ġam ong
Ġam erican
Ġteet hies
sp it
sp read
Ġgrow l
ps y
Ġknock s
Ġfo cused
ĠO z
Ġgra ve
ĠEr icka
Ġboo boo
Ġham per
Ġmic ro
Ġsoon er
ĠV alentine
ĠMar issa
Ġmar ching
Ġser ved
cho ps
Ġmed ium
Ġtight s
Ġad just
ĠBr ittney
Ġpaj ama
oosha boosh
ĠSte f
Ġtri angles
tur keys
Ġext reme
Ġsuck s
Ġhar vest
Ġrep air
Ġru ined
Ġhall way
bea ds
bro ther
Ġfifteen th
Ġca ves
number s
ĠDe idre
Ġcontro ls
Ġform ula
Sam my
Ġed uc
yle ys
miss ion
smell s
Ġconst antly
ĠAb by
Ġexp osed
tw inkle
Ġgrill ed
Ġcomplain ing
ĠPr incess
putta putta
Ġtran sc
ĠChin a
ĠDor othy
Ġhaw k
Ġcu be
ĠAid an
Ġbudle yley
Ġbudle yleys
ĠLo is
tow el
Ġwea p
Ġident ify
Ġros es
Wood y
pus sy
ĠMass achusetts
Ha iley
Ġbul b
Ġaspir in
ĠFix it
basket ball
Ġinf ant
Ġbegg ars
Ġdisappoint ed
Ġpeop les
Ġroy al
Ġastr ona
A ll
B a
B uzz
E m
G oofy
J im
K rystal
L ucas
R www
a is
b op
b ag
d ro
f ield
f armer
f leet
g ull
g iddyup
j elly
k nack
l ins
m am
o ppy
p re
p ock
s ail
s uta
t is
t ight
t iny
u f
v ac
w ag
w yn
y u
Ġ vest
ha se
Ġa im
Ġw arn
Ġs an
Ġs ill
an ie
Ġg ang
Ġg unk
Ġg ather
Ġg lory
oo ga
Ġl ing
Ġm aid
Ġp au
Ġp airs
er ie
Ġdo pe
or a
Ġin vent
Ġli vin
Ġr ab
Ġr av
Ġr osie
ad ab
Ġst ung
Ġst air
Ġre wind
Ġme lon
ch ug
Ġj unior
Ġup per
Ġshe lves
th ill
th ump
ur ry
ur ope
ĠM ade
ĠM olly
wn ey
ce l
let ters
Ġor ang
il ts
Ġany how
Ġany time
Ġover night
ep etto
ĠC ou
ĠC or
ĠC ait
au cet
Ġcl ues
Ġti pped
Ġhow ever
ĠB ry
ĠD oug
ĠD el
qu es
Ġtr ust
Ġas paragus
Ġag es
gg in
Ġgu est
ĠR osie
iss i
Ġpu blic
les t
ĠN int
ĠP ar
Ġstuff ing
Ġcha sin
ĠF itt
ĠF uzzy
Ġsc ales
ist le
Ġmouth ful
Ġcr ashing
ĠG ammy
Ġse xy
Ġlea d
Ġsw itched
Ġuse ful
Ġsm arter
ĠH i
ĠH eather
Ġpo pping
ac y
ac ross
Ġna scar
Ġcheese burger
ĠW ay
ĠW ild
Ġcare s
Ġcou p
Ġsl ight
Ġclose ly
Ġsna ils
Ġdi v
should n
Ġask in
Ġtast ing
Ġdan cers
eak y
Ġfarm ers
Ġun comfortable
Ġbang in
Ġbang ed
Ġchew s
hold ing
Ġbar rels
fe ction
Ġspe ck
Ġten th
Ġten ta
Ġac ro
unt ed
Ġdry ing
Ġgrass ho
Ġstra iner
blue berries
Ġdump ing
tr ash
Ġter m
com ma
Ġcomp ass
Ġtw irl
duck ies
Ġtype wr
Ġnur ses
Ġchick ies
Ġad v
Ġhundred s
sw ish
sw allow
rr r
Ġcont ent
Ġadd ing
Ġcro ssed
Ġcro codiles
Ġsqueak ing
gen cy
Ġtri pped
Ġplant ed
Ġheart s
tom ato
Ġbuzz ing
Ġtear ing
Ġfamil ies
ĠLe na
zer o
dad adada
Ġhook s
Ġinter view
Ġsell ing
par rot
Ġload er
Ġteas poon
ĠCl aude
Ġtot al
Ġstudy ing
Ġshadow s
ĠDe cember
Ġbill s
Ġconne ction
Ġcons ider
ĊĠĠ Ġ
cray on
cou ple
ĠQu inn
Ġconcer t
bub ble
mic key
bac on
ĠBab ar
Ġresp ons
Geor gie
Ġdevelop ment
Ġmid night
Ġevent ually
Ġappet ite
Ġprep are
Ġorig inal
cry ing
surpr ise
Ġpropell er
vio let
Ġpriv ate
certain ly
Ġtit le
unx suta
ĠWell fleet
Ġmyster y
ĠFlintst ones
Ġintellig ent
Ġfant asy
Ġprogra ms
fis hies
moom ilk
parent s
ĠNint endo
D amian
G ay
J an
K ing
M eg
N oah
R e
R abbit
S qu
S ophie
T uesday
b ak
c one
d ep
d ish
g ently
g aga
h ook
i zzie
j oe
m int
p han
s uck
s ies
t all
t ons
t iest
w omen
Ġt uh
Ġt our
ha re
Ġa y
Ġw ound
Ġw ins
on to
Ġb ure
Ġc oor
Ġc ate
Ġc udd
Ġl iter
Ġm itten
Ġp ort
Ġf ab
Ġth ur
et ta
et ro
Ġhe avier
ut ion
na ke
st alk
Ġis s
ic er
Ġr ushing
ir ie
ad es
Ġno vel
as hy
Ġbe hav
me ans
Ġn ib
Ġup s
ust ers
ĠM iles
ly mp
Ġbook she
ber ly
Ġmake up
Ġcar pen
ĠD ale
ĠD inky
ĠD enn
Ġoff ered
ĠS ela
up ty
ess or
Ġdr ies
Ġbu ys
ĠA gra
Ġgu inea
ĠJ ordan
Ġho ppity
Ġfl ute
iss ie
ĠT weet
ĠT rain
ĠT itus
ĠL eah
Ġsho ts
sh ield
Ġgre asy
Ġtheir s
aur us
der n
ob ber
oss ible
Ġpick y
Ġpick up
Ġsm ashed
ĠE llen
ĠE leanor
Ġex ha
Ġex cl
Ġpo x
Ġsweet y
ĠK ris
ĠW anda
Ġapp ear
Ġapp oint
cl os
Ġdraw ings
Ġbad ge
Ġclean in
Ġsna pped
Ġmust n
Ġstand ard
ub a
ont osaurus
Ġfell a
br r
Ġow lets
ud ud
was hing
ase y
Ġun lo
Ġtre ats
eb asket
eb bles
Ġpr int
Ġbrown ies
mon keys
ĠGrand mother
ĠV irginia
four teen
cr ab
Ġatt ic
sy l
Ġrib bons
fish ie
Ġwha ddya
igg ly
Ġtight er
Ġdream ing
Ġad mit
sw itch
Ġwo ah
drink ing
Ġburn er
Ġlift ed
stick s
stick y
ru ct
pr ints
sm ile
Ġconf using
Ġneckl aces
alent ines
start ed
Ġrob in
Ġbabys itter
Ġspray ing
ban anas
ĠCh ucky
Ġaunt ie
Ġwigg ly
Ġbandaid s
run ning
ĠEl ana
Ġpussy cat
Ġsil o
Ġhugg ed
Ġres pect
rub ber
Ġhun ting
Ġscrat ches
pea ches
pain ting
Ġspo il
ĠIsab el
ĠKim berly
stuff ed
ĠMal ik
Ġmamm al
Ġsprink ler
Ġcu z
Ġhyrax es
dolp hin
picture s
vr il
ninet een
ĠCam bridge
Ġholl er
muff in
gress ive
ĠChew bacca
Ġrasp berry
whis per
Ġstat ue
Ġelectron ics
past a
ĠEs ther
ĠGran ma
ĠHoll and
Ġmarm alade
wyn nie
unxsuta wney
B etty
G r
J eff
S eth
S carlett
T erry
U rs
V ictor
W hin
W ars
b uck
b een
b oots
c row
c ular
c lip
d ig
d ark
d ouble
g www
g row
g ross
g rand
g ulp
i j
o x
p res
r iding
r ical
u ds
w ar
w rap
y dan
Ġ easel
Ġt ack
Ġt went
he st
ha lle
Ġa do
Ġa ud
Ġw ander
Ġthe e
it ious
Ġd ude
Ġc hat
oo om
Ġl or
Ġl oop
Ġp out
Ġp oops
et o
et ti
Ġto dd
Ġgo al
Ġgo wn
Ġin j
id ges
ook y
na do
at in
Ġr um
Ġbe comes
ho l
we ren
al ia
Ġlook it
ur oy
Ġsome what
ĠM ag
ĠM eg
ĠM ootie
ill e
Ġy oyo
hi o
hi bit
ra se
Ġsp y
Ġsp ilt
il ot
Ġco ach
Ġco lt
ure s
ĠC ur
ĠC asey
Ġcl aw
ĠB ra
ĠB ud
ĠD u
ĠD oo
Ġpre d
eed ee
Ġsh red
ct ar
Ġtr im
Ġpret tiest
ul ate
ul ars
Ġtwo s
Ġbu ff
Ġcom fort
ĠA oife
ĠA vril
li ers
Ġgu ests
uff et
Ġman ners
ump s
Ġlo ver
Ġhand y
Ġho e
Ġus in
ame l
ĠT revor
ĠP www
ĠP ac
ĠP ol
ĠP enny
Ġsc all
sh it
Ġgr ind
Ġse le
ĠE urope
Ġbat tle
ip es
Ġhat ch
Ġnew born
Ġkid din
Ġhard est
Ġtea ches
ĠW ils
Ġsl id
Ġsu its
Ġsqu eal
Ġsqu ished
Ġclean s
Ġpretend ed
Ġmove ment
Ġfire works
Ġwind shield
sp ots
Ġun ic
Ġcount s
sc ared
Ġfast est
Ġrain in
gu y
cy cles
ĠO r
Ġgrand father
Ġgra in
Ġcrack ing
bur y
ĠChrist ina
lea f
Ġve ggies
Ġhalf way
Ġcheck in
hee haw
Ġim press
Ġspl ashed
Ġtoast ed
Ġdes cr
throw ing
Ġpill s
Ġfif ties
Ġkick s
Ġfight in
Ġfight er
Ġser iously
Ġeng aged
Ġra ft
Ġnear by
Ġhammer ing
ĠChar les
Ġtractor s
ĠZ oo
erc ed
lo llipop
Ġtee na
Ġcol ander
Ġdeliver ing
Ġflo ats
Ġsell s
Ġlar ger
str ange
Ġcop ying
Ġload s
bro ke
goo goo
Ġtor nado
ĠMac Whin
ĠSha na
ĠSha yla
ĠGre en
Ġhoo ves
van ia
ĠBl ue
Ġpray er
rett es
acha ry
Ġsweep ing
dodo dodo
Ġspark ly
pea cock
ico le
In vestigator
gar bage
Ġfascin ating
Ġsevent ies
tw ist
Ġcell ar
mag ic
su pper
Ġav oid
Ġactiv ities
Ġdel ight
Ġmel ts
Ġmechan ic
Ġrack et
ĠFranc isco
Ġargu ment
ninet y
ĠPeanut s
Ġrefle ction
sen se
ĠTur tle
Ġpompom s
Ġsher bet
ĠLa uren
Ġscrib ble
Ġintrod uced
Ġutens ils
Ġweed s
ĠJoy ce
yog urt
Ġsmil in
cootchy koo
Ġmaj or
ĠTrail or
Ġastrona ut
Ġtypewr iter
Ġbure au
syl vania
ĠWils on
B arry
D a
D or
D akota
D arth
L inda
L ucy
S l
T h
T r
W es
Z ack
a my
b est
b uddy
c ough
c ella
d anger
f us
g as
h ugs
i zz
k itten
k etchup
l if
m id
m akin
n ear
n ets
n ibble
p anda
p ushing
p liers
u ate
Ġt alent
Ġt esting
he it
he im
re y
in i
Ġw est
Ġs izes
it or
Ġd ue
Ġg ay
is m
Ġc oop
oo o
ll s
Ġl un
Ġl atch
Ġl itter
Ġl eng
Ġm i
er on
Ġf eat
Ġf est
Ġf ond
Ġf ever
Ġf aucet
Ġo le
Ġo me
Ġo pin
Ġo val
Ġhe ll
Ġhe hehe
Ġha ul
what chu
le no
ig o
Ġin fection
na m
na sty
ar rr
Ġli ly
Ġlike ly
Ġr ah
ir p
as ked
Ġst all
Ġst are
Ġcan al
we lf
we bs
al erie
ie ce
ie ves
um um
Ġan thill
ot o
ill as
aby e
Ġplay ground
Ġsp i
Ġsp ear
Ġsp ike
Ġco zy
ĠC ol
ĠC uddly
ĠB rook
ĠB uster
ap le
ĠD ee
ĠD etro
ĠS l
Ġbl own
mm kay
Ġar rows
Ġag re
ĠR ose
ĠR icky
Ġhand les
Ġfl ush
ĠN ola
ĠT ig
ĠP hilip
ĠP ebbles
ĠL uc
ĠL ucas
ĠF re
ĠF lip
ĠF amily
ĠF isher
Ġsc old
Ġsc orp
ture s
ard ess
ought oh
co coa
ĠG epetto
Ġle gged
ĠH on
Ġv alley
ĠE mmitt
ass y
Ġfin ishing
Ġex hibit
ac a
aw awa
ĠK id
Ġtra p
Ġpot ent
Ġpretend s
Ġrec ital
Ġstr uct
Ġpen is
Ġdre amed
ib ility
Ġhi ke
Ġwind ing
Ġlunch box
und heit
Ġroll in
Ġgreat est
ol and
ily n
Ġeye ball
Ġbar ber
Ġbar rettes
ĠO ne
Ġbrown ish
ans as
pret z
every time
Ġham sters
lea st
Ġquiet er
Ġsea gull
Ġsad dle
ĠV ader
umb les
Ġboun ced
Ġsurpr ises
Ġforget ting
ĠSt rikes
tr ick
com in
Ġeng ines
Ġking dom
Ġbuck s
ĠSp inner
ĠSp ike
ĠSp onge
Ġob vious
uc son
Ġsur round
stay ed
Ġbur ied
Ġquarter back
quick ly
ĠBoo boon
Ġhipp os
Ġhipp ity
pot ato
Ġrad i
Ġlaugh s
abr iel
Ġgod mother
Ġpass ing
Ġsle igh
need s
Ġkitt ys
Ġhy p
ĠCh ick
Ġund one
Ġiron ing
Ġski ing
Ġatta cked
ĠTy rese
Ġpunch ing
Ġpos itive
Ġpal m
sk im
Ġcrow d
bat ter
Ġlos es
Jack ie
xy gen
Ġgall on
Ġsub ject
ĠGer many
Ġax e
inoc ulars
ĠRe ese
ĠPe pper
Ġimp ossible
Ġpoison ous
Ġinse ct
Boo boo
blank ie
mag nets
onno r
Ġtran sport
Ġtum mies
rat tle
Ġcooper ate
Ġeff ort
ĠOre o
ĠAid en
Cl ifford
shar k
Pig let
mac aroni
Ġcris py
Ġfol k
Ġfol ks
Ġthr ill
ĠHow ard
Ġbalan cing
Ġaff ect
Ġsen sit
Ġpleas ure
ĠBal ooga
Ġmarshmallow s
Moom ooshas
ĠMill isandy
Ġchow der
Ġtoena ils
Ġprincip al
Ġtang led
ĠYod a
cht ime
Ġemer gency
Cheer ios
ĠPenn sylvania
Ġnar row
Ġsurv ive
Ġextreme ly
dep ends
Ġthur sday
Ġbehav ior
Ġappoint ment
ĠPol iceman
Ġleng th
welf th
ĠDetro it
A b
B l
G o
L in
L ind
M ikey
O livia
P eekaboo
S her
T heresa
a ha
c ont
g osaurus
i ate
i red
k k
l ou
l ower
m ash
m wah
o pp
p igg
r oof
s ittin
t an
t or
t ic
w l
w ing
w inkle
z ona
Ġt ide
re ly
in ters
Ġw ah
Ġw inning
Ġs well
Ġs uff
Ġs esame
on zo
Ġd elic
Ġg ag
Ġc rew
Ġl oo
Ġl umber
Ġl aces
Ġl ined
Ġm ower
ay la
Ġf em
Ġha unted
na il
st ool
Ġli es
Ġdon keys
as car
Ġwas hes
th irsty
Ġan kle
ĠM oe
Ġso ggy
Ġso aked
ther n
Ġy uh
look in
hi re
ra ph
Ġbo b
Ġbo bby
Ġsp ir
am il
be nd
Ġback ing
ĠC laire
Ġfr ied
Ġti es
Ġti ps
ĠD rew
Ġne ctar
ies el
Ġpre ssed
art oon
ĠS u
ĠS al
Ġbl each
ess ions
Ġtr uly
ul ary
put tin
ĠR ory
ĠR og
ĠR uth
Ġman s
Ġman ip
ĠJ ake
Ġturn ips
Ġfl am
Ġwater colors
ĠN aila
ĠT heresa
ĠT unde
ĠT ucson
ĠP ee
ĠP oke
ĠP res
ĠP aula
ĠL i
Ġsha red
ĠF er
ĠF ri
Ġsc rap
Ġcr ink
Ġse wer
Ġlea ther
ts k
ob y
Ġshow n
ne z
Ġdrink ie
Ġsm ash
Ġv al
Ġv alentines
ĠE x
Ġsleep er
Ġfin ishes
Ġhur ried
Ġpo ked
Ġna ming
ri ot
ma id
Ġch u
Ġch omp
ĠK iki
ĠW onder
Ġear n
Ġsl urp
Ġsl ower
Ġsl acks
Ġbea uty
sha ky
Ġcho king
Ġsna t
Ġsk im
Ġcream er
Ġfish in
ach i
ant ic
Ġwind mill
Ġsal es
Ġun fortunately
Ġcool s
ort on
ol k
per or
somet ime
Ġsoft ball
Ġeye las
ĠO kay
ĠO hio
Ġgrand mas
Ġaw oh
Ġblow in
Ġmiss us
Ġsn ugg
Ġsn eezed
Ġclos est
Ġneck s
Ġshar pen
Ġspill s
ord uroy
Ġpast e
Ġpast ure
Ġran ch
Ġspot ted
Ġveget arian
Ġremind ed
har der
blue berry
Ġvis its
Ġter ribly
Ġbub ba
com p
Ġri vers
Ġrat s
Ġyell in
Ġcheer ios
Ġbib bie
Ġjo ey
ĠZ o
Ġea st
rick et
Ġhill s
Ġchin ch
cook ing
tap tap
Ġhay stack
Ġpops icles
Ġgener ous
Ġug h
sna kes
itam in
Ġbunn ys
Ġcop s
Jo anna
sal ad
Ġflav ored
Ġwre cked
ĠWill s
Ġbend ing
Ġund ers
ĠCo co
rain bow
rock s
Ġpork chop
Ġsteal ing
Ġseas ons
ĠLou ie
ĠLou ise
Ġgor geous
ĠBl anche
Ġcontain ers
Ġcrow s
Ġdam age
Ġeel s
Ġtu cked
Ġstew ardess
ĠNan ette
Ġble nd
Ġborrow ed
ĠEm my
Ġpuff ed
Ġaut om
ĠCap e
Ġbeet le
Ġbare foot
ĠLyn n
Ġresp ond
Cat hy
sand w
Ġph rase
ĠDor a
ĠLex ie
Ġwrink ly
ĠUn ited
cro codile
Ġcooper ative
ĠMe ij
Nan ette
nap kin
Ġnutr itious
ĠRu dolf
Bo bo
Isab elle
Ġholl ering
Ġsettle d
Am ira
Ġencoura ge
Ġcass ette
Di andra
rais ins
Ġbink ie
lley ball
stret ch
Pot ato
kitt ies
Ġprofession al
Ġtant rum
Ġgram pa
imag ine
Sw iss
pock et
Ġtenta cles
Ġtodd ler
Ġbuff alo
Ġunic orn
ĠMacWhin ney
Ġlun chtime
Ġopin ion
Ġeyelas hes
A mer
A aron
D ebbie
F red
H ood
J illy
K im
L ou
N icky
T e
a ches
b ars
c oh
d ar
d les
d ub
d ibble
g ory
h ickory
l iest
p hi
p each
s er
t ear
v as
z or
Ġ X
Ġt one
Ġt art
he l
Ġa shes
re lax
in ah
Ġs ucky
Ġs issy
Ġs earch
Ġs essions
it o
Ġb ummer
Ġg em
Ġg iddy
Ġc yl
Ġl ane
Ġm or
Ġm ug
Ġp its
Ġp onds
Ġit em
Ġf ea
Ġth y
se m
le ne
Ġin fl
Ġin vest
st ory
Ġwe dge
ar row
ow ls
Ġli me
at ory
ome gran
and om
Ġr ate
Ġr aces
ir ling
Ġe ne
ver age
al m
Ġare as
Ġn u
en ch
ed ed
Ġj ersey
im ate
im ple
Ġpl at
un can
ot ive
Ġout er
ĠM in
ter rible
Ġgood ies
how ever
Ġbaby e
who ever
hi lda
ce lia
Ġsp ice
Ġsp aghet
am ps
Ġback ward
Ġco ast
Ġco aster
ag er
ty pe
ĠC rystal
Ġcar ving
ĠS leep
up sa
Ġsh ishi
Ġtr ump
Ġmo th
Ġar ch
bo ink
ang ry
Ġcom ic
Ġcom ment
li kes
ĠR ea
ĠR ich
lor ado
Ġho ly
Ġfl ames
Ġbr ontosaurus
read ing
ĠT am
ĠP umpkin
ĠL ass
Ġqu ilt
ĠG ret
Ġle ot
Ġse x
Ġwork er
Ġsw ords
Ġopen er
ĠH ead
ĠH uey
Ġv oom
ĠMark ie
ouch ie
ac hael
Ġfun n
Ġdaddy s
ĠK anga
ti er
Ġsl ick
Ġbea m
Ġde y
Ġde li
Ġbring in
Ġgl ued
Ġbath ie
Ġdraw s
Ġsqu eezed
Ġjob s
for k
Ġbad ly
Ġbad ada
Ġsna pping
Ġsk ill
Ġpan ther
some how
fr ont
Ġbel ts
Ġun button
dam n
Ġzoo s
Ġsock ies
Ġlisten in
Ġnap s
ya i
Ġfast en
Ġmeat ball
Ġsun set
Ġsun burn
ĠO n
Ġperson al
Ġboo th
Ġsmell y
Ġpur r
Ġac cess
Ġbump ing
Ġim pro
Ġspl inters
ĠMat hilda
cr an
ĠChild ren
pro b
ĠSt ates
med icine
Ġland s
rib ing
Ġbody build
Ġsli pping
Bro ther
com otive
Ġmagnet ized
ĠJen ko
Ġnut cracker
anger ine
sl and
Ġstack s
Ġvo cab
ĠBr ad
Ġcap ture
Ġste gosaurus
Ġtus k
Ġbeat er
Ġbark s
Ġhum ming
An imals
Ġbur gers
ĊĊĊĊĊĊĊĊ ĊĊĊĊĊĊĊĊ
bu ilt
Ġsneak ing
Ġimag in
Ġburp ed
Ġdep ending
arf ield
hors es
ĠAr lo
Ġexplain ed
Ġloose n
Ġund ress
Ġhig hest
Ġcollect ing
sk unk
Ġexpect ed
Ġbun s
ĠJim iny
Ġwal nuts
Ġdesign s
snow man
Ġassoci ated
Miss us
Vas ie
bi zz
Ġaut umn
Ġfry ing
Ġpattern s
ĠBab e
Ġweigh s
Ġver bal
ĠHa iley
Ġwrink led
ĠFo zzie
scratch y
ĠMe ike
Ġnon sense
dolp h
Nan cy
Ġsupp ort
Ġwast ing
Ġwast ebasket
Ke isha
Ġdef ense
Ġdestroy ed
yi kes
Ġdev ast
ĠCe lia
Aid en
Ġtumble d
ĠAlad ar
Ġroo sters
Care y
Mal colm
ĠSim on
Ġsuc cess
meas uring
kelet on
Ġmur der
Ġjugg ling
Ġunpl ug
ras sed
Ġembar rassed
Ġtherm ometer
Ġappeal ing
Ba ebae
vac uum
ĠBry cie
Ġexha usted
ĠKris ta
erced es
Ġradi ator
coh ol
B ears
E x
F at
G uy
L illy
L isa
L ewis
M iles
M ootie
O ne
P et
P iper
R ex
R oy
W ednesday
W ashington
Y ork
a x
b om
b ones
b usters
c ond
c mere
c artoon
d as
d ra
e v
f ake
h oot
m ice
m irror
m lins
n an
p or
p her
t each
v oom
y oohoo
Ġ era
Ġt id
Ġt al
Ġt ul
Ġt uesday
Ġt welfth
ou dy
ou bles
Ġw ack
Ġs ig
Ġd ah
Ġb itter
Ġc ul
Ġl ugg
Ġl unches
Ġf oss
Ġf erry
Ġf ero
Ġo re
ea ble
Ġdo m
om er
om pa
Ġh ides
or th
ut ure
ee e
na te
Ġk ites
ow ow
Ġr ul
Ġr ise
Ġr andom
ir ing
ir ley
Ġno sy
as mine
ink ing
Ġst y
Ġst ump
Ġre t
Ġre view
Ġcan tal
ab or
ie lle
ch il
ch ips
th m
im s
ould er
Ġpl ush
Ġan c
Ġnot eb
un fortunately
if ty
pp op
ro ast
Ġab o
Ġab sor
hi a
ra ine
ra ge
us ion
let te
let ubby
Ġsp oke
op sy
il ver
Ġany place
ag l
ĠC ow
ĠC www
ber ty
Ġel astic
Ġti le
Ġal together
Ġal ien
Ġal cohol
ĠB us
ĠB ush
ĠB land
Ġcar amel
qu o
ĠS ummer
ĠS aint
ct ur
os al
Ġtr oubles
Ġmo ld
name nt
bo b
Ġdr oo
ĠA imee
Ġgu arant
ĠR over
ĠJ ose
ĠJ unior
ĠJ esse
Ġlo lly
Ġlo comotive
Ġhand ful
Ġhand ker
pe nd
ĠT ramp
ĠL ondon
side red
ĠF all
ĠF iddler
ĠF izzie
Ġsc ore
Ġsho cked
Ġsho ppin
Ġqu art
pl op
pl ates
Ġcr ush
Ġle ver
ob ot
Ġsw ear
ne m
Ġunder oos
Ġnight ie
ĠH ook
ĠE ast
Ġfin s
Ġfin al
end ed
Ġthought s
ac le
Ġna tion
Ġpart ner
Ġch ute
Ġcou rage
ti le
Ġcut est
av or
cl ud
Ġsk etch
ach ute
lot ion
Ġam phi
Ġpar ake
Ġid iot
ex plain
sp ace
sp osta
Ġplace mat
boo shas
Ġlearn s
Ġgone gone
Ġcon vin
Ġcon tact
Ġcon sidered
ĠFr iend
Ġeas iest
Ġbar bie
Ġaw right
Ġap olog
Ġlay s
Ġac orn
ord ing
peek a
ald y
Ġpin ched
Ġturtle neck
ĠMar cella
Ġper for
Ġcarry in
Ġgarden ing
Ġmotor cycles
Ġcomp et
Ġlamb s
igg led
icy cles
Ġra zor
sw orth
Ġfis her
squ ish
Ġbra kes
ĠAl issa
Ġseal ie
Mar ilyn
Ġbur y
ĠPat ricia
Ġind oor
Ġbless ing
ĠJack son
iv id
Ġsend ing
clean ing
Ġcob webs
Ġpass y
ĠMc Gregor
whe l
Ġallow ance
sna ck
Ġsurf ace
Ġflav ors
Ġspring time
spl at
ĠTim on
ĠWill ie
pan cakes
Ġstink er
fire man
Ġpad s
ĠCo dy
Ġje wels
ĠMac Donald
Ġraccoon s
Ġeighteen th
erv ation
Ġstud io
Ġpound ing
jack et
wind ow
ĠMcDonald s
Ġbom b
Ġsol ve
ĠKe isha
Ġcheat in
lady bug
Ġholiday s
ĠAri zona
Ġigno ring
Ġattract ed
Ġped al
pol ice
Ġcond ition
straight en
Ġskate board
shar p
Ġros y
Ġvol can
ĠSmurf s
ĠAm anda
muff ins
Mc Donald
Ġimit ate
Ġdiscuss ion
Aid an
grown ups
ĠAlad in
Ġdirect ly
fing ers
veget ables
Gold ie
Ġdande lion
Ġwerewo lves
Ġnug gets
Ġpige ons
Ġcatalog ue
Ġtadpo les
Ġchallen ge
ĠWay land
Ġacro bat
Ġgrassho pper
Ġbookshe lf
Ġcarpen ter
ĠTweet y
Ġado pt
Ġscorp ion
Ġstruct ure
Ġtransport ation
ĠPoke mon
Ġspaghet tis
Ġvocab ulary
Ġlugg age
Ġfero cious
Ġnoteb ook
ĠBland sworth
Ġhandker chief
B ill
D r
F armer
J on
J ean
J osh
J uly
J unior
M o
M art
P hilip
R u
R ock
S now
Z oe
a ah
b as
b ats
c ard
c ards
d ale
d uring
d umpty
f ee
f ar
f as
f ur
f air
h iding
i pp
i ol
j amas
k id
l ate
l aw
m ons
m ud
p f
p as
p oop
p ud
p ical
r ie
s pill
t u
t own
w oop
x ious
y ell
z an
Ġ ir
Ġ ĊĊ
Ġ icy
he aven
ou pe
ou fl
re ts
in cent
Ġw hichever
Ġs is
Ġs um
Ġs ash
Ġthe ory
Ġd unk
Ġd ale
Ġb ust
Ġb ound
Ġb ough
Ġb up
Ġb akes
Ġb erry
Ġb ingo
Ġb ummie
Ġb inoculars
Ġg y
Ġg al
Ġc y
Ġc ities
ll een
Ġl ack
Ġm imi
Ġp hase
er gies
Ġf ist
Ġf lex
Ġf ences
Ġo xygen
Ġhe li
Ġh ut
se nd
se vent
ig i
the ry
ĠI nez
ee dy
st ore
st eak
ar ar
at ta
at ives
and s
Ġr ung
Ġr ange
ad ays
Ġe yed
Ġre ck
we ight
ab u
al al
al mat
Ġn ep
Ġj eez
do ggies
if ying
ĠM art
ĠM inn
ĠM aura
ĠM aine
ind ian
Ġy ak
ro sie
Ġnow adays
Ġback hoe
so ccer
Ġco ve
Ġco al
Ġco bras
Ġover whel
ag ah
ĠC om
ĠC ro
ĠC han
ĠC ru
Ġcl a
Ġcl eats
Ġcl oudy
Ġfr ank
Ġwould a
ĠB ee
ĠB inky
ĠB etta
Ġcar ved
qu arter
ĠS unny
ĠS ix
ĠS imba
ĠS carlett
Ġbl oom
Ġbl ade
ct ed
Ġmo de
Ġmo dern
ny ard
Ġag gressive
ĠA li
ĠA sher
ĠR ay
ump in
ump ti
Ġgir ly
pe g
Ġfl ood
ĠN yla
ven ient
ĠT a
ĠT o
ĠT or
ĠT ole
Ġstuff y
ĠF ang
ix ie
Ġqu ilts
Ġcr iss
Ġcr itter
Ġcr unched
ĠG reek
ĠG abriel
Ġpro port
ob i
Ġsw ee
Ġsw amp
Ġpick er
Ġsure ly
Ġunder ground
ĠH endrika
ip tion
est ic
Ġpo les
Ġpo king
Ġstay in
ac ed
Ġna vy
ri er
aw ful
ĠK ennedy
ĠW an
Ġsaw ing
ball et
Ġkiss ie
av a
Ġbus hy
Ġhurt in
watch ing
should ers
Ġfire house
Ġcorn bread
col a
Ġbab oon
br ushing
Ġsec rets
Ġun ique
Ġcry stal
Ġdis cover
Ġte nder
Ġgrow ling
Ġfo il
Ġbar nyard
ĠO bi
ĠO lymp
ĠO wl
fin ally
Ġbrown ie
Ġperson ally
lyn n
mer rily
Ġscare crow
Ġring in
wha ck
gre y
iet h
Ġunderstand ing
Ġneat ly
Ġcereal s
will n
ey ore
Ġwall et
Ġcur sive
Ġsea food
Ġcam oufl
ĠV alerie
ork y
Ġper mission
Ġcra p
dr um
ĠSt ep
Ġdump er
Ġmis er
Ġfight s
Ġsweat y
Ġreach in
sing ing
Ġtw is
Ġfre qu
Ġband age
Ġrat t
Ġmed ic
onk a
Ġda ily
Ġcre ative
sw eep
Ġrid ers
Ġvo lleyball
squ ash
ĠBr uce
Ġsat is
six ty
Ġcro ak
ĠMary ann
app arently
Ġhealth ier
ĠY ou
ĠY aya
ĠBar bie
ĠSte vie
ges undheit
Ġant lers
Ġant elope
Ġweekend s
Ġrad ish
Ġrad ishes
Ġjelly fish
Ġhar p
woo woo
Ġpilot s
bot tom
Ġtool box
Ġconf erence
cal ator
pur r
St an
Ġhee hee
Ġcrumb ly
ĠTim othy
fo x
Ġcock ro
ĠSw amp
ĠCo lorado
Ġwigg ling
Ġpos ing
ĠSha dow
ĠRo lf
Ġmagaz ines
van ced
ĠEl aine
Ġexpect ing
Ġstret ching
Ġed ible
Ġequ al
ĠPo ppy
Ġwhee led
mat ter
ĠDi ane
Ġspark les
Ġpun ished
ĠAb ba
Ġspan ked
Ġroot s
Ġbeet les
ĠPlay doh
mag net
Ġfli ps
Ġattract ive
su ppose
Ġdel ive
Ġph ony
Ġlasag ne
ĠSqu are
Ġdevelop ed
ĠFo zzy
Ġseventeen th
Ġchipmunk s
Ġbon ked
Ġbon net
Ġfoo led
Ġwrest ling
Ġtat too
Ġll amas
oodood oo
ĠAng el
Isab ell
Pig gy
ĠItal ian
Ġcelebr ate
Ġgravit ated
sli pper
Ġlefto ver
Ġscar ing
hon est
Ġfir m
ĠCe celia
Ġnightmare s
mi aw
Don ny
Ġvine gar
Ġpsy cho
Ġhuff ed
Ġrare ly
Ġann oun
ĠSab ato
Ġcushi on
Ġais le
Ġhamm ers
Ġanno ying
ĠJon athan
Ġadvertise ment
Ġsepar ated
Pl uto
Ġchees es
cret e
Ġneg ative
Ġtrad itional
Em ily
ais in
adab ra
ĠMade lyn
ĠDel ma
ĠFitt is
Ġfab ric
Dor othy
nibble d
Ġsensit ive
Ġfem ales
Ġchinch illa
ĠMeij er
Ġrul er
quo ise
Ġamphi b
pud ding
Ġnep hew
umpti ous
ĠTole do
B ee
H oney
H etty
J ay
J ohnathan
J eremy
K er
K enn
L a
L yn
L assie
M imi
M ooshaboosh
R ed
R aggedy
R enee
S o
S weet
S ean
T ar
T adi
T anya
W e
b right
b ets
d ial
e eat
f antastic
g h
g ug
g lory
i ka
j eep
l ost
l earn
m ad
m ath
m essy
n oodles
p up
p bth
r id
r ill
s im
s ip
s sey
t us
t ong
t ummy
t est
u ctor
w oman
w iggle
z i
z ag
Ġ Q
Ġt ests
Ġt angerine
he at
Ġa pe
re nt
in ct
in ting
in ked
Ġw ig
Ġw ishes
Ġs s
Ġs keleton
it ions
Ġd u
Ġd inners
Ġb ong
Ġg our
Ġm im
Ġm ummy
Ġp omegran
er ves
er ts
Ġf u
Ġf ives
Ġto l
Ġha p
or ty
le g
ig ate
na ughty
st ink
Ġr aff
Ġr hino
ad en
Ġe ld
uh h
Ġst eel
Ġre ar
Ġcan es
Ġn ests
ed om
Ġj aws
th i
do ck
ur ance
ot ter
if i
ĠM ercedes
Ġso y
Ġso ci
ter ia
ta kin
ly ing
ro b
ro ke
ra el
ra ham
ce ment
us eta
Ġsa kes
Ġbo iling
Ġbut cher
op es
Ġor dered
be lie
Ġover board
ĠC ha
Ġlet tin
Ġcl ang
Ġread er
ĠB an
ĠB ook
ĠB ag
ĠB ible
ĠB rend
our ine
ĠS chool
ĠS even
ĠS arl
ct uary
os es
Ġmo the
Ġpret tier
Ġdr ug
ĠA t
Ġgu ide
ĠR ain
ĠR onald
ĠR aisin
Ġmean ie
oom papa
ĠJ eremy
Ġlo an
Ġho llow
Ġche m
Ġfl ashing
Ġfa ith
Ġfa il
ĠT asha
ĠT upty
ĠP ie
ĠP addington
Ġhelp in
ĠF al
Ġsc ient
ard ines
Ġthrough out
Ġcr ummy
Ġcr uel
ĠG illy
ĠG ary
ĠG wen
Ġpro gress
Ġmin i
Ġbed die
Ġhead lights
che er
ne ctic
ĠH oo
ĠH or
ĠH ed
Ġv ow
ĠE van
Ġmommy s
ip le
ip ate
Ġred s
Ġz uc
ous in
ken stein
Ġpo ppy
Ġpo em
Ġch unk
ĠK an
ĠK ansas
Ġkeep er
Ġsl ap
Ġsl obber
Ġde mon
Ġde gre
Ġlight ening
ave ment
Ġrec ess
Ġdinner time
ci um
Ġam use
iz er
Ġchic hi
Ġcorn ers
Ġpar achute
sp ring
br an
cha sing
Ġswim mer
Ġmess in
ol t
ol ks
Ġnap time
Ġdis play
ian ce
Ġown s
Ġown er
Ġgrow in
Ġknock in
dd a
tin or
Ġlay ers
Ġac cept
Ġclimb in
Ġfat ter
Ġmirror s
Ġty ing
ĠV anessa
ĠPooh bear
Ġdes ks
Ġmar vel
ĠSt ore
Ġmark ings
keep s
de er
Ġsalad s
igg ling
Ġmed ical
ĠDad da
Ġad vanced
umble d
Ġdust er
squ ishy
Ġcal cium
Ġste ers
Ġba sed
Ġgentle man
Ġsim p
Ġhos es
gra v
ĠBar r
fight er
Mar ty
Mar vel
Ġart icle
wr iting
Ġfollow s
cin na
Ġlollipop s
Ġhandle bars
Ġext ent
Ġant eaters
pr om
iv an
Ġacc idents
ĠDo c
Ġes calator
ĠAnd erson
eight y
sm iling
Ġbull ets
hang ing
Ġoops ie
Ġprot ein
ĠMc Kayla
whe at
whe ther
butter flies
po lly
boun cing
love ly
host busters
Ġload ed
Ġdecor ating
Ġrob ber
draw ing
bea ver
Ġbean stalk
Ġexplain ing
slow ly
tea pot
isc os
Ġski pping
eez es
Ġbac ked
bump y
came l
Ġtou can
Ġweight lif
sk unks
Ġpri zes
Ġwar ning
ele ctric
mo ving
Ġlos in
ĠEd ward
Ġdesign ed
Ġantenna e
Ġgall op
Ġres earch
ĠCare y
ĠGer tinor
Ġrelative ly
Ġhun ts
Chris ta
ĠQu ik
Ġfry s
ĠJoan ne
Ġins urance
ĠAb bie
ĠAb raham
Ġdiam onds
Ġindian s
ĠChic o
Ġarr ived
Ġfli pped
Ġfli pping
Ġdrool ing
Ġph on
Ġplugg ing
Ġconcentr ating
pol iceman
Ġwrink les
ĠDen ise
Ġhabit at
Ġshove ls
Ġmosquito es
Ġsus pend
Bo zo
Ben jamin
rec order
chin i
Ġorgan ized
Ġappet izing
Ġentire ly
Mac donald
Ġbalan ced
cre ep
Ġprep ared
squir rel
upp ets
ĠMam ma
veget able
ĠCan ada
ĠPer ro
Ġpj s
craw l
laug h
puzz le
ĠLor raine
Ġrearr ang
Ġtrave ling
Ġtech nic
Ġdistur b
Grand addy
Ġmicro scope
Ġgunk ies
Ġiss ue
ĠDenn is
Ġlor ry
Ġscall ops
heim er
Ġagre ed
Ġseagull s
batter ies
ĠRog ers
Ġcyl inder
Ġcantal oupe
ctur nal
avor ite
Ġparake et
Ġmiser able
Ġfrequ ently
ssey ed
ĠSarl ac
nectic ut
Ġzuc chini
Ġdegre es
A nt
B illy
C or
C ap
D ear
D inah
H arry
L ily
N onno
N icholas
P ascal
R oom
S cot
T oo
Z o
a erobics
a arf
b id
b um
b ench
c ons
d ead
d uce
d ination
f ree
f ew
f eather
f elt
f ume
f avorite
g ly
g ave
g loves
j unior
k ill
l ooked
m ie
m os
m oose
n ay
n ces
p ra
p ire
r ig
r ome
r ite
r ate
s at
s unny
s moo
s lip
s pecially
t ill
t ice
t iss
t cha
u x
v v
w rench
y er
Ġt sh
Ġt act
he a
he els
ha sta
in ja
Ġs not
Ġs umpin
Ġthe rap
it ude
Ġd y
Ġd É
Ġd amp
Ġd iner
Ġg naw
Ġc able
Ġl akes
Ġl ining
no r
Ġm ast
Ġp addy
Ġp ace
Ġp eter
Ġit al
Ġf etch
Ġf idd
Ġo ak
Ġo int
es tle
ea ked
Ġh oof
Ġh unhunh
se ed
ee zy
st on
st om
st ring
ic he
at ically
Ġr ye
Ġr aggedy
Ġwan n
ir k
ad ar
Ġno cturnal
Ġst ur
Ġst acked
Ġme g
Ġcan ned
Ġknow ing
we y
ab l
al y
al pha
ood led
Ġn iece
ch ya
Ġj et
Ġj ars
Ġj ohn
Ġj erk
Ġup right
Ġwas her
ur in
un ity
Ġwant a
Ġall ergies
ĠM s
Ġso fter
ore y
Ġgot chu
Ġplay ful
hi er
Ġor phan
huh uh
ag on
ag ing
ag ara
Ġti ppy
ĠB rand
ĠB oy
ĠB oulder
wo k
wo lf
Ġpre y
art z
ĠS k
Ġtr ooper
Ġmo ist
irst en
ere c
ĠR ho
ĠJ er
Ġche aper
Ġche ated
Ġhappen in
el ujah
Ġbr ook
ĠN e
ĠT an
ĠT ickles
ĠP ea
ĠP oy
ĠP unxsutawney
ĠL ea
Ġqu ality
Ġqu iche
pl um
Ġcr u
Ġsw ung
Ġsm ush
Ġv amp
ĠE T
ĠE lephant
ss s
inn ed
Ġhat ched
Ġstart in
Ġfoot s
Ġfoot prints
est ion
ken zie
ac c
ac ques
arm s
Ġstory book
Ġfun nel
Ġsor ter
ĠK ool
ĠK rystal
ĠK irsten
Chi ps
ĠW hit
Ġtap erec
Ġmon itor
Ġsl umber
Ġbea st
ins on
bit sy
ball erina
Ġcut tin
sha king
Ġcho ked
Ġcho pper
cl ouds
tell s
ash ful
Ġyellow s
Ġair line
ib by
Ġsand y
ms on
Ġcorn field
Ġpar don
ex erc
sp ider
Ġbow s
Ġwonder in
rop s
Ġbutt ered
ase line
Ġun lock
Ġun buckle
Ġfly s
Ġem peror
sc ary
Ġhigh way
Ġmatter s
Ġcon crete
Ġmeat s
Ġpr im
ier ce
Ġbar ked
pt iles
Ġap ric
wha dda
aul ts
eter a
Ġsupper time
Ġcur led
Ġcur ved
Ġcur lers
Ġcheck ers
pull ing
ĠV adar
ĠV aseline
Ġcomb s
og i
Ġetc etera
elic ia
Ġtooth ies
tr ue
tr unk
ram bles
Ġclass room
Ġdad ada
Ġbub bly
Ġshort cake
Ġcomp ar
Ġtw in
ĠJohn son
Ġlamb ie
pat ient
Ġtight ening
Ġad m
gr ims
ĠSp ot
amp ers
Ġrid den
Mic he
ĠBr on
Ġpainting s
Ġkill er
Ġburn s
Ġcro sseyed
Ġcoll ie
kno cked
ĠAl bert
Ġbark in
Ġjo lly
ĠZ achary
An na
Ġbur st
urt les
fro ggy
Ġregular ly
Ġbroom s
Ġflat ten
Ġscream in
work ing
Ġcrab by
Ġdig ger
Ġsneak er
ĠDan ielle
blow ing
Ġmeal time
Ġinv iting
po ppop
ĠShe ryl
Ġrep tile
par ty
Ġvide os
Ġcop ied
Ġprotect ed
Ġyuck ies
Ġsteps ister
fall ing
Ġcloth s
Ġcock tail
Ġfool ish
ĠCo le
ĠBen jamin
Ġwip ers
Ġrestaur ants
ĠTy leno
ĠLou is
ĠGre g
ĠNor a
ĠDe von
sk ip
Ġstret ched
Ġstret chy
Ġcub s
Ġalpha bets
ĠPo le
Ġsel fish
Ġfuss in
Ġwra pping
Ġsub way
Ġoc cup
Ġstri kes
Ġgrace ful
ĠQu een
Ġbom bs
tra ins
Ġattack ing
Ġtim ing
ĠKe ith
ĠCarol ine
cir cus
ĠChic ken
hug e
Ġopp ort
ĠPark er
ĠBab a
Ġnatur ally
Rob bie
Ġlitt lest
Ġdel ay
Ġped als
Ġrout e
step s
ĠLex y
ĠTh ree
coura ge
Ġcond uctor
ĠDon ny
ĠAmy e
Ġzi pped
aling aling
He len
hipp o
Ġlim its
Ġliz ards
ĠSweet heart
bol ogna
Sp ider
Ġgravit ate
sli ppers
Ġvehic les
ĠChew ies
Ġbleed ing
sad ora
olo gy
Ġcourt room
Ġdande lions
Ġprov idence
Ġvot ing
speak ing
norm ally
peck er
ĠTar zan
Ġcanoe ing
Han nah
Ġstain ed
Ġconsist ently
Ġcommunic ate
ĠIs rael
Ġkak a
Ġspons ors
Ġweap ons
ĠCait lyn
Ġslight ly
Ġcoor dination
Ġliter ally
Ġtack le
ĠCur ious
Sl udge
pretz el
Lin coln
pigg ies
Ġmanip ulate
ĠPres ident
Ġsnat ch
sandw ich
Ġtrump et
ĠRea gan
ĠGret el
Ġbodybuild er
Ġtid y
Ġtal ons
Ġguarant ee
Ġheli um
sevent een
ĠChan ce
Ġproport ion
Ġsatis f
honest ly
tus ks
tong ue
Ġdemon str
Ġmarvel ous
cinna mon
Ġital ian
Ġoint ment
oodled oo
ĠWhit ney
ĠTyleno l
B er
B ugs
C ricket
D ay
J ess
J ustin
J ulie
L eah
M olly
N ala
P arent
P lay
W hite
b one
b ong
b ought
b arn
c aught
c uz
d ja
g it
g un
g ae
h ut
h undred
i ant
k rispies
l ive
l uck
m ary
m issed
o k
o es
p th
r ad
r isten
r ich
r inse
s om
s le
s ir
s unday
s noopy
t to
t imber
v iolin
w ip
w arf
y et
z illa
± o
Ã ±o
Ġ ease
Ġ est
Ġ irr
Ġ ĊĠ
Ġt ame
Ġt ug
Ġt amb
Ġt iles
ha y
Ġa i
Ġa verage
re x
in as
in ch
in ally
Ġw art
Ġw ard
Ġw eep
Ġs ens
it is
it ation
it sy
Ġd read
Ġd ung
Ġb ind
Ġb am
Ġg iggle
oo oo
no ise
Ġm u
Ġm ut
Ġm al
Ġm il
Ġm ate
Ġm ile
Ġm ouses
Ġp is
Ġp ulp
ay ley
Ġit ty
ing e
Ġf art
Ġf uture
Ġth inner
es ota
Ġdo e
Ġdo ck
et c
ke pt
se venty
or ized
id ently
ĠI vy
st an
Ġwe bs
ht ray
ic ent
ow s
at ter
at ops
Ġr umble
ad d
ad oo
Ġst eep
Ġst ared
Ġre pl
Ġbe coming
Ġcan non
Ġsee in
Ġn igh
Ġn oun
ie fly
th ird
Ġpl op
Ġan im
Ġput ta
Ġnot icing
un ts
eat in
ĠM addy
ĠM erry
ĠM uffet
Ġso aking
ta cy
ta gon
nt uu
hi y
ra pe
ra ining
Ġsa ves
Ġsa iled
Ġsp ices
Ġsp ooky
Ġor cha
Ġor nament
be g
il ities
Ġany thin
ag oon
she y
ĠC J
ber g
ĠB aldy
ĠD es
ĠD ar
ĠD ana
ĠD iana
ĠD amian
ĠD eedee
ĠS abr
ĠS ayla
ess erts
os ion
Ġtr ough
Ġas htray
ul u
Ġbu gg
Ġbu gging
li ps
uff s
ĠR and
Ġcook er
Ġman aged
Ġmean while
ĠJ P
ĠJ asmine
Ġlo ft
Ġche ss
ting u
Ġfl esh
Ġbr iefly
Ġfa ctor
ĠN urse
ĠN icole
ĠT ower
ĠL ucky
Ġsha kin
ĠF ish
ĠF ae
ĠF lynn
Ġsc ab
Ġsc oops
of ia
pl ant
ug ug
ĠG onzo
ĠG arfield
pen ny
Ġwr iggled
Ġse ctions
ne ys
Ġv ag
ĠE le
Ġwait ress
ous ly
Ġna t
aw esome
Ġch imes
Ġch unks
Ġch irp
ĠK aaee
ĠK rispies
ĠW ompa
Ġcare less
Ġint ense
Ġint rig
Ġsl ot
Ġsu ds
Ġtra mp
Ġkiss in
Ġjump er
Ġthank you
Ġsqu ashed
Ġfro ggies
Ġbus hel
Ġact s
Ġsk ies
Ġyea st
ach u
ew ie
eal and
Ġclo ver
Ġhop ed
Ġflow ing
unk in
Ġsock ie
te m
Ġcon venient
Ġsun flower
Ġkn its
Ġgi ya
ĠFr ance
gu ard
Ġeye balls
Ġeye glasses
Ġgrand parents
eep ee
wel come
Ġmiss es
Ġpat s
Ġsn uck
Ġsn oopy
Ġten se
Ġwall paper
Ġve nt
Ġboot ies
fl o
Ġpin ata
Ġspl ashy
Ġsick ness
Ġcam er
Ġboun cin
Ġper ch
Ġper man
Ġkangaroo s
Ġswing in
Ġswing ie
Ġi vy
Ġgen ie
ĠSt art
Ġsince rely
Ġclass ic
de vil
Ġeng age
igg ers
Ġri pping
Ġra ised
Ġvisit ors
old s
Ġad orable
Ġwish in
Ġyoung est
Ġcal ories
Ġkill ing
pop s
Ġrac ed
Ġhum ans
ĠZ ealand
oth ra
Mar iana
Ġind ent
cut ie
Ġsuper man
erc ules
lo be
fro zen
doll ie
Ġpac i
Ġpress ing
chair s
Ġchin ese
peanut s
dad um
dad adadada
sm oke
Ġlid s
Ġbull et
Ġthird s
Ġstrip s
Ġpoop ed
Ġpoop ies
Ġfold ing
Ġfold er
Ġot ters
ik ki
sa ac
Ġdecor ative
Ġprotect ive
Ġrob es
St ep
Ġhee haw
Ġspend ing
Br ad
oc ado
fire fighter
Ġpow ers
ello gg
ero le
Ġsteak s
rock ing
bad ji
ĠDe cky
sound ed
Ġcub by
Ġgerb ils
Ġmask s
Ġproper ty
Ġcons cious
ingle heimer
Ġwra pper
Ġref re
Ġol ive
ĠMad ison
Ġinteract ion
Ġyawn ed
ĠJoan ie
ĠScot tie
Ġins ist
ĠRe va
cur tains
Ġdrag ons
Boo boon
friend s
Ġserv ant
Ġsou thern
ĠFro sted
Ġphotograph s
ĠMel anie
ĠMel issi
Ġhan gs
Ġboss y
ĠLex i
Ġmechan ical
Ġrattles nake
mar ine
De lia
Ġcran berries
usse ll
Ġshove ling
ĠDa isy
Ġsupp lies
Ġargu ing
Sha na
ĠPet es
Ġsus pic
Ġspee dy
bel ieve
Ġcris p
Am anda
ĠBa ebae
Ġsuggest ion
Ġaff ord
ĠWal ter
Ġpure ed
Ġpron ounce
Ġbou illon
Ġrasp berries
ĠCon necticut
Ġlat tice
Ġprodu ct
Ġdetail s
gl ue
Gold ilocks
Park er
ĠMer rill
Ġvot ed
Ġdem and
Ġinterrup ted
Ġwerewo lf
lal ala
Ġcushi ons
Ġdisp osal
Fran c
ĠGab by
Ġbarbell s
Ġcli ppers
ĠSch mid
bunn ies
bunn ys
Ġmang os
ĠAndre as
sur fing
Ġshoel aces
Ġpy ram
pussy cat
All ison
Ġsan ctuary
ĠPar is
Re ese
Gr anny
Urs ula
Th ree
Ġfeat ures
Ġpotent ially
Ġthrill ed
Lind say
Ġdelic ate
amil ia
ĠFer die
Ġcrink ly
Ġunders h
dar ling
Ġfunn iest
Ġfoss il
Ġdom estic
Ġdroo ly
ĠFriend ly
Ġapolog ize
ĠMart ha
Ġdelive red
Ġamuse ment
Ġweightlif ter
Ġsuspend ers
smoo th
alpha bet
Ġopport unity
Ġputta putta
Ġorcha rd
ĠSabr ina
Ġtramp oline
ĠSchmid t
A li
B at
B ab
B onnie
C ol
C alifornia
D ee
D ick
D og
F ro
H ar
H ank
J acob
L ex
L arry
L ester
M am
O h
O z
R on
S leep
T wo
T his
T unde
V anessa
Z ach
b oot
b icycle
c aw
c ope
c redible
d ust
d essert
g ain
g ung
k uhz
l ujah
m ain
m aker
m obile
n un
n ana
n oodle
o ven
p sh
p ract
r ack
r unn
r ats
s ht
t t
t ip
u ated
w ink
w ild
w inky
x im
y oyo
z am
z aa
Ġt ale
Ġt ilt
Ġt ales
he alth
ha lloween
in finity
Ġw ink
Ġs uh
it os
Ġd ed
Ġd up
Ġd ash
Ġd oodle
Ġb id
Ġb itten
Ġb awk
Ġb icycles
an cy
Ġg ig
Ġg ah
Ġc ong
Ġc af
ll as
Ġl ump
no bi
Ġp uck
Ġp itch
Ġp avement
er ved
Ġf lee
ea ster
Ġdo ve
et ry
Ġh ooray
Ġha e
Ġha lves
se cond
or ice
or ms
na bat
st e
st one
st ock
Ġk na
oh o
ar ies
ic kel
Ġli ar
yea r
Ġr in
Ġr ink
Ġr ider
Ġr rr
Ġr ags
Ġr usty
ad ine
Ġst er
Ġst ork
Ġst ale
Ġre el
me x
ho y
ab ba
al ready
ood y
Ġn ee
Ġn ifty
ch im
um a
en cy
en joy
th rew
th umb
un ta
Ġout fits
ĠM unch
ĠM ale
ind y
ack ety
where as
pp ies
ore s
ter y
ly de
ro l
wn y
Ġab ility
hi ya
ra irie
Ġsa ils
Ġsp ong
Ġor ient
ag aga
she d
she ll
ĠC ee
ĠC ho
ĠC orn
ĠC ub
uck les
ak y
Ġel abor
Ġal ert
Ġal mos
Ġal gae
ĠB right
ĠB ingo
ĠB iscos
ĠD eb
ĠD ucky
Ġne h
ĠS pl
ĠS ugar
ĠS olt
Ġbl ues
Ġsh ift
Ġmo le
ah h
don keys
Ġhapp iness
wan zaa
Ġag grav
bo li
ul as
Ġdr ummer
Ġdr ibble
Ġcould a
Ġgu essed
ĠR al
ĠR od
ĠR oland
ĠR achael
ĠR ussell
Ġman ager
ĠJ ay
ĠJ ello
Ġfl ea
iss or
Ġbr at
Ġuh hum
ĠN inny
ĠN inja
ĠT er
ĠT itch
ĠT ickle
ĠP ic
ĠP ir
ĠP ur
ĠP ro
ĠP il
ĠP ampers
ĠL ong
ĠL iv
Ġsha des
Ġcha p
ĠF ord
ĠF amilia
Ġsho re
sh iny
Ġqu eek
co ll
Ġevery thin
Ġgr anny
ug a
Ġdog house
ĠG oose
ĠG lobe
Ġle mons
Ġju ices
Ġmin t
Ġmin us
Ġse g
Ġwork ers
Ġlea gue
Ġcat tle
Ġcat cher
ade h
ĠH ouse
ĠH uds
ĠE skim
ip oo
Ġred dish
fore st
Ġreal ity
inn in
hant ed
Ġmight y
Ġhat ed
Ġex plan
Ġcame ls
Ġpo d
Ġbro th
Ġsweet er
Ġsweet est
Ġfeet s
Ġlove y
Ġwh iny
ĠK wanzaa
ĠW ord
air planes
ail able
Ġde fin
Ġtra ce
Ġgl ow
Ġgl ider
Ġfour s
sha me
av ia
Ġthank ful
Ġrun t
Ġdi arr
Ġsk et
Ġmorning s
Ġblock ing
Ġrec ent
Ġbuild s
Ġfeed er
Ġbuy ed
ond ale
ib r
baby s
Ġbab es
sp r
sp ot
any ways
ud ent
hr m
night ie
ort e
Ġtur quoise
ever land
Ġyum mers
Ġpr ison
Ġbar gain
tin es
Ġbrush in
Ġmiss y
Ġpink ie
eter ia
unt ie
anta ge
Ġleaf y
Ġcur ve
Ġcur rent
fl ap
Ġscr umptious
Ġsad ly
ĠV innie
over alls
og rap
mean while
Ġper fume
Ġdra gged
pick ing
Ġpay s
Ġtong ues
Ġpicnic s
da e
Ġgarden er
Ġmis chief
Ġrib bet
Ġele ment
Ġwa i
cept ive
jump jump
Ġri vet
Ġcre st
Ġsto len
Ġchick y
ĠSp ark
sw eater
Ġpeek a
ugg ed
ĠChe eto
Ġcrawl in
Ġcont roller
Ġpack ing
Ġsi bling
Ġspeak s
Ġspeak er
ham burgers
ĠZ even
Mar ia
ĠPat ty
Ġpepper mint
call ing
Ġind ic
Ġind ivid
lo gy
lo af
ĊĊĊĊĊĊĊĊ ĊĊĊĊ
pot tie
Ġacc ent
rac coon
rac adabra
Ġdig est
yuck ies
Ġdaught ers
Ġeleven th
Ġpract ically
Ġger man
ĠBe fore
Ġtunn els
ĠHar vey
Ġpeel ing
Ġconf ident
Ġhen s
chew ing
ustr alia
Ġtank s
Ġdar lin
Ġcart wheels
Ġchar ged
ĠKay lia
ĠCo ca
Ġass ist
Ġass ign
adad adada
ĠMac Gregor
ruff ruff
Ġelect rical
Ġpos y
ĠGre ggy
omp any
Ġinstru ctor
eye b
Ġtou ches
Ġoffic ial
Ġwar med
ele vator
Ġequ als
wor th
Ġstea dy
Ġjunk y
ĠPo lly
squeak y
ĠGold en
sn eak
Ġnineteen th
ĠHan key
ĊĠĠ ĠĊ
Ġhun ters
wear ing
small er
miss us
Ġpatient s
ĠScot ty
ĠSnow man
Ġexpl ode
Ġexpl osion
Kat z
Kat hy
Ġthre es
Ġfi ber
friend ly
Ġproject s
bac co
bes ide
imp les
pupp ets
Ġsaf ari
ko ala
Ġentertain ing
Ġentertain ment
Ġdiscus sing
Ġmechan ics
Ġtoad s
ĠSqu eaky
agag agag
ran nos
ĠKr ist
Ġeyeb row
Ġtease d
Ġshi ver
bra ve
ĠLo i
tow ards
Good night
Ġlim b
yumyum yumyum
Sha dow
ĠRu dolph
Ġrod ent
farm ers
ĠCam eron
Ġcelebr ation
Ġq wynnie
ĠBa um
Mc Kayla
Ġpleas ant
seal s
Ġbou quet
Ġbru ised
gold fish
fre sh
Ġcass erole
ĠBea ver
Ġprodu cts
Ġintrod uce
Moom oo
ĠTe ppy
Jill ian
bark ing
chee ks
ĠHer shey
ĠInc redible
Ġarrange ment
Ġfee ly
Ġnug get
Ġpige on
Ġinit iate
Ġnick name
Ġcust omer
Ġoy ster
ĠNi agara
Pe anut
Ġsno ring
ĠDave y
Ġstereoty pical
Ġsug ars
Ġcas hier
tight en
cel ery
Ġadv antage
icer atops
Ġchat ter
ĠDu kes
Ġimpress ive
Ġhyp not
aha hah
Ġspir it
Ġflam ingo
Ġautom atically
sem ble
Ġinfl u
Ġene my
Ġleot ard
por cupine
ĠCow boy
Ġnation al
clud ing
Ġconvin ced
Ġadopt ion
Josh ua
iol is
Ġcy cle
ĠCru z
ĠTa unta
Lyn ette
belie vable
ĠFal con
bran ches
Ġsimp ly
feather s
tiss ue
Ġvamp ire
Ġtaperec order
warf s
Ġwart hog
Ġcamer as
Ġundersh irt
Ġcaf eteria
nabat a
ĠSolt z
ĠHuds on
Ġdiarr hea
ĠTaunta un
A ng
A imee
B uster
C www
C ola
C hatty
D uncan
E www
E aster
F re
G us
G avin
J acques
K en
L www
N emo
N urse
P er
P ea
P rice
P opp
R over
R ydan
S h
S ky
S esame
T www
T isha
T hanksgiving
W acky
a ww
b ib
b urp
c and
c ast
c ucumber
d un
d irt
d arn
d ickory
e na
g na
g ree
g host
k at
l ar
l ash
l oud
m ess
n n
n u
p oom
p ipe
p itcher
s ilver
t im
t ot
t ack
t uring
t igers
w al
y arn
Ġ ou
Ġt een
Ġt ush
Ġt iring
ou l
ha med
Ġa mber
Ġa ds
re g
Ġw id
Ġs oo
Ġs ss
Ġs igh
Ġs ardines
Ġyou s
it z
it ary
on ya
Ġd ang
Ġd ummy
Ġb ait
Ġb aw
Ġb zzz
an an
Ġg it
Ġg es
is elle
oo aa
Ġl y
Ġl ent
Ġl icked
Ġl antern
no one
Ġm ig
Ġm wah
Ġm ales
Ġp ap
Ġp eed
Ġp ah
Ġp eak
Ġp ounce
Ġp bth
er ia
er inas
Ġf uel
Ġth ir
Ġo d
es an
Ġh ind
Ġh ilar
se wing
or ic
ĠI ce
ee ay
ee haw
na tion
Ġk a
at as
at ue
Ġr ay
Ġr ump
ad ian
Ġno d
Ġno r
as her
as per
Ġe eat
Ġe hrm
Ġst ings
Ġst amps
Ġre place
Ġre ptiles
ho re
ho pping
Ġme me
Ġme ets
Ġcan ary
Ġcan cer
Ġknow ledge
we b
ab ly
ab ove
al ive
ood oo
Ġn yum
ch urch
ch omp
um by
Ġat h
Ġj a
Ġup pie
th r
Ġpl a
Ġan ti
Ġput ty
un screw
ot ic
ot ton
Ġwant in
ĠM un
ĠM ont
pp iet
pp ety
ill er
Ġy u
Ġy olk
Ġsay ed
ro pe
Ġplay dough
hi ve
ra ther
Ġbo ar
Ġsp oo
Ġsp at
hy a
hy ah
am bler
be er
il ty
il izer
Ġco kes
Ġco pper
Ġbook ie
ĠC ory
ĠC rispies
ĠC onnor
ĠC orduroy
but tons
Ġcl ack
Ġcl ipper
Ġfr own
Ġti pping
ĠB ut
ĠB ell
Ġcar b
Ġcar bon
ĠD oh
ĠD aws
ĠD idi
Ġpre par
our th
qu a
ĠS o
ĠS ir
ĠS issy
Ġbl o
Ġtr iceratops
Ġas hamed
name d
to l
Ġar ts
Ġar rest
ye re
ere k
bo d
Ġbu lly
ĠA pple
uff ed
ĠR ick
ĠR ush
ĠR andy
ĠR iver
ĠR onnie
Ġcook book
Ġball erinas
ĠJ u
ĠJ ersey
ĠJ ingleheimer
ĠJ abba
Ġfl irt
Ġgirl ie
Ġbr ake
ĠN ascar
ĠN everland
ĠT iger
ĠT ron
ĠP i
ĠP al
ĠP eek
ĠP eg
ĠP iper
ĠL et
ĠL ise
ĠL ewis
ĠL agoon
Ġsha ggy
Ġhelp ers
Ġcha ses
ĠF or
ĠF air
sh ley
Ġqu iver
Ġqu acked
Ġgre mlins
pl unk
Ġgr izz
Ġcr ump
Ġcr ashes
ost rich
ĠG u
ĠG arden
ĠG ita
ĠG iselle
Ġle nd
Ġpro ve
Ġmin es
Ġhead ing
che t
Ġhold ers
ĠH ot
Ġv et
Ġv ines
ĠE ye
fore ver
ge ese
Ġbre a
arm esan
ri et
Ġgreen beans
Ġwh oosh
Ġfall ed
Ġch uck
Ġhot ter
ĠW ar
ĠW ed
ĠW ater
ĠW est
ĠW isc
ĠW ein
Ġear rings
Ġkeep in
Ġint ent
Ġsl ave
Ġlight ing
wait ing
Ġinterest s
sha pes
cl am
cl aws
for ward
Ġhurt ed
ons in
Ġsna r
Ġdi ver
Ġend ing
Ġtoy box
ple nty
Ġcold er
Ġmat zo
Ġrock er
turn ed
ant ie
ant eater
Ġhorse back
sp ray
any more
Ġsec ure
cha r
Ġsal mon
Ġtick ly
ask a
Ġpain tin
oun ge
ort ion
Ġem u
sc issors
sc rub
Ġdis aster
Ġdis tingu
Ġrain forest
Ġown ed
Ġgrow ed
ps ack
ps hire
Ġpr ide
Ġcir cular
ile en
ĠO ma
ĠO tto
dd ar
ĠMom mies
Ġsoup s
Ġgra ze
Ġsnow balls
Ġsnow suit
gre gor
Ġscrew ing
Ġve ggie
fl oor
Ġspill in
io li
pull ed
Ġim patient
Ġpin wheel
ĠV olks
umb a
umb us
Ġjack s
Ġdec ides
Ġrecord ers
Ġrecogn ition
nic kel
Ġstra ps
roll ed
cr at
Ġatt itude
Ġvis ual
Ġchim pan
Ġkick in
ĠAn imal
ĠSt ory
Ġdump s
daddy s
Ġmark ing
ĠMon sters
ĠMon ique
sor ta
Ġsli ppy
Ġplan ets
ze bras
Ġmen u
Ġshort ly
Ġfork lift
Ġtw itch
Ġpee ing
Ġpee ked
Ġfre ck
Ġquestion na
Ġumbre llas
Ġreason able
Ġta pping
rel and
rel ine
Ġmach in
Ġtight ly
gr ay
Ġfox y
Ġfox es
Ġcal cul
Ġcap s
Ġcont ra
ĊĠ ĊĠ
Ġcheer io
Ġsign ed
Ġcoll ap
gra mma
ĠAl ison
Ġhon king
Ġer rand
Ġgum drop
may onnaise
Mar garet
ĠPat ches
tur al
ju icy
ĊĊĊĊĊĊĊĊ ĊĊĊ
Ġce il
Ġmagic ian
pr int
Baby kins
Ġbother s
Ġcross es
ĠNew ton
ĠCarl os
Ġrel ate
Ġrel ations
Ġinter f
mom s
Ġpeel s
pie ces
Ġsquirt ed
Ġpear ls
Ġmac aw
Ġprom ises
Ġvide ot
Ġcop ies
Ġcop ilot
Ġprotect ing
Ġprotect ion
St ar
af ar
Ġhy ster
Ġposs um
ĠCh ie
lad ies
ĠAr too
Ġbubble gum
Ġdisapp ears
di apers
Ġwigg les
Ġpork chops
cap tain
bump ity
ĠRo che
ĠDisney world
ai med
Ġcollect ed
las ag
bar ked
fan cy
Ġstud ies
Ġrhy thm
Ġtreasure s
Qu inn
feed ing
Ġexper t
ode on
Ġma am
bus es
Ġantenna s
Ġres ervation
Ġsub marine
dump ling
ĠEm erson
Ġassoci ation
Ġassoci ates
El aine
Ġstate ment
him self
gor illa
Ġpun ched
Ġshr ink
Ġvar ious
Ġexpl od
gar ine
Ġlab els
Gra mma
Ġresc ued
Ġrelax ing
Ġrelax ed
ĠKe nobi
ĠCarol ina
cir cles
sun shine
Ġpref erence
Ġsour ce
Ġmamm oth
bake d
Ġspecific ally
Ġdigg in
Ġpudd les
Che ese
Ġcooper ating
Ġzi pping
Ġmous se
Ġmow ing
Ġwhi z
Ġescap ed
uk ab
Ġoper ation
Le ila
Ġsym bo
Bar ney
Ġprof essor
vr ooom
ĠSweet ie
ĠAng ela
ĠRu fus
Ġviole nce
Ġadventure s
rec ord
Ġlic orice
kn ife
Ġfort unately
Ġrefle ct
Ġtab let
ĠBal mex
ĠWal t
Fl akes
Ġpron oun
Ġorig inally
utter ing
fre edom
ĠHam pshire
Ġlat est
ĠCan adian
Gram pa
Ġrece iver
rais in
Ġgrate ful
Ġeffect s
Ġutens il
Ġann ounce
Ġinterrup t
wahwah wah
rar ara
norm ous
Ġmult iple
pow der
Ġpers pect
Ġhamm ock
ĠLind say
kh kh
puzz les
Ġmang o
ĠPopp ins
Ġconsist ent
fig ure
Ġharm ful
Ġshoel ace
ĠJosh ua
Ġenc hanted
Ġgrave yard
dro pped
mam ma
Ġrav iolis
Ġrav ioli
Ġorang ut
Ġcoup on
Ġnib bling
clip se
Ġtwent ies
Ġdescr ipt
Ġteena ger
Ġfest ival
Ġome lette
ĠSponge bob
Ġsurround ed
Ab bie
Ġfea thery
ĠRich ie
Ġdeli very
Ġtul ip
bas ically
ĠTor onto
Ġannoun ced
Ġeld er
Ġsoci ety
ĠBan ner
ĠBag els
Ġchem ical
Ġtact ile
Ġtherap y
Ġstur dy
ĠBrand on
Ġstepsister s
Ġoccup ied
Spider man
Ġirr it
Ġtamb ourine
Ġrepl ied
Ġrefre sh
Bat man
Ġrin sed
ackety boom
ĠPil grims
Ġexplan ation
rannos aurus
kat ika
ĠDaws on
Ġgrizz ly
ĠWisc onsin
B umper
C e
C on
D eet
F itt
G loria
G onga
H ow
H etti
I tal
K angaroo
K risten
L ord
M y
M aster
M oe
N at
N ick
N ate
N aila
O f
O r
O bserver
O ctober
P www
P opeye
P addington
R onald
S m
S s
S ister
U h
W eb
Y uli
a led
b uster
c s
c op
c amp
d eed
d iam
d rian
d usting
e ie
f ts
g age
g ant
h ist
i at
i als
k uh
k ker
l om
l ucky
m osquito
n ched
p ose
p ump
p oss
p rop
p ans
p ony
p oke
p ower
p resent
q wynnie
r ist
r ug
s eat
s hy
s erve
t ower
t uesday
u ana
v i
v ies
v ille
v itamin
w ack
w eek
w itch
y ote
Ġt el
Ġt ask
Ġt haw
ha pp
Ġw es
Ġw ate
Ġw ished
Ġw ars
Ġw ishing
Ġs ow
Ġs itter
Ġs assy
Ġthe me
Ġd ab
Ġd ies
Ġd ug
Ġd itty
Ġd esserts
Ġd warfs
Ġg ummy
Ġg ian
Ġg ates
Ġg ears
Ġg iggling
Ġc ater
Ġc aw
ll is
Ġl in
Ġl am
Ġl ace
Ġl ops
Ġm oss
Ġp ing
Ġp ter
Ġp oof
Ġit ching
Ġf uck
Ġf ib
Ġf ert
Ġf ierce
Ġth o
Ġo ats
ea m
ea gle
Ġdo se
et ic
Ġto rt
Ġto bacco
om in
om per
Ġh ooh
Ġh ub
Ġh unk
Ġha haha
Ġha ired
Ġgo ver
ig ot
ig ated
Ġin n
id ney
the ad
ĠI sland
ĠI reland
st omp
Ġk l
Ġk uhz
now here
Ġu ne
ic ie
Ġli l
Ġwhat chu
and as
Ġr r
ad ium
ad ders
as leep
all ed
Ġst ee
Ġst alls
Ġst aple
Ġst roke
Ġst adium
Ġre v
ho les
Ġme nd
ab ama
ch ipper
en er
Ġfor give
ed ient
Ġj aw
Ġj ets
Ġj ury
Ġup hill
Ġpl aced
Ġan xious
un ci
un te
un zip
un iper
if es
if lower
hm an
ĠM useum
ĠM othra
ry sal
ill in
Ġy am
ly mouth
ro cer
ell ie
Ġab ou
Ġsp arrow
op ey
be ls
il o
Ġbook mobile
ep e
ty l
ĠC al
ĠC row
ĠC oop
ĠC amp
ĠC orky
ĠC orey
ĠC ompany
au qua
ak i
Ġcl k
Ġcl imber
ĠD ig
ĠD ear
ĠD au
ĠD iesel
ĠD almat
Ġoff ering
Ġpre vious
see m
see ing
ite ment
ĠS y
ĠS uz
Ġbl a
Ġbl ub
mm m
Ġar ou
bo ats
bo oneen
ul ah
ul ation
ul ks
ang y
ang ular
Ġcom for
ĠA ud
li ath
Ġgu ilty
ĠR ing
ĠR ydan
ĠR acketyboom
ump a
Ġlo c
Ġhouse hold
el ing
Ġtalk ie
Ġfl a
Ġfl op
Ġfl own
Ġcolor in
Ġbr ig
Ġpe gs
Ġwater y
ĠN www
ĠN uts
ĠN estle
ĠN ellie
ĠT oo
ĠT oby
ĠT onka
ĠP eekababy
ĠL A
ĠL en
ĠL ake
ĠL ara
Ġcha mber
ĠF arm
ĠF elicia
Ġsc en
Ġsc ulp
Ġsc issor
Ġgr ip
Ġgr ief
Ġcr it
Ġcr ick
ĠG hostbusters
ĠG umby
Ġmin ivan
Ġse qu
Ġlea ding
ob ster
Ġsw itches
che ss
che stra
Ġdrink er
Ġmilk man
Ġsm ushed
ĠH umm
ĠH ooper
ĠH olly
ĠH orton
ĠH artz
Ġv ans
bab e
Ġpi led
Ġwait er
Ġbat ting
ip ton
Ġex ist
Ġfoot stool
Ġpo pper
Ġpo ker
Ġpo etry
ac tyl
ri ver
ri pe
Ġfun eral
aw ky
Ġwh oopsie
Ġch rysal
Ġro am
Ġro ars
ĠK ar
ĠW alend
Ġcou ches
Ġint im
Ġint ently
ti v
ti eth
Ġbea utif
Ġde mo
Ġlight house
Ġtra pe
sha dow
Ġcho res
ger y
Ġdraw in
Ġsqu eezing
tell ing
wh om
wh istle
for ce
Ġlad ys
wow ie
Ġtouch in
Ġsk irts
Ġpan t
Ġbutter y
Ġcream s
Ġrec ipes
Ġfire crackers
Ġstr uggle
bl ood
Ġdre nched
Ġchi pper
ant as
Ġpar ag
Ġhi ber
Ġbab bling
sp inning
Ġtom atos
aff y
Ġbel ieves
rop he
Ġsal tines
Ġbee bee
Ġbee hive
Ġroll y
ets y
Ġun h
Ġun ited
ator s
Ġdis gu
Ġblack board
od actyl
Ġchild hood
Ġmag ical
Ġkn uckle
Ġfo ggy
Ġpr une
Ġpr ices
Ġeye lash
ĠO h
Ġgrand daddy
Ġsheep s
fe male
mer ry
Ġpat ches
Ġpat atas
Ġgra mm
ĠBaby kins
Ġsn uff
Ġsn eezing
Ġcray fish
ĠEr ie
Ġbell ies
Ġpolice woman
Ġboo ger
Ġboo gies
Ġsnow men
Ġclos in
aul iflower
think ing
hur rah
Ġarm or
pa jamas
Ġinst ant
Ġinst ance
Ġpark s
Ġcheck s
fl oppy
Ġtall est
Ġdro ppin
Ġspl ashes
Ġboun cie
ĠMar gi
Ġground s
corn flakes
og raph
em orte
Ġtummy ache
Ġdra gging
Ġrace cars
throw in
close d
elic an
cr adle
Ġpay in
ĠAn imals
ĠSt rom
ĠSt atue
Ġgarden s
rib bet
tr ay
tr ans
Ġter race
Ġplan ned
Ġwha d
Ġstom ped
Ġcomp are
Ġcomp ete
Ġtw irling
ĠJohn nie
back wards
Ġband it
Ġra ind
old emorte
Ġcats up
Ġdream in
Ġkey hole
Ġfather s
gr ouch
ĠSp ace
ĠSp ud
ĠSp ring
Ġdust y
ugg a
ĠBr an
walk in
ĠChe ryl
Ġcont est
Ġtus hy
Ġcheer ful
ĠGod zilla
kno b
ĠY ear
ĠBar bies
Ġer as
oosha booshas
Ġrac er
Ġhum or
Ġtri pping
Ġgum balls
ĠZ ay
stick ing
Ġlick in
whats a
Ġind igo
cut ting
lo ad
Ġwag gin
Ġafterno ons
Ġext ens
aron is
Ġbroom stick
ĠGra ce
Ġcamp ers
pr incess
iv il
Ġpor po
Ġnic est
doll s
Ġpac ie
Mat t
Ġdig s
ĠLe anne
ific ation
kiss y
Ġlibr arian
Ġshoot s
Ġshoot in
ĠKat z
Ġimag ined
Ġger m
Ġcor al
Car le
ĠShe ara
Ġmam ama
ik ie
sa fe
Ġdecor ated
Ġprotect s
Ġhall elujah
Ġchar ging
ĠKent ucky
Ġteas in
Ġdist inct
Ġdire ctor
ĠBrown ie
rect angle
Ġbas es
Ġcock at
Ġpow dered
ĠCo lleen
Ġwhist les
Ġwhist ling
Ġtest ed
Ġwip in
Ġwigg lin
ĠMac kenzie
ĠTy ler
wa ving
Ġbac teria
iver se
Ġgoo goo
Ġcorrect ed
Ġexper ien
build ing
Ġwar ri
Ġdumb bell
Ġsniff ing
check ing
chick s
Ġmem ories
Ġgolf er
ĠGer ber
Ġlaw yer
Ġsixteen th
Ġoc cur
Ġinc or
Ġhun ter
ĠMad ame
mat ic
Ġinteract ing
Ġspark s
Ġshr ie
ĠPe ggy
sea mstress
Ġthousand s
Ġpoison ed
Ġresc uing
cur ly
mix ing
ĠPlay dough
tw irl
ĠIsab ell
osquit os
Ġscra ped
kick ing
Ġigno red
Ġdest ruct
Ġfli pper
carry ing
rrrr rr
Ġav ocado
Ġav ailable
Ġwreck ing
Ġrepeat ed
Ġmunch kin
ĠLin us
Ġhaw ks
rat ul
pir ate
De idre
ĠJeff rey
abab aba
ĠFred dy
giraff es
uk ie
ĠDa wn
Ġoper ator
ĠRoy ce
Ġsomers aults
Le o
Le ia
cross ing
Ġnutr ition
Ġsus pect
Ġvol ume
Ġvol unte
bel ts
ĠMiche le
ĠChuck ie
yi yi
dis gusting
Ġpitterpat ter
Ġpron unci
lemon ade
Ġstere o
Ġga thered
Ġbru ises
whis kers
ĠSh irley
Ġelectron ic
ĠBea st
Gram my
Ġdee per
Ġbink ies
Ġfer ris
Ġremove d
Ġtoena il
Ġopt ion
Ġopt ions
ĠCle mson
gran ola
Ġrequ ire
mere lda
Mel issi
Ġder rick
Ġcust ard
Ġmot ion
Ġoy sters
ĠNo el
ĠWolf ie
Ar lo
laug hing
Ġbilly goat
ĠAndre a
ĠLove y
Ġweap on
Ġgather ing
ĠDoug las
Ġrespons ibility
Jan et
Squ eaky
Ġcudd les
Ġunlo cked
Ġtwent ieth
Ġinj ured
Ġsele ction
Ġdescr iption
danger ous
ĠFre re
Ġscold ing
ĠLi berty
Ġsnugg ly
ĠZo ey
Amer ica
Ġinvest igate
ĠSleep y
yai yai
Ġimagin ative
Ġera sed
Ġanc ient
Ġalien s
Ġindoor s
Ġgy psy
Ġflex ing
Ġswee per
Ġcamoufl age
sim ilar
prom ise
electric ity
Ġrearrang ing
ĠRho die
Ġweep ie
Ġornament s
Franc isco
Ġpyram id
main ly
health y
Ġgig antic
ickel odeon
ĠKrist in
Peanut s
Ġhilar ious
ĠVolks wag
ukab ear
Ġperspect ive
Deet oo
eie io
pump kins
poss ibly
Ġlops ided
Ġpter odactyl
ĠHartz ell
Ġchrysal is
ĠStrom boli
Ġdestruct ive
Ġpronunci ation
A pple
A lad
A rth
B ea
B rambles
C aterpillar
C onnor
D ar
D eb
E ng
F o
F irst
F eel
F ather
F lorida
H at
I s
I nd
I sadora
J esse
K yle
K iki
M ex
N ovember
P a
P en
P ierre
S c
S ab
S ue
S pr
T am
T ippy
T ammy
T revor
W ay
W ho
W al
X avia
a es
a us
a ves
b ish
b ard
b ud
c ade
c ooked
c ones
d you
d ip
d aught
d umb
d ated
d ressed
d ishes
f s
f ry
g les
g ent
g oofy
i y
i adi
i hiy
j ig
j ar
k it
l ap
l ah
m ont
m ation
m ouses
m itter
n ang
o il
p ound
p ine
p uff
p eel
p ile
p erson
p oodle
r oo
r ush
s ong
s ummer
t um
t ub
t ongs
u med
u ations
w ra
w illy
w eak
w inter
w ires
w hichever
x agon
y dr
y box
y pus
z ee
Ġ ĊĊĊ
Ġ oun
Ġt s
Ġt un
Ġt am
Ġt inkle
Ġa e
Ġa na
Ġa ph
Ġa unts
re lie
in credible
Ġw avin
Ġs ch
Ġs ly
Ġs ear
Ġs ite
Ġs ons
Ġs ighed
Ġthe judge
it ual
Ġd ea
Ġd ye
Ġd ull
Ġd uty
Ġd ino
Ġd imple
Ġb ap
Ġb ony
Ġb uster
Ġg na
Ġg ain
Ġg uts
Ġg iggles
Ġc ack
Ġc oug
Ġc ert
Ġc ivil
Ġl ink
Ġl act
Ġl ocks
Ġl ounge
no ld
no cent
Ġm itt
Ġm ah
Ġm ort
Ġm amas
Ġm uppets
Ġm osquitos
Ġp um
Ġp ishy
Ġp uffy
Ġp ledge
Ġp unkin
Ġp andas
ay aya
ing os
er r
er ase
Ġth orns
Ġth ieves
Ġhe aling
ke fell
om s
om alia
Ġh ump
what dya
or ah
or don
or ial
le nd
le ine
le gs
Ġgo lly
ig ha
Ġin qu
Ġin ject
Ġin nocent
id der
ut hie
ĠI zzy
na kes
st ate
st upid
Ġk iw
oh ydr
ar ly
ar ise
ic ious
ome d
Ġyour sel
Ġr im
Ġr ust
Ġr ap
Ġr hin
Ġr ascal
Ġr ays
Ġr opes
Ġr itual
Ġdon tcha
Ġno ggin
Ġe p
Ġe con
Ġe normous
Ġe clipse
ver ti
ink ie
ink ies
Ġst oop
Ġst ress
Ġst ero
Ġre lie
Ġre sol
ab ud
Ġn uh
ch you
ch ristmas
um an
Ġget t
en sive
Ġfor bid
Ġj er
Ġj agu
itt ers
Ġup town
th ief
Ġpl ung
Ġpl ank
un s
un ting
ot ion
ĠM en
ĠM ur
ĠM ang
ĠM og
ĠM em
ĠM ondale
Ġso ak
ack er
ter ol
my umm
ell ason
Ġab ilities
Ġab racadabra
hi ke
ra gon
us ive
ick s
Ġco yote
ound er
Ġthing ies
ĠC ent
ĠC andy
ĠC od
ĠC his
ĠC onnie
ĠC otton
au cer
did dle
Ġcl im
Ġal ter
ĠB utter
Ġcar p
Ġcar ing
ĠD er
ĠD own
ĠD opey
wo a
qu ake
ĠS s
ĠS and
ĠS op
ĠS ham
ĠS tacy
Ġbl aster
Ġbl amed
os pital
Ġmo lasses
zz le
don ut
bo iled
Ġdr ips
Ġbu dd
ock o
Ġcom ics
put s
ĠA ustralia
Ġgu ards
uff alo
ĠR ee
ĠR ub
ĠR inny
ĠR usty
ĠR ita
ĠR uthie
Ġmean time
Ġbet ta
Ġlo xy
Ġho pper
Ġho bby
lp hia
pe cial
Ġfl ame
Ġsit uations
Ġbr istle
Ġbr idges
Ġfa i
Ġfa ced
les terol
Ġwater s
ĠN ight
ĠT ab
ĠT ouch
ĠT em
ĠP a
ĠP u
ĠP or
ĠP rairie
ĠL y
ĠF alls
Ġsc ent
Ġsho reline
sh r
co aster
pl o
Ġgr in
Ġcr k
ĠG ray
ĠG ene
Ġlea ds
ts y
aur ice
iff any
Ġopen in
Ġbit in
Ġsm ashing
ade lphia
ĠH ome
ĠH ill
ĠH az
ĠH uckle
ĠH ercules
Ġv ibr
ĠE eyore
Ġen chil
Ġreal izes
Ġz ig
Ġz uggle
Ġpig pen
ge bra
Ġnew est
Ġex ists
Ġafter ward
Ġkid ney
Ġpo ll
Ġtea cup
Ġna v
ri but
Ġfeet sies
Ġbreak in
Ġch ina
Ġro le
ĠK erry
ĠK ids
ĠK oolaid
ĠW here
ĠW ords
Ġcare d
Ġapp eared
Ġint ention
Ġeyes ight
Ġmon k
Ġsl ate
sha mpoo
cl ink
cl apping
Ġsqu iggly
for d
for med
Ġact in
Ġtouch y
Ġdi als
Ġsk idder
Ġmust a
Ġrec all
Ġsing er
Ġfound ation
Ġbread s
ci le
turn s
iz mo
Ġcorn meal
Ġfell as
col ored
fr isbee
Ġwind s
sp ank
br ought
cha lk
cha bod
rop hones
Ġun zi
Ġcool ing
Ġcool est
sc ent
sc rambled
ol ite
Ġdis like
ever ly
ian o
Ġcon verti
Ġkn ifes
Ġpr oof
Ġexc itement
Ġgrand son
Ġgrand pas
Ġblow er
Ġpat io
show er
gy m
Ġboo bie
Ġsnow ed
ĠChrist ine
Ġsmell in
oy al
Ġve nom
Ġpeekaboo s
hee ky
Ġfig uring
Ġseat belts
Ġpast els
nice ly
ĠV itamin
ĠV incent
ĠV oldemorte
moo shas
ĠMar ian
Ġper form
Ġstra in
Ġmix es
Ġmix ers
Ġmix ture
Ġdun e
Ġcra m
dr ip
Ġmar garine
Ġlap s
Ġreg ard
Ġreg ret
Ġtooth ie
exc ited
Ġser pen
Ġstar ve
Ġbarn s
Ġsli ps
Ġshort rib
Ġlamb chops
Ġnut ty
choo choo
Ġpea m
bird ies
Ġshut tle
Ġrub bed
Ġcre ate
ract ion
Ġsto pper
Ġad iadi
Ġkey board
gr r
help s
ĠSp eedy
sho t
sho pping
Ġtrip le
Ġpeek y
Mic ah
ugg ing
vers us
Ġcard inal
Ġfill s
Ġlife guard
Ġste ms
Ġstir red
Ġadd ition
Ġenjoy in
ĠMary land
Ġsur gery
gra ham
gra vy
ĠAl ua
ĠAl aska
ĠAl abama
ĠRob inson
ctop i
Ġrac et
Ġrug s
ĠAlex andra
Ġjo gging
ĠZ e
ĠCind a
ĠInd iana
ĠGeor g
fro sted
Ġant ic
pot s
ĠJack aroo
Ġtub es
Ġbright er
ĠLe ia
ler ant
Ġge nder
lay ing
kiss ing
Ġrel ig
rap in
Ġger go
Ġdrum stick
Ġinter pret
Ġsupposed ly
pretend ing
Chr issie
ĠHar old
po pped
ĠBrian na
Ġburp ing
cal f
ĠSc otch
Ġru ining
udd les
Ġload ing
Jo jo
Ġaccident ally
ath on
Ġmistake n
Ġhy per
oc kefell
wee wee
ĠCl ause
Ġwre ath
home made
Ġcrumb les
Ġbean ie
Ġcock le
ĠCo coa
Ġglo be
ĠMac y
Ġtyp ing
fix ing
Ġspr inkle
ĠSha wn
ĠRo lls
Ġca using
Ġstraw s
had ta
ĠDe wey
Ġgor illas
Ġfil ter
ĠBl ack
Ġrhy ming
And re
Ġthick er
Ġpri or
kangaroo s
Ġequ ally
Ġstea med
Ġscre wed
Ġhugg ies
climb ed
Ġref ere
Ġreinde ers
Ġspread er
Ġborrow ing
Ġfright en
Ġfright ening
pic nic
Ġlas so
ĠMad die
Ġrea ches
Ġshout ing
Ġgray ish
Ġdial ing
Ġseason ing
miss ing
Ġspec ies
Ġsticker birds
Ġconst ant
In v
Ġnin ja
Ġfourteen th
Ġsol ids
Ġcontin ued
Ġbah bah
Ġspeed ing
Ġdent al
Ġmer cy
Ġarr ang
Ġthirteen th
Ġcomplain ed
Ġcapital s
yl an
Ġwi red
pupp et
pupp ies
ĠPr udent
Ġver b
Ġver se
Ġblind fold
Ġentertain ed
Me ggie
Ġped iat
pol is
ĠPl ace
toast ed
Ġvariet ies
lob sters
Ġgoof ed
dolp hins
Ġgrad ers
Ġgrad uation
Ġoper a
Ġwast ed
interest ed
Ġdesc ribing
Ġdisappear ing
bull dozer
vr oo
Ġpra irie
ĠPet ey
Ke vin
Ġcarn iv
ĠTr ina
oos ky
Ġtoots ie
Ġcelebr ating
Ġcommun ity
kn ee
je ans
Ġtab by
fill ed
Ġencoura ged
Mad ison
Ġbru ise
squir rels
Carol ine
Ha ppy
upp et
Ġrece ipt
ĠTe letubby
ĠPer cy
ĠEs merelda
ĠBub ba
ĠSab ina
Ed na
oyoy oyoy
Ġmum bling
Ġleap ing
ubub ubub
met al
ĠVas ie
Ġled ge
crunch y
erm obile
Ġrearr ange
Ġappro ach
Ġslam med
buh buh
bumble bee
ĠBeat les
ĠGo liath
Ġenc oun
Ġbooboo s
Ġadjust ed
Ġeduc ational
Ġtransc ribe
Ġroyal ty
sail boat
Ġaim ing
Ġrab ies
ĠCor inna
ĠCait lin
Ġdiv ide
Ġconsider ing
Ġcate gor
Ġcate gory
Ġnovel ty
Ġexcl aimed
crab s
pres so
war ves
Ġaud io
ĠPac ific
Tr ina
Ġtalent ed
Ġhaul ing
Ġspi kes
cont in
ĠSu zy
Ġval ue
comp lete
Ġmor al
Ġplat form
teach ing
Ġabo ard
agl agl
ĠBus ybox
Ġoverwhel med
Ġtwis ting
Ġmedic ines
Ġcockro aches
magnet ic
Ġpsycho logy
Ġmim ic
Ġpomegran ate
Ġraff le
ĠBrend a
ĠHed die
Cap tain
Ġmast ers
Ġapric ot
Miche lle
Ġflatten ed
Ġsatisf ied
Ber nard
Ġest im
Ġdread ful
Ġdung are
ĠEle ctric
Ġperman ent
Ġgah b
Ġkna psack
chim ney
Ġelabor ate
ĠSpl ash
ĠRal ph
ĠPir ate
ograp hic
Ġindivid ual
Ġassign ment
Ken zie
Ġath let
ĠWein ermobile
ĠRoche lle
Ġorangut an
Ġelder ly
Ital ian
hist oric
Ġwes tern
Ġgian ts
Ġstee ple
Ġintim id
Ġbeautif ully
Ġparag raph
Ġextens ion
Ġporpo ise
Ġincor rect
ratul ations
Arth ur
Ġoun ces
Ġaph ids
Ġecon om
Ġstero ids
ĠCent ral
Ġbudd ies
ĠHaz ard
Ġenchil ada
Ġconverti ble
ockefell er
ĠPrudent ial
Ġpediat ric
A sher
B ry
B ub
B ingo
B urt
B uddy
B irthday
B rend
C J
C ou
C orduroy
C lyde
D ave
D ebra
D racula
D abee
F uzzy
F itzie
F amily
G ate
G ert
G ruff
G ran
H ungry
H ead
H uckle
H endrika
K elly
K enny
M ade
N e
N i
N anny
N icole
P eek
P inocchio
P unxsutawney
R oo
R ice
R ain
R ory
R icky
R oland
R achi
S uper
S py
S hannon
S antie
T hat
T here
T ra
T ickle
T itus
T ickles
W illy
W endy
Y aya
b aking
c ony
d ong
d est
d ler
e ographic
f i
f ed
f uss
f ishy
f ishes
f reeze
f amily
g ate
g ile
h ouses
i ah
j ello
k ow
k ward
k lm
l oop
l onely
l ived
m h
m ee
m one
m art
m ous
m ike
m ala
m guh
n ur
n est
o v
o king
o inting
p ing
p ter
p ause
p eak
p hoto
p ilot
r hy
r ides
r ance
r ums
s is
s our
s outh
s kin
s aturday
s ign
s ley
t rot
t ata
t uba
v ar
v ince
w i
w u
w all
w hi
w ings
w addle
y cl
Ġ ounce
Ġt eepee
he m
he se
he ard
ha ed
re k
re co
in no
Ġw icket
Ġs z
Ġs we
Ġs up
Ġs ank
Ġs umm
Ġyou se
Ġyou th
Ġd illy
Ġd uke
Ġd iesel
Ġd warves
Ġb ins
Ġb iz
Ġb ulk
Ġb order
Ġb Um
Ġb usted
Ġb ashful
Ġb icent
an kee
Ġg ent
Ġg az
is ty
is itive
is bury
Ġc it
Ġc ases
oo my
Ġl ens
Ġl assie
no p
no isy
Ġm erc
Ġp es
Ġp ell
Ġp ul
Ġp oom
Ġp ale
ay den
Ġit ches
er oy
Ġf are
Ġf ought
Ġf itting
Ġf und
Ġf use
Ġth ongs
Ġo ce
Ġo ka
es a
es er
ea rer
Ġdo min
Ġhe xagon
Ġto ssed
om a
Ġh ive
Ġh ound
Ġh mm
nd rome
Ġha za
Ġha nabata
what a
what ta
or u
or ting
le m
ig s
ig her
Ġin come
id get
ut her
ut ious
ĠI ng
ĠI saac
na ture
Ġk its
Ġk ukabear
oh ipp
ar re
ar ty
ic in
ic ol
ic ular
ic illin
Ġli ed
at tered
and on
and ed
Ġr if
ir ly
ir cle
ir ls
ad get
Ġdon cha
ck s
Ġe val
all j
all op
Ġst ap
Ġst ye
Ġst roll
Ġre ward
Ġbe neath
Ġbe having
me l
ho sp
Ġcan vas
we ib
al ight
al ala
Ġn ay
Ġn er
Ġn ip
Ġn ude
um in
um sy
Ġfor ms
Ġfor med
Ġj ig
Ġj uniper
th on
im a
do in
do ke
Ġan ger
Ġgon g
ur o
ur ity
un ct
un like
un sw
eat on
Ġout let
Ġout dated
ĠM ilk
ĠM arm
ĠM ooshaboosh
ĠM opsy
Ġso das
ind eed
ind igo
ill iant
Ġgood s
Ġab solute
hi ppity
ra g
ra coon
ce rer
Ġsa m
Ġbo p
Ġbo som
Ġsp inners
hy rax
hy llis
Ġor din
Ġor chestra
am per
Ġhis s
Ġhis self
ick er
be y
be et
be come
il er
il ight
Ġco ff
Ġco de
Ġco ca
ag g
ĠC hat
ĠC her
ĠC ream
ĠC ross
ĠC ami
uck s
ak k
ak ir
Ġcome d
Ġcome re
Ġcl umsy
Ġfr illy
Ġal oud
Ġal gebra
ĠB and
ĠB end
ĠB umble
ĠB urt
ĠB irthday
ĠB umpa
ĠB etsy
ĠB everly
ĠD C
ĠD up
ĠD ump
ĠD erek
Ġne ut
Ġoff ices
Ġpre historic
our i
qu een
ĠS un
ĠS ala
ĠS omalia
Ġbl ea
Ġwhere as
to ilet
Ġar ri
ul ty
gg o
gg le
gg les
put er
ĠA venue
li pper
Ġgu ava
ĠR af
ĠR ockefeller
Ġman ual
ĠJ ungle
ump h
Ġhand ing
Ġturn ip
Ġche ddar
el bow
Ġbr r
Ġbr on
go go
ĠN ut
ĠN ational
ĠN adine
ĠN ickelodeon
ĠT hat
ĠT ot
ĠT ammy
ĠT oto
ĠP hyllis
ĠL yle
ĠL ipton
ĠL eroy
Ġsha ved
Ġcha riot
ĠF ig
ĠF ra
ĠF irst
ĠF ire
ĠF ourth
Ġsc ree
Ġsc ars
sh ishi
ĠChi ps
raw r
eas ant
Ġgr ant
Ġgr its
Ġgr asp
not ice
Ġcr umble
Ġcr inkle
ost er
ĠG oo
ĠG en
ĠG uate
ĠG obot
ĠG igi
ĠG izmo
pen ce
Ġpro duce
Ġmin er
Ġwr iter
Ġse wn
Ġwork book
Ġwork bench
Ġlea ped
Ġbed dy
Ġsw arm
ĠH ans
Ġv ice
Ġv ane
ĠE va
red ibly
Ġwait s
ĠMark s
ge ant
Ġnew er
Ġex otic
Ġfoot steps
Ġpo ac
Ġpo ppin
Ġthought ful
Ġtea ms
Ġna di
ri k
Ġthrow ed
Ġwh ites
Ġch or
Ġch ill
Ġch unky
ĠK enn
ĠK eaton
ĠW eb
Ġsl o
Ġsl ither
Ġsl oppy
Ġbea gle
Ġsu cked
Ġde w
Ġlight bul
Ġdogg ys
Ġkiss ies
Ġgl itter
Ġgl oomy
sha re
sha kes
Ġcho lesterol
cl ack
Ġsqu ishing
Ġact or
Ġrun ner
Ġdi pped
Ġdi pping
Ġsk ys
head s
pper ware
Ġfire cracker
Ġbuild ers
Ġpen tagon
ond a
ond e
ub bard
oof oo
Ġmat s
Ġmat ure
ci a
ci pl
ew ish
ant has
ane ously
iz ation
Ġid eal
know n
Ġhop es
Ġchan ces
Ġbag gy
Ġbag gage
Ġsec on
Ġsec urity
aff od
ces ter
Ġbel ch
Ġdri ppy
rop ortion
und y
Ġbee ps
Ġun icycle
Ġun stuck
Ġpain ters
ort ug
Ġem p
Ġcount y
Ġcatch in
sc are
Ġdis se
Ġdis cipl
Ġlearn in
ment ine
ĠBear s
ya wn
Ġtre ated
Ġsix ties
Ġcon vince
Ġpol it
Ġgrow ls
ph on
ĠFr uit
Ġpr un
Ġmus cular
Ġexc han
mme d
gu ah
Ġbar ge
Ġaw kward
la wn
Ġgra vel
aa aa
mon arch
every day
Ġsn eezes
Ġwarm ly
Ġlay ed
Ġlay ered
Ġsnow ball
hur ra
hur ts
Ġpump ed
ming ham
itch y
Ġmic rophones
Ġcur se
ĠU nder
Ġpaint brush
Ġshar in
mommy s
sent ially
aren ce
fl op
Ġrem ain
Ġscr ipt
ĠSunday s
Ġfig ur
Ġmusic ian
ord ion
Ġim age
Ġty in
Ġpour s
Ġpour in
Ġspl its
ĠV er
Ġteddy bear
Ġstrong ly
ĠMar x
ĠMar ion
ĠMar co
ĠMar sha
og ical
em lock
Ġrecord ings
Ġremind ing
Ġmail truck
cr ied
listen ing
Ġdump truck
Ġtooth pick
tr ust
Ġmotor bike
Ġter rapin
Ġboom p
Ġpet ted
Ġsli ver
Ġsli me
Ġstraight ened
Ġdad da
cept ion
Ġsquir m
ĠJen na
ĠJen essa
cho pped
cho pping
de f
de cor
Ġbelong ed
jump ed
Ġri ot
Ġda wn
Ġta iled
Ġpool s
aj o
Ġstring y
gr rr
ĠSp aghetti
Ġfan atic
sl urp
sl iding
Ġpeek in
ugg y
Ġvo cal
Ġstor age
Ġwo a
Ġcircus es
Ġmet als
under stand
under water
Ġcont ext
Ġburn in
Ġbeat in
Ġadd ict
Ġpack s
Ġcro cus
ding alingaling
bee f
Ġgentle men
app a
ĠY eah
ĠY uli
ĠY ogi
set tle
Ġhus k
Ġfresh ly
ham ster
stay s
Ġrac quet
Ġhum id
gen er
gen ic
Mar cus
Ġbur ps
Ġlick s
has n
Ġea h
Ġwag ons
Ġhorn ed
Ġbuzz er
Ġyog a
ĊĊĊĊĊĊĊĊ ĊĊĊĊĊ
gi ves
Ġtear in
Ġroof s
Ġacc ording
Ġacc ordion
Ġes presso
Ġbright ly
ĠLe kker
Ġtray s
enn ial
kiss ie
Ġrel atives
ĠKat h
Ġcast les
Ġpartic ipate
Ġclear ing
Ġpoop ing
Ġflo pping
Ġflo ppity
Ġwinter time
ĠMc gregor
mom mies
Ġbal cony
abrie ll
ik iki
Ġconf idence
ĠSc amp
Ġdep end
Pat ty
Pat sy
Ġdar ing
ĠGr iff
draw er
Br unsw
Ġbi ology
Ġposs ibility
ĠAr te
Ġbend y
fall s
ĠHe man
Ġqueen s
Bob bie
Ġass umed
ĠPig s
bump ed
ĠGre y
Ġca uses
Ġlock er
Ġstud ied
sleep in
Carl os
Qu een
Ġstret ches
Ġscoop ed
Ġdiffic ulty
Ġma the
Ġtrail or
Ġtrail ers
ĠFran kenstein
Ġpurp oses
ĠPo pple
Ġsidewalk s
Ġhippopotamus es
Ġconvers ations
Ġmem orized
Ġunif orms
Ġwra ps
Ġswan s
Ġsub st
ĠHan sel
Ġinc redibly
ĊĠĠ ĠĠĠĠ
ĠQu idd
ĠPittsburg hese
Ġtut us
Kat y
pain ts
gar lic
Ġimp olite
ĠWilliam s
Ġfascin ation
ĠMir anda
Al issa
Ġroar ing
Ġtem ple
Ġspeed er
form ers
dan cin
Ġmer maid
Be cca
mus cles
mus ical
Ġcomplain s
Ġsaf es
ĠPr ice
ĠPr ince
Ġtend ency
Ġhic cup
Gre g
du cing
Ġblind s
Ġtran sit
Ġhan kie
Ġrose y
Ġdiscus sed
Ġmunch ing
Ġsplat ter
swing ing
ĠMoosh boosh
rat tles
De cember
Ġhabit s
inker bell
Ġgrad es
Ġdet ect
Ġargu ments
Ġident ical
Ġphys ically
Ġlim ited
shar ks
spin ach
Ġfra gile
Ġadvert ising
Ġgravit ates
Ġappreci ates
Ġcent ral
Ġtoss es
ĠSher ry
Ġdecis ions
ĠHow ie
mend ous
Ġimit ating
Ġobs erve
Ġobs erved
Ġsile nce
Ġdeck er
Ġindepend ently
duh duh
grape fruit
Mad die
Mad eline
Ġbou nty
squir relie
Ġstat ic
pepper oni
Ch ucky
Ġdrown ed
Ġvel vet
Gram py
Ġrece ive
Ġcabin ets
Frank lin
Ġmanage ment
ĠKenny wood
Ġdisp roportion
Ġprincip le
Ġmum mies
ĠRon ny
Ġadvertise ments
Ġwand ered
Ġkaboom ps
chi h
chch chch
Ġunderarm s
Ġterr ified
Ġkneel ing
lantern s
Ġknight s
Ġmember s
ĠPen elope
tooth brush
Ġdistur bing
Ġtadpo le
Ġeduc ation
Ġtransc ribing
All i
Ġinvent ed
Ġcoup ons
Ġteaspoon s
Ġrespons ible
suck s
Ġcoor din
clos ing
clos er
Ġunlo ad
grow ing
halle halle
Ġinj ury
ĠMag ic
ĠBra chi
Ġdelight ful
Ġaffect ion
Go ats
Sher ry
lou der
ĠSal isbury
Ġscrap ing
Ġsharpen er
Te letubby
Ġsuccess ful
chil i
ĠEast mont
Ġcompet ition
Ġfisher man
Ġvolcan o
Ru dolf
poop ie
spill ed
Ġreck on
Ġreck less
ĠCro codile
ĠStep hen
Ġratt ling
Ker mit
Kenn ipoo
Sweet heart
We ist
ĠRain bow
ĠHoo ey
laugh s
seed s
Ġcru ise
Ġcompar ison
Ġdelay ed
Ġbind ing
Ġpis tol
ĠRand all
pops icle
Fro sty
runn er
Ġspong es
ĠPic achu
ĠLiv ie
ĠEskim o
Ġdefin ition
Ġelement ary
eyeb rows
sneak ers
Ġinflu ence
Ang ela
Popp ins
wal rus
reg ular
Ġly in
Ġcarb ohydr
Ġprepar ation
Ġcrump led
ĠEye ore
char ge
Ġmachin ery
Ġcontra st
Ġrelations hip
Ġinterf ere
Ġvideot ape
Ġhyster ical
Ġfert ilizer
ĠDig by
ĠToo th
ĠVolkswag en
Eng land
Mex ico
Spr ite
Ġlact ose
Ġinqu isitive
Ġinject ion
Ġkiw is
Ġrelie f
ĠMang lor
Ġhopper oo
Ġracet rack
Ġdungare es
Gert ie
kow k
klm nop
haed ra
reco gn
inno chio
Ġswe pt
Ġbiz arre
Ġbicent ennial
Ġpul se
ohipp us
Ġrif le
weib ack
ĠMarm o
Ġordin ary
ĠGuate mala
Ġpoac hers
Brunsw ick
ĠQuidd itch
A na
A ri
A stra
A bra
A venue
B C
C han
C hic
C raig
D ya
D isney
E mmitt
E eyore
F ri
F iddler
F ox
G er
G oogey
H el
H alloween
H ulk
H umm
H ayley
I nt
I sland
K it
K itty
K imber
K ellogg
L M
L o
L ook
L uc
L ady
L ondon
M er
M ill
M aybe
N ikki
O re
P r
P oo
P uddy
P olly
P aula
R in
R os
R onnie
S n
S im
S unny
S pot
S aint
S ofia
T o
T weet
T ri
T eddy
T ramp
T oto
T onya
V incent
W iggles
W heels
Y ankee
Z achary
a ut
b ill
b il
b up
b unch
b oring
c um
c eed
c ity
c Ã©
c ousin
d et
d ere
d ang
d ire
d ream
d ling
d oodood
e z
e es
f u
f oo
f act
f ishing
f essor
g at
g ame
g rew
h up
h orns
i as
i us
i pped
i pping
j ay
j ohn
j ungle
j klmnop
k ite
k ah
l oose
l ines
m b
m u
m um
m op
m ittens
m ule
n ies
n urse
n anana
n stein
o lives
o val
p ool
p hic
p age
p ail
r ass
s ion
s ky
t ink
t oman
t ram
t urtles
u ver
u art
u ating
v op
v ating
w in
w ad
w ie
w aw
w awawa
x ed
y ore
Ġt ic
Ġt adah
Ġt ours
he as
he licopter
ha vin
Ġa mm
Ġa ids
re m
re ne
in v
in in
in ate
Ġw is
Ġw ad
Ġw izard
Ġs ab
it che
on se
on ia
on io
Ġd art
Ġd ine
Ġd ame
Ġd oot
Ġd andy
Ġd eta
Ġd uper
Ġd ickory
Ġd urin
Ġb ers
Ġb ond
an u
an et
Ġg ab
Ġg ap
is ies
is ance
is ky
Ġc ue
Ġc auliflower
Ġl int
Ġl iner
no rth
Ġm es
Ġm ir
Ġm ack
Ġm use
Ġp sh
Ġp als
Ġp elican
ay ah
ing ton
er ad
Ġf ian
Ġf ram
Ġf itted
Ġth orn
es y
ea polis
et t
et urn
et ri
Ġhe ight
Ġhe al
Ġto ken
Ġh ula
Ġh utch
Ġh ulks
se nce
se veral
ve re
le v
le na
ig e
ig ley
Ġin fect
Ġin fan
id o
ut z
ĠI r
ĠI an
ĠI vory
ook lee
ee ee
na t
na ils
st raw
st amp
st orm
st ethoscope
ht ank
Ġu my
Ġu dd
ic ature
ow ing
ow ers
Ġli fter
Ġli ma
Ġli berty
at on
at ito
kay la
and oah
Ġr k
Ġr oug
Ġr ank
ir rel
ad u
ad ay
ad uct
out ons
as a
as paragus
that za
all el
Ġst aff
Ġre ver
Ġre semble
Ġbe ne
Ġbe hin
Ġbe gging
ho en
ho gs
ab ad
ab uh
ab ah
ab ol
ab ility
al as
al ape
Ġn erves
ie g
ch oose
ed e
Ġj ing
itt les
Ġwas hers
th under
do la
Ġpl ea
Ġpl ot
Ġpl ump
Ġpl umber
Ġan ni
Ġnot ices
eat tle
Ġout line
Ġall eg
ĠM T
ĠM ick
ĠM eek
ĠM aster
ĠM emee
ĠM orty
ĠM indy
Ġso le
pp al
pp ings
Ġy ack
Ġy ank
ta c
Ġgood y
Ġgood ie
nt ha
ro bin
ro space
ell er
Ġab andon
can s
hi jklmnop
ra ise
hen andoah
Ġdown y
Ġdown hill
let ed
Ġbo ink
Ġbo ingo
Ġsp inner
Ġsp iny
Ġsp its
Ġsp igot
Ġsp lend
be cca
Ġmy th
Ġover flow
ag h
ag ugug
she lls
ĠC all
ĠC ool
ĠC hur
ĠC enter
ĠC order
ĠC aden
ĠC ayden
did i
Ġcl ar
Ġcl ump
Ġcl eared
Ġti katika
ĠB u
ĠB x
ĠB art
ĠB ull
ĠB ucky
ĠB anthas
Ġcar go
Ġcar ts
ap hone
ĠD ro
ĠD over
ĠD anger
ĠD isco
ĠD alm
ĠD uncan
ĠD ylan
ĠS a
ĠS af
ĠS idney
Ġbl u
Ġbl ades
Ġhas sle
Ġsh ou
os a
os ing
Ġtr out
Ġtr ading
Ġtr oopers
Ġtr aded
Ġwor ship
bo bby
Ġdr ift
Ġdr inked
Ġbu ds
Ġneed ing
ĠA ut
ĠA llie
ĠA shley
Ġgu ides
ĠR C
ĠR a
ĠR uss
ĠR achi
ĠR eturn
ĠJ a
ĠJ ul
ĠJ aw
ĠJ acy
Ġlo vin
Ġlo vable
Ġtalk er
Ġfl ing
Ġfl ake
Ġfl ashes
Ġbr ist
Ġbr andy
Ġbr illiant
Ġfa me
Ġfa ire
Ġfa iled
Ġwill y
Ġpu d
orn er
ĠN ed
ĠN est
ĠN ik
ĠT here
ĠT en
ĠT ick
ĠT hing
ĠT isha
ĠT weed
ĠT urtles
ĠT iggers
ĠT owers
ĠP ill
ĠP art
ĠP uff
ĠP unch
ĠP lymouth
ĠP hoen
ĠL u
ĠL ala
ĠL ibby
ĠL oyal
Ġcha ins
ĠF reeze
ĠF akir
Ġsc outs
Ġsc urry
Ġsc aly
Ġsc attered
Ġsho ps
of stra
ist ent
sh out
Ġgre et
Ġdoll house
eas es
Ġgr r
Ġgr itty
Ġgr unting
ug ab
Ġle ans
pen s
ne h
ble h
Ġmilk ie
Ġmilk ers
Ġpick et
ĠH ea
ĠH at
ĠH en
ĠH ear
ĠH end
ĠH igh
ĠH enny
ĠH etty
ĠH ofstra
Ġv i
Ġv ict
ĠE ls
ĠE ileen
ful s
ass ium
Ġpi er
bye byes
Ġhat ching
Ġdiffere nces
Ġstart led
Ġbre w
est ruct
Ġdoor way
ous y
Ġpo kes
Ġpo llen
Ġna pping
Ġna vel
Ġna ppies
ma ids
Ġfun ction
Ġbreak fas
Ġeven ings
Ġch utes
Ġsor cerer
ĠK elly
ĠK urt
ĠK ean
ĠK arl
ĠW r
ĠW ald
ĠW ork
Ġear ned
Ġcare er
Ġint on
Ġint est
Ġint end
Ġegg y
Ġegg ie
Ġtap taptap
Ġsl ug
Ġsl ob
Ġde b
Ġde i
Ġde ers
Ġde gree
bit s
Ġcut ters
ooh ooh
Ġtra ps
man ce
Ġgl ug
sha pe
cl early
cl usion
cl aus
Ġfix ated
Ġsqu eezes
Ġsqu eaked
Ġfro sty
Ġfro sted
Ġbad ges
Ġsound ing
Ġsk is
Ġsk ull
Ġsk inned
ank y
Ġstr addle
Ġpen icillin
sit s
bl ink
bl up
bl ings
Ġcold s
ib bles
Ġsand al
Ġrock ets
Ġam using
Ġmoon light
Ġfell er
Ġpar sley
Ġpar allel
baby doll
Ġteet he
Ġteet hers
sp eed
sp ark
sp iders
Ġlunch ie
br and
br rr
Ġwhe w
Ġbow el
cha rac
Ġgreat ly
Ġhit ch
Ġun cles
Ġun pack
Ġun wind
Ġun iversit
Ġun iverse
boo s
Ġshoe maker
Ġtur bo
uhuh uh
sc rape
ich ord
Ġdis ag
ya hya
te ous
Ġsix pence
Ġcon se
Ġcon do
Ġcon ta
Ġmeat loaf
Ġset up
eb a
ĠChr issie
Ġsun suit
ph ony
ph ones
ps ichord
Ġrest ed
int ro
Ġfo g
Ġmus k
Ġexc ess
Ġexc av
ĠO www
Ġgrand daught
Ġpat rol
Ġcrack s
mon ica
Ġsn eaked
Ġboo gie
Ġboo by
Ġten ts
Ġpur ses
Ġbutton ing
Ġac res
Ġneat o
ĠMic rospace
Bird s
Ġcheck book
Ġrem ark
play s
Ġmagn ifying
Ġquick er
io ds
Ġim ages
Ġdear ie
Ġpin ching
Ġcam ps
ĠV iew
Ġmoo sh
four th
Ġshall ow
Ġgrab bin
vis it
Ġper ked
Ġper iods
Ġdra matic
Ġmind s
Ġmind in
Ġtoes ies
Ġdes ire
Ġdes per
Ġstra ining
Ġpoint in
cr umb
Ġcra z
Ġcra mp
Ġsmart ie
woof woof
ĠJo dy
Ġhelm ets
Ġcour teous
Ġmar in
Ġmar aca
ĠSt op
Ġaf ro
Ġreg al
Ġreg ener
Ġlob by
Ġstar vin
Ġsweat ing
tr ack
tr uly
vel and
ram i
Ġplan ter
Ġplan ting
kind ergarten
green beans
ze es
ĠCar ter
Ġcomp artment
Ġcomp leted
Ġsquir my
Ġsquir ming
Ġtw eez
Ġworld s
Ġfre aked
Ġscratch in
Ġnut tin
bring ing
tick ly
Ġshut ting
old er
pat s
Ġrub bish
Ġta pped
Ġcre ation
Ġcre pt
ĠSp rite
Ġdust s
sho vel
Ġrid dles
Ġpeek ie
Ġob no
Ġfree way
ĠMiss ouri
vers ary
Ġstor ys
Ġwo ken
cow boys
Ġcrawl er
Ġcont rolled
Ġburn ers
Ġpack et
ami ah
app in
ĠAl an
Ġsi blings
Ġpoin ter
Ġer up
ric ane
Ġtri al
Ġjo ker
Ġjo ined
ĠCind ere
Mar gie
Ġbur row
Ġdeal ing
knock ing
ĠInd y
Ġtown s
ĠMa thew
lo ading
fro sting
ĊĊĊĊĊĊĊĊ ĊĊĊĊĊĊ
gi ant
Ġcand id
pr oud
Ġbother in
bed time
ided own
Ġmeow ing
Ġscream s
Ġhar ness
Ġoctopus es
yuck o
Ġrel ish
Ġrel ease
Ġthumb s
Ġpract ical
dad da
dad adad
sm oking
Ġdrum ming
Ġrubber y
Ġbull ies
Ġcob bler
Ġfold s
ĠHar ley
po key
Ġsle ds
ĠShe ep
Ġtool belt
Ġzoom ing
Ġconf use
Ġrip s
Fr illy
Ġrep eating
sna pped
Ġmac aronis
Ġseamstress es
Ġjam mie
Ġmist ress
Ġupset ting
Ġlangu ages
Ġbabys itting
Ġsurf ers
af raid
Ġspray s
ĠGr umpy
Ġcartoon ish
sal ted
Ġblood y
bro se
Ġflav oring
ĠCl arence
Ġsy ll
Ġsy ndrome
ĠCh utes
lad ys
must ard
ĠAr k
ĠAr iel
ĠWill em
ron ne
Ġbend s
Ġdisapp ointing
Ġpad dling
ĠWood stock
Ġsecret ary
Ġprin ting
rain coat
goo gly
Ġtor ture
eez in
adad adadada
rock rock
fix ed
run s
Ġaqu ari
ĠSha lom
Ġcrunch ing
Ġca fe
Ġca utious
Ġlock ing
ĠDe lia
Ġram s
inst ein
Ġoffic ers
Ġoffic ially
Ġgoo gly
sock ies
ĠBer nice
Ġed it
Ġma x
Ġma iled
Ġequ ations
Ġsniff ed
Ġbun ches
Ġstea ming
ĠEd wards
ĠMay er
inde er
ĠPo key
Ġcrust s
Ġtu xed
Ġwal nut
Ġwing ed
eg as
eg al
Ġni pples
jack s
Ġres ist
guh guh
Ġvio lets
Ġsub t
snow ing
Ġrode o
Ġinc re
Ġpeacock s
dodo do
Ġconversation al
Ġdot ted
Ġpurpose ful
Ġpatient ly
ĠQu inny
Ġbatht ime
Ġspark le
Ġspark ling
Ġcolle ges
pea ce
Ġins ane
Ġins ides
ĠRe na
Ġig uana
gar age
Ġknot s
Ġstre ak
Ġprefer red
Ġsol ution
part icular
Ġunscrew ing
ĠFl ower
cur tain
Ġwrist watch
Ġarr ive
lady bugs
mus cle
Ġresp onds
Ġresp onse
sand box
Ġrose mary
Ġsteam roller
Ġthreat ening
Ġped dler
Ġconcentr ated
Ġrect angles
Ġmechan ism
ĠSqu irrel
Ġrattles nakes
Ġtax is
Nor a
Nor th
Ġcheerlead ing
De cky
Ġmow in
apan ese
Ġoppos ites
nom nom
ĠFred die
Ġgrad uate
Will ie
nap kins
neat o
Ġtat a
Ġstirr in
alo shes
Ġscoo ting
yumyum yum
Ġcommercial s
Ke ith
asha yla
ĠShar k
Ġrod ents
Isab el
Sp ike
Wood pecker
mac donald
Ġorgan ize
Ġintro ducing
clown s
Ġbunk house
ĠAm brose
Ġdev ice
salt ine
bal oney
quiet ly
Ġsuggest ed
cre ature
Ġtwer ps
Ġfir s
Ġrent ed
ĠWal mart
Ġobs ession
Fl ags
Ġspoonful s
ĠTur key
ĠPep e
Carol ina
ĠMam aw
ĠMam ama
ĠMex ican
Ġsurfboard ing
surpr ised
Ġpup il
Ġpropell ers
aunt ie
hoe be
ĠBub a
ĠSn eezy
Mal ia
ohoh o
unx at
Ġtrans l
Ġtrans mitter
ĠTar ci
numnum numnum
Ed ward
cul iar
Ġflight s
ĠPut nam
Fran kenstein
Ġais les
Ġrequ est
Ġanno yed
ĠJon ah
ĠPhil adelphia
ĠLind sey
Pot ter
kelet or
ĠNi Ã±o
Amy e
Han sel
No el
cor rect
hh h
Ġtant rums
Ġbilly goats
Ġmass age
Ġrepresent ation
ĠPopp a
Ġcommunic ation
dress ing
giggle giggle
Ġmember ship
ĠCr itter
Ġchees y
ĠEli jah
Ġembar rass
ĠMcdonald s
Ġstereoty pe
Ġsug ary
ĠBeat le
Ġneg atives
Ġtrad ition
Ġwarn ed
Ġling u
Ġstair way
ĠMade leine
ĠFitt i
parrot s
Ġcudd ling
Ġiss ues
Ġnib bles
ĠDenn ison
Ġexcl usive
Jeff ery
pres chool
Ġaud ience
Ġpout ing
ĠDu chess
Ġpred ict
Ġgrind ing
Ġimpress ion
Ġteena gers
dodododo do
Ġdelight ed
nam ite
Ġspi ky
ĠCol by
ĠSl inky
Ġflam ingos
ĠWonder land
Ġslurp ing
Ġblend s
pocket book
Amer ican
ser iously
Ġnu isance
Ġsunburn ed
Ġpersonal ities
cran es
cran berry
Pet ey
bom bom
mirror s
pher d
Ġcul ture
Ġanc est
Ġabsor b
Ġhandkerchief s
Jon athan
fair ly
alal ala
ĠMinn esota
ĠMinn eapolis
Ġoverwhel ming
Ġcriss cross
ĠOlymp ics
Ġtwis ty
Ġcockro ach
slipper y
Ġamphib ians
Ġfail ure
Ġslobber y
ĠStore man
Ġhunts man
Ġtechnic al
Scot t
Zo ey
cons cious
ĠdÉ ĺ
stom achache
exerc ise
Ġprim ary
Ġadm ire
ĠBron co
Jess ica
luck ily
rad io
Ġtug boat
Ġmil itary
Ġnoun s
Ġanim ated
ĠFish head
Step hen
Bab ar
Col umbus
Mam ma
pract ice
ĠMunch ie
Ġaggrav ated
Ġqueek ie
Ġseg ment
ĠZeven ber
Ġhypnot ized
Per ro
Sh irley
cand les
Ġthir tieth
ppiet oe
ĠFair ling
ĠWed n
Ġvisual ize
Ġfreck les
Ġquestionna ire
Ġcalcul ator
Ġerrand s
Ġceil ings
lasag na
Ġexplod ed
Ġlam by
Ġune ven
ĠDalmat ian
Ġscen es
Ġsculp tures
Ġtrape ze
Ġraind rops
Alad in
Way ne
nang nang
tub bie
Ġcoug hed
Ġcert ific
Ġmort ar
Ġep is
abud abud
Ġjagu ar
ĠMem orial
ĠCotton tail
ĠPu er
Ġserpen t
Ġshortrib s
ĠZe ke
ĠGeorg ia
Ġrelig ious
Ġcategor ies
Ġathlet ic
Gran ma
Ne il
Ġpell ets
Ġoce ans
hosp ital
ĠMilk man
akk or
ĠBend os
Ġneut ral
ortug al
Ġfigur ines
recogn ize
Abra ham
Sim on
Tri pp
Ġdeta iled
Ġbers erk
Ġmuse ums
erad ish
Ġfian cÃ©
Ġfram es
Ġumy um
Ġudd ers
Ġanni versary
Ġalleg iance
ĠChur ch
ĠSaf ari
ĠJaw as
ĠJacy ntha
ĠPhoen ix
estruct ible
charac ter
Ġuniversit ies
Ġtweez ers
Ġaquari ums
particular ly
A va
A oife
B ack
B oston
C a
C s
C ha
C ur
C am
C ole
C rispies
C laire
D u
D art
D enn
D omin
E s
F ebruary
G ray
G iles
H i
H ele
H orton
I chabod
L es
L or
L ass
L iz
L ia
L obster
M ee
M un
M ass
M inn
M ichigan
N yla
O kay
P ee
P eekababy
P ittsburg
R inny
R achael
S u
S car
S ears
S pan
S pencer
S imple
T er
T ur
T hey
T ex
T inky
T upty
V is
V ery
W here
W anda
W ilbur
W olf
Y od
a o
a el
a haha
a hem
b v
b z
b un
b am
b tha
b wah
b iscuit
b bly
c hen
c ong
c rown
c ord
c idence
c uffed
d oop
d ue
d ist
d ia
e c
e i
e ys
e lier
f ie
f right
f il
f ers
f ait
f airy
f urry
f amil
g ay
g what
g ys
g lor
g arden
g onk
g iddy
g rows
g ja
g eable
g allop
h nic
h igher
i han
i ber
i kes
i ary
k anga
k ettle
l ab
l ace
l ied
l ophone
m my
m ate
m ist
m ask
m ol
m ult
m lin
m uth
o ls
o cean
o ats
p j
p ah
p ac
p unch
p rot
p eter
p icked
p oopsie
p ipes
p iano
r ung
r ary
r oup
r arr
r asp
s ight
s ink
s up
s ung
s akes
s ile
s esame
s auce
t uck
t imes
u v
v ous
v ation
v rr
w est
w ily
w aa
w ibble
w oosh
x ter
y ow
z ig
z one
z ers
z oop
É Ľ
Ġ ic
Ġ ves
Ġ ip
Ġt ater
Ġt shirt
Ġt angles
Ġt umbles
he ro
he ars
he lm
ou cho
Ġa er
Ġa vers
you s
re frigerator
re indeer
in als
in cluding
Ġw u
Ġw ading
Ġs wo
Ġs ult
hat s
it i
it ish
it zy
it zer
on o
on ie
on ion
Ġd ink
Ġd ain
Ġd oody
Ġd imples
Ġb oops
Ġb ibble
an ha
an ing
an ced
Ġg uh
Ġg ul
Ġg aga
Ġg unky
Ġg ambler
Ġg aloshes
is k
Ġc ore
Ġc ables
ll ama
Ġl ug
Ġl aser
Ġl oos
Ġl ousy
Ġm eter
Ġm angle
Ġm ime
Ġm aids
Ġm esse
Ġp om
Ġp ry
Ġp est
Ġp ity
Ġp ookie
Ġp oopsie
Ġp athe
ay e
er an
er oo
er fe
Ġf ud
Ġf oun
Ġf aker
Ġf iction
Ġth irt
Ġo k
Ġo v
Ġo wow
Ġo ctopi
es is
es cope
et rical
Ġhe a
Ġhe ated
ke le
ke rel
Ġh unny
Ġh oops
Ġh ints
Ġh umps
nd or
nd elier
Ġha v
Ġha z
Ġha re
Ġha gg
se ll
se ls
what ch
or ize
ig on
ig no
ig hing
ig ning
Ġin cl
Ġin cluding
id id
ut auqua
ĠI m
na d
na r
st o
st air
st rap
st rom
Ġk ay
Ġk ook
Ġk ang
Ġk ale
Ġk anga
now s
ar g
ar o
ar ing
ar se
ar ct
ar gh
Ġu kele
ic ans
Ġli k
Ġli lies
Ġwhat so
ight year
yea rs
Ġr ue
Ġr iddle
ir it
ad ee
ad um
ad der
as so
as min
Ġst up
Ġre in
Ġre lev
Ġme dd
Ġcan ce
Ġcan cel
ab ble
ab udd
al in
al oo
Ġthere fore
Ġn erve
Ġn ickle
ch ow
ch uck
ch rome
Ġget chyou
en en
en ta
en us
en ess
en ium
en ses
Ġfor ces
Ġj ive
Ġj ist
Ġj ac
Ġj alape
Ġwas hy
th us
do ts
do cus
Ġan h
Ġput t
Ġgon dola
ur s
ur al
un un
un ia
un believable
ot on
if ul
Ġout ing
Ġsome m
Ġall ergy
ĠM I
ĠM ast
ĠM ock
ĠM ars
ĠM idge
ĠM ered
ĠM ooshabooshas
ĠM itche
ĠM ashayla
Ġso il
ind ers
Ġy er
Ġy ap
Ġy onder
ta pping
Ġgood er
nt on
ro ses
ell ed
hi ps
ra zy
Ġdown ward
ce ive
us sian
Ġsa fer
Ġbut ts
Ġsp am
Ġsp ool
op a
op o
hy ena
Ġor ders
il ah
il ary
Ġco d
Ġover all
ep ad
Ġthing y
ĠC B
ĠC re
ĠC ost
ĠC ars
ĠC era
ĠC lay
ĠC ricket
ĠC uddles
ĠC razy
ast le
Ġcl ut
Ġcl ause
Ġcl ings
Ġcl amp
Ġfr on
Ġhow ling
ĠB M
ĠB all
ĠB each
ĠB elle
ĠB uffalo
ap ie
ĠD iddle
ĠD eath
ĠD usty
ĠD ino
alk ie
wo bbly
see med
eed eed
qu estion
ĠS ee
ĠS up
ĠS ull
ĠS eal
ĠS oup
ĠS mo
ĠS olo
ĠS nake
ĠS ox
ĠS ofia
ĠS eattle
ĠS keletor
Ġwho les
Ġbl ot
Ġbl oop
Ġbl oss
Ġsh ush
Ġsh ines
ct ure
os cope
Ġmo ck
zz er
zz ly
mm mm
mm wah
mm etrical
ers aucer
don ia
ny ah
to ises
Ġar ches
Ġar ray
ool igan
get cha
Ġbu ggie
ang el
ang ered
ang rape
Ġcom bo
Ġcom ple
ĠA u
ĠA ld
ĠA lf
ĠA gn
ĠA mes
ĠA bu
ĠA drian
ĠR oom
ĠR ags
ĠR itz
ĠR omper
ĠR angy
ĠR oosky
Ġmean est
ĠJ ust
ĠJ ared
ĠJ aden
Ġho bble
lp h
el ess
een ie
Ġbr ittle
Ġbr ass
Ġfa cial
Ġpe culiar
Ġpu bl
Ġhome ly
ue h
Ġfood ies
ĠN av
say in
ĠT u
ĠT ee
ĠT at
ĠT ed
ĠT ake
ĠT iny
ĠT winkle
ĠT iffany
ĠP ia
ĠP aste
ĠP ickles
ĠP hill
ĠP uffs
ĠP umba
ĠP appa
ĠP ortugal
ĠL ab
ĠL one
ĠL una
ĠL oni
ĠL adders
ĠL uther
Ġlot tery
Ġcha mp
ĠF ind
Ġsc ram
ix on
Ġsho est
Ġsho pper
sh k
sh orts
Ġqu al
ard ust
Ġday light
ĠChi p
pl oy
Ġgr um
Ġgr ump
Ġgr umble
Ġcr um
Ġcr ushed
ost rophe
ĠG ill
ĠG ob
ĠG ib
ĠG len
ĠG inger
ĠG eographic
Ġle ge
Ġle cture
Ġju icie
Ġpro ced
Ġse mi
Ġlea k
Ġlea shes
Ġinto lerant
Ġhead quarter
Ġsw oosh
Ġsw irl
Ġshow ers
iff le
Ġbit ch
Ġbit atin
Ġsm ud
Ġsm arty
ĠH u
ĠH igg
ĠH etti
ĠH ayley
ĠH ilary
Ġv ain
Ġv Ã¡
Ġv icious
ĠE rik
ass ic
Ġbat tered
ip ation
Ġz om
Ġz at
Ġz inn
Ġpig gys
Ġhat chet
Ġhur ray
Ġhur rah
Ġhur ricane
ken muth
Ġpo ems
ac qu
ac orns
Ġna ck
Ġna pper
ri ers
ri age
ri zzly
Ġpart ners
Ġthrow er
Ġnose d
aw na
aw ake
ĠRoss ie
Ġthan ked
Ġch ub
Ġch innie
Ġsor ting
Ġro ds
ĠK itten
ĠK oosh
ĠK yle
ĠK obi
ĠK ellogg
ĠW or
ĠW oman
ĠW heat
Ġear l
Ġear ring
Ġear liest
ama zing
Ġegg ies
Ġsl op
Ġbea u
Ġbea vers
Ġsu f
Ġsu bs
Ġde fro
Ġde bt
Ġlight ly
Ġcut er
Ġtra ils
Ġtra uma
Ġdogg one
man ship
cl oud
Ġsqu id
Ġsqu aw
Ġfro lic
Ġact ions
Ġdi pper
Ġdi aled
Ġsk ittles
Ġones ie
ster y
Ġpretend in
should a
isten cy
Ġstr ugg
Ġpen manship
Ġbuy in
bl ers
bl onde
rot s
ach y
ub u
ub on
Ġchi pped
lot ta
Ġcorn s
Ġpar aly
Ġpar fait
baby e
Ġteet her
fr ank
Ġbab ble
Ġbab aba
Ġhop in
ex pensive
Ġchan gin
br ings
any where
any time
Ġbag i
was her
Ġdri ppin
Ġroll ers
Ġun real
Ġun snap
Ġun believable
Ġpain ful
Ġfly er
Ġmess ages
ort re
ort ment
Ġcount in
sc re
Ġdis k
Ġdis in
ment al
gan o
Ġblack berries
Ġfast ens
te levision
Ġtre m
Ġtre et
Ġtre mendous
Ġhigh ly
ten ing
ten ance
Ġte xt
Ġte mp
eb rew
Ġpol ished
Ġspaghetti o
Ġgrow th
int osh
act ing
ĠFr ill
Ġbar bies
ĠO ur
la zy
Ġmay o
Ġmay or
Ġblow ed
pt ed
Ġspe cially
Ġap ostrophe
Ġgra ves
Ġgra ins
Ġgra ph
Ġgra phic
aa ah
Ġcrack in
show ing
mon day
Ġsn ug
Ġpink ish
open s
open ing
Ġfull y
Ġwarm ing
gy dig
uzz i
Ġboo gle
wha le
wha les
Ġsnow s
iet alkie
Ġpur ring
Ġcars eat
Ġac id
Ġquack ing
yum s
Ġapart ments
Ġwood pecker
Ġarm ies
nie vel
Ġpump ing
Ross ie
Ġbump ers
Ġbump ity
Ġmouse y
Ġcur ling
ĠU ba
Ġpark in
Ġcheck out
Ġfig s
Ġsad ness
peek y
ĠGrand daddy
ald en
Ġpresent ed
Ġcam pa
ĠV e
ĠV ice
ĠV inny
ĠV erm
ieve d
over flow
Ġet hnic
Ġcomb in
Ġjack ass
iday s
Ġdec ent
Ġgrab by
Ġspot ty
Ġbelieve d
vis ed
Ġper ched
Ġdra ggin
Ġcoat ing
Ġmad am
Ġgrass y
cr ust
Ġforget tin
Ġcra fts
Ġfif i
pick s
Ġpay lo
Ġpay check
cup ines
Ġfur ious
Ġmar ig
Ġcause d
ring ing
ĠSt ea
ĠSt one
ĠSt ate
Ġsalt ed
med ium
its ky
Ġmis under
Ġmis chie
Ġreg roup
Ġfight ers
Ġser van
Ġele gant
tr ied
Ġwheel er
Ġmotor boat
ĠĠ ĊĠ
Ġpet als
ĠPaul ie
sing in
keep ing
keep er
cept ic
ilt ed
Ġbub bling
kind s
com puter
ĠCar ib
ĠCar men
ĠCar rie
Ġtw ilight
Ġmeet ings
Ġhide out
de h
Ġtrick ing
ĠSaturday s
Ġfre s
igg ing
jump s
Ġmed al
Ġda isies
Ġvisit or
Ġcre ating
Ġcre amed
ract ed
aj ub
Ġpres idents
Ġsto ves
Ġchick a
Ġdream t
Ġbuck les
Ġbuck led
gr ader
ĠSp ic
ĠSp am
ĠSp irit
sl im
sl obber
inet te
Ġfis htank
Ġpeek boo
Ġob edient
Ġboard ing
Ġchoo ses
Ġyell s
bow wow
band ana
drink in
Ġdish washer
ĠChe x
Ġkill in
under wear
Ġcont ribut
iam ese
Ġcheer ing
ĠThursday s
Ġsqueak er
lves ter
hot os
ĠMary anne
app ie
Ġsink s
Ġcoll age
ĠY ellow
ĠBar on
Ġbib s
lip stick
hop scotch
Ġfact s
gen ie
ric ate
Ġvan ish
ĠZ weiback
stick er
Mar sha
hard ly
Ġart work
Ġart icho
Ġart icles
Ġdeal s
Ġheart beat
Ġind estructible
Ġsuper hero
Ġrais ing
Ġwag ging
ĠBoo booneen
Ġhandle bar
pot ty
Ġcamp fire
pr ice
doll ies
Ġes sentially
ĠLe on
ĠLe igha
count ing
ba sed
Ġchin ny
ĠChris ty
Ġtip toes
dad s
dad dies
Ġimag ining
sm ack
burg lar
Ġfe nder
ĠBe eser
Ġexcept ion
Ġinv ites
Ġflo ated
tap ioca
ĠMc Car
ĠMc kayla
ĠShe ila
Ġot toman
Ġug liest
Fr anny
Ġjam my
az ine
Ġdar abol
start s
Ġbabys at
St rikes
Ġhall e
Ġhall s
Ġchar ges
ban illon
ban jo
bea vers
ĠCl ara
ĠCl ues
ĠCh icky
color ful
color draw
home work
fire men
fo am
fo xy
Ġbas is
Ġbas il
Ste vie
Ġiron ed
ĠSw itzer
Ġprin ts
ĠCo ll
Ġwhist led
Ġass ortment
Ġwigg led
Ġpost s
wa i
Ġpos ies
Ġsund aes
Ġbud get
bump s
ĠSha ggy
ĠRo ger
plan ts
ĠGre mlins
omp apa
Ġlean ed
Ġants y
ĠDe ceptic
Ġcoun se
Ġhonk ers
umm ings
ĠBl ock
Ġpray ing
Ġform at
build ings
Ġben ches
Ġma ze
pin ch
ker plunk
ups je
Ġearth quake
Ġstea ms
Ġtwist s
dry dry
ĠGold rush
Ġroast ed
Ġtu ft
ĠNan na
ĠNan nie
Ġconne ctions
rus illa
Ġblueberry s
xy lophone
Ġvers ions
Ġcons istency
Ġhung rier
hair y
might y
Ġperiod ically
Ġstri king
Ġmane uver
Tim on
Ġconcer n
gor geous
Ġshr inking
ĠRe becca
sea weed
tra ce
Ġluck ily
Char lotte
Ġill egal
Ġclick ing
Ġmeasure s
Ro ger
Ġfi red
ĠBat tle
ĠFl ore
Ġcontin ent
Ġcontin uing
ext ra
mix ed
Ġclub s
Ġsword fish
Ġroller coaster
scr iption
Ġcreep mouse
Ġtin iest
Ġcell phone
Ġscra ps
Ġserv ices
Ġigno res
Ġdest ro
tre asure
Ġblink s
Ġchug chug
Ġtend ed
ĠAll i
ĠFro g
Ġver bs
Ġav iary
Ġtenn ies
Ġwreck er
drop s
ko kowk
Ġconnect ing
Ġrail ing
ĠCount ry
ĠDor itos
ĠJean ne
achoo ies
Ġrepeat s
Ġboss ing
Ġpudd in
ĠLex ington
Ġswings et
Ġstock ings
ĠSqu awky
Ġcond uct
ĠFo xy
ran osaurus
Ġmous y
Ġreturn ed
Ġtar ant
Ġmow ed
ĠJeff erson
ĠJeff ery
But ton
usse l
Ġdistract ing
Ġdistract ions
He idi
caterpillar s
meat balls
Ġdeter gent
Ġbraid ed
Ġgoof ing
Ġhabit ats
abab a
Ġgrav ity
Ġescap ing
bra vo
Ġwea ve
ĠKer met
Ġwaterfall s
Ġnutr itional
Ke v
ĠTr ans
Ġactive ly
Sp ace
pus hes
Ġtables poon
Ġillustr ated
Ġillustr ations
Ġcav ity
ĠSher aton
Ġtad ay
ĠBa iley
Ġbleed s
dis app
Ġmul ti
ĠMoo re
ĠMall ein
Ġee e
Ġbarbe que
Ġencoura ging
Mad ame
Sus ie
fre ight
Ġsher iff
ĠBur ke
ĠSh rek
ĠHam mer
Ch uck
Ġlat ches
ĠScoo ter
Di ane
chip munk
spell s
Ġpriv ile
Ġthigh s
ĠMer cer
Ġcoin cidence
cot ton
mill ions
Ġev idently
Jen ko
Jen essa
lal ight
ĠCle o
rowrow row
ĠFlintst one
Co lleen
yog hurt
Ġpers u
Ġpers ons
Ġinit ially
Ġrequ ires
ĠGab e
choke choke
ĠYod els
Ġsno r
ĠLor i
booboo boo
Cheer io
fig ures
Ġkak as
Ġspons ored
ĠCr ab
ĠCr acker
ĠPen ney
Ġappro xim
Ġtrave ls
Ġtech ni
Ġtherm os
Ġpy jamas
ĠMy ra
ĠDot ty
brother s
Ġeduc ated
mam ama
sail or
Ġrewind ing
Ġorang ish
ĠCor ny
ĠPar rot
Ġdiv ided
Ġgrassho ppers
Ġadv ice
Ġinterview ing
Jan uary
Ġport ra
Ġfab ulous
Ġups idedown
lymp ics
udud udud
grand mother
Ġwander ing
ĠBra ve
Ġpred ators
Ġshred ded
Ġscall op
Ġsele ct
googoo giggle
Ġhaul s
ĠFre donia
Ġpotent ial
pretz els
Ġsurround ing
Ġwah wahwah
Ġsuff oc
ĠFri o
riot ic
Ġsharpen ing
comp ared
taptap tap
Ġrespond ing
Potato head
Lou ise
dub dub
Ġene mies
ĠSleep ing
Ġmoth s
Ġleot ards
Ġimpro ve
Ġimpro ved
Ġdevast ater
Mootie mooshas
dra g
Ġtul ips
Ġsig ning
Ġore o
Ġrandom ly
Ġalcohol ic
Ġperfor ming
Ġperfor mance
Ġcondition er
Ru dolph
Rock y
Ġbound aries
Ġflex ible
ĠBee cer
Ġcamoufl aged
Ġtattoo s
Ġtattoo ed
Ġamphib ian
gug ugu
Ġgour ds
Ġgour met
Ġpomegran ates
Ġdrug store
ĠAt l
ĠRain a
Ġfaith ful
ĠPie pie
Ġscient ist
Ġscient ists
ĠHor se
ĠHor ace
Ġvow el
Ġvow els
ĠKan obi
creep mouse
Zo ie
Ġdy na
Ġfidd lers
stom ach
ĠSk ipper
ĠPea ce
acc ident
Ġbeast s
wip ing
Ġward robe
Ġsens ory
Ġmal t
ĠDes i
Ġnat ions
Ġintrig ued
tem pt
flo ppity
Ġsuspic ious
Lex ie
Ron ny
Sleep y
Ġtilt ed
Ġded ic
Ġflee ce
ĠCho colate
ĠLong neck
Ġsket ties
Ġindic ation
Ġassist ance
Ġoyster ing
Fre re
cucumber s
ghost s
tot ally
Ġmig rate
ĠMun sters
Ġblo cked
ĠApple dumpling
ĠPi zza
ĠLet ter
riet je
Ġchimpan zee
Ġcollap se
Ġannounce ment
Ġdescript ive
Ġchemical s
Ġirrit ated
How ard
Sm iley
diam ond
Ġtel escope
Ġtort illa
Ġhub cap
ĠCamp bell
ĠSuz anne
ĠAud ubon
Ġcrit ical
Ġcrick ets
tiv ity
Ġunh unh
Ġeras ing
ĠZay re
Ġcockat oo
Ġwarri or
Bea uty
Ġsear ching
Ġcivil ized
ĠMur ray
Ġclim ates
ĠRee ce
shr imp
plo docus
Ġregard less
Ġarrang ed
contin ue
Brend an
Huckle berry
Made lyn
Tra cy
Ġsz abad
Ġpes ky
umin um
agg is
ĠDup lo
ĠFra mingham
Ġdiscipl ine
Ġprun es
Ġexchan ge
def g
Ġsubst it
Ġcarbohydr ates
Int osh
Kimber ly
Mill isandy
heas ants
Ġwis dom
Ġsab er
Ġmir acle
Ġrever se
ieg ler
ĠMT V
ĠDalm ation
Ġfaire st
ĠPart on
ĠHea ven
ĠWald o
Ġinton ation
Ġintest ines
Ġconse qu
intro duce
Ġgranddaught er
Ġcamps ite
Ġregener ate
Ġerup t
Ġancest or
ĠWedn sday
Ġcertific ate
Ġepis ode
ĠPuer to
ĠfiancÃ© e
Cam bridge
Hele ne
Minn esota
prot ect
sung lasses
Ġdain ty
Ġloos er
Ġpathe tic
erfe ff
arct ica
Ġukele le
Ġwhatso ever
Ġmedd ling
Ġcance led
ĠMered ith
ĠMitche ll
ĠCars on
ĠNav ajo
ĠPaste ur
Ġlege nd
Ġproced ure
Ġheadquarter s
ĠvÃ¡ gja
Ġdefro st
Ġparaly zed
ĠVerm ont
Ġpaylo ader
Ġmischie vous
Ġservan ts
Ġsuperhero es
Ġdarabol ja
ĠSwitzer land
A s
A t
A ida
B ump
B el
B ug
B aa
B umble
B utch
B etta
C A
C r
C le
C ross
D oo
D en
D inky
D iana
E li
E ddie
E leanor
F e
F alls
G onzo
G arfield
G igi
H o
H is
H ed
H am
H ung
H awaii
H uey
H eehaw
H ubbard
H emlock
I an
I saac
J P
J oy
J ungle
J afar
J ocko
K erry
L ong
L ion
L oops
L ukie
M s
M in
M ak
M ale
M ellason
N u
N as
P am
P inky
P enny
P ops
P ickles
P oppy
P innochio
R a
R ose
S ch
S chool
S hop
S pu
S pic
S alley
T ig
T own
T ina
T roy
T asha
T aki
U n
W ee
W il
W ild
W onder
Y es
Y omi
Y eah
Y ogi
a im
a hahaha
b are
b ap
b ush
b ank
b any
b und
b each
b bles
b ored
b essy
c au
c ass
c red
c ash
c ub
c ils
c rap
c ooper
d el
d eb
d ucky
d ude
d ande
d oodledoo
d affy
e on
e be
e qu
e wok
f um
f ty
f iction
f olk
g us
g uguh
g yere
g rocer
h id
h oh
h ours
i i
j is
j or
j up
k na
k ad
k les
k ull
k oolaid
l ose
l os
l imme
l ately
m all
m al
m atch
m ang
m unch
m iddle
m oth
m gah
m ountain
n ee
n early
p ost
p ace
p ss
p ike
p iles
p ompom
q rs
r mm
r oot
r ix
r ina
r ified
s an
s hing
s wan
s ue
s ub
s led
s ized
s pect
s erv
s issy
s ippy
t ar
t at
t ho
t ough
t ank
t la
t ables
t ica
t exture
t ico
t oto
u be
u able
u led
u ppie
v ag
v ide
v ah
v ise
v ol
v ette
w at
w ast
w ine
w ord
w ears
w iddle
w uzzy
w inette
x i
y uh
y qu
y ike
y den
z uggle
Ġ ick
Ġ eek
Ġ Ã©
Ġ oompapa
Ġt S
Ġt as
Ġt ink
Ġt oug
Ġt ins
Ġt wel
he el
ou ches
ou ched
ha ll
Ġa ch
Ġa ce
Ġa frican
re cal
re sting
re present
in oni
Ġw up
Ġw hey
Ġw avy
Ġw ives
Ġw arts
Ġw ilted
Ġs ust
Ġs ided
Ġs issie
hat e
Ġthe r
it ory
Ġd ir
Ġd im
Ġd ell
Ġd us
Ġd row
Ġd iss
Ġd ud
Ġd itch
Ġd ashing
Ġd arts
Ġd yed
Ġd affod
Ġb atch
Ġb ung
Ġb ass
an h
an ch
an th
an ces
an anana
Ġg in
Ġg om
Ġg oug
Ġg au
Ġg ucky
is ta
is ion
Ġc ad
Ġc ure
Ġc aged
oo ey
oo ze
oo bee
ll ino
Ġl ah
Ġl ac
Ġl ull
Ġl ala
Ġl umps
Ġm and
Ġm as
Ġm ong
Ġm umble
Ġm anger
Ġm ashing
Ġp ate
Ġp itty
Ġp oun
Ġp ups
Ġp imples
Ġp armesan
Ġp hotos
ay o
ay lor
ing y
Ġf um
Ġf ul
Ġf aint
Ġo x
Ġo st
Ġo ar
Ġo pe
Ġo iled
Ġo lympics
Ġthat za
es ha
es ty
ea led
ea med
et tie
et ime
et recal
Ġhe ap
Ġhe av
Ġhe sit
Ġhe licop
om it
Ġh ou
Ġh ing
Ġh one
Ġh ick
Ġh ided
Ġh inge
nd a
nd ah
Ġon sie
Ġon line
se en
se par
se cret
or r
or se
or ical
le ot
le nt
le op
le gos
Ġgo b
Ġgo als
Ġgo bot
Ġgo ggles
ig a
ig gs
ig rain
Ġin put
Ġin vin
Ġin tact
id oscope
ut ions
ĠI ron
ĠI sadora
ĠI tsy
ĠI rene
ee red
ee man
na ce
na tural
st re
st ream
st ru
st ole
st ruct
st roke
st eam
Ġk ab
Ġk ool
Ġwe ir
ar is
Ġu lt
ic ian
ow ly
Ġwhat not
Ġof t
at ypus
Ġyour selves
Ġthis tle
Ġr ind
Ġr ins
Ġr rrrr
ir s
ad on
ad ill
ad way
out fit
ck ton
Ġno i
Ġno dd
as ia
as aurus
Ġe c
Ġe ve
Ġe lep
uh m
uh n
uh mm
ink ly
Ġst out
Ġst en
Ġst ag
Ġst inger
Ġst utter
Ġst ardust
Ġre e
Ġre ly
Ġre friger
Ġre ject
Ġre tired
Ġre hears
me et
ho d
ho lm
ho vel
ho lic
ho ppity
Ġme h
we ird
ab c
ab ber
ab lo
ab adab
al ry
Ġn an
Ġn itch
Ġn udge
Ġn esting
Ġn ancy
Ġn uns
ch uh
ch ill
ch ies
ch irp
um ac
en na
en ced
Ġat tempt
Ġfor wards
Ġfor ced
ed is
Ġj on
Ġj is
Ġj ester
Ġj apanese
Ġwas p
Ġdid ja
Ġdid ldow
im istic
Ġpl aid
Ġpl aster
Ġan kles
Ġlook out
Ġgon n
ust omed
Ġnot epad
ur g
ur ts
ur fs
un ion
un ken
ot es
ot ot
if ice
Ġout s
Ġout grow
hm h
Ġall y
Ġall iance
ĠM ut
ĠM ee
ĠM ack
ĠM ail
ĠM uffy
ĠM oses
ĠM uppets
ĠM ikie
ĠM aurice
ĠM ueh
Ġso ph
Ġso iled
ind ians
ill ou
ill ery
Ġgot s
Ġgot ch
my stery
Ġy oohoo
Ġy ikes
ta h
ta z
nt iful
ro se
ro sy
ro bot
ro foam
Ġplay time
Ġher b
Ġher bs
can not
hi as
ra me
ra il
hen ley
ce p
us sy
Ġsa vers
let ter
let tin
Ġbut thead
Ġsp ose
Ġsp erm
Ġsp orty
op hy
am ic
am ong
am ama
am ole
ick ing
be long
so ld
ive ling
ive led
Ġco gn
Ġco gna
Ġover ly
Ġover weight
Ġover cooked
ĊĊ ĠĊĠ
ag le
ag uguh
ag ugu
Ġthing ie
ure en
ĠC a
ĠC ab
ĠC ose
ĠC up
ĠC hed
ĠC ont
ĠC elt
ĠC hase
ĠC oby
ĠC ousin
ĠC heeky
ĠC astle
ast y
did ja
Ġkind ly
Ġcl in
Ġel f
Ġal uminum
ain ted
ĠB j
ĠB ay
ĠB uck
ĠB ri
ĠB umbo
ĠB umbles
ĠB rambles
Ġcar ob
Ġcar tr
Ġcar icature
Ġcar ols
ap f
ap ric
ĠD ep
ĠD inosaur
ĠD ebra
ĠD uc
ĠD oe
ĠD uke
ĠD ragon
ĠD rusilla
Ġne on
Ġne got
Ġne ighing
wo ks
Ġpre c
Ġpre m
Ġpre vent
ĠS ing
ĠS how
ĠS illy
ĠS car
ĠS ween
ĠS haw
ĠS ilver
ĠS antas
ĠS pecial
ĠS henandoah
ĠS umac
Ġbl iss
Ġbl ister
Ġbl essed
Ġbl imp
ys kull
Ġhas h
up up
ess ive
Ġsh in
Ġsh ucks
ct uation
Ġtr om
Ġtr ance
Ġtr usty
Ġtr igon
Ġmo ly
Ġmo les
Ġmo ons
Ġmo pping
Ġas h
Ġas sure
ers pace
don k
don uts
to ad
to ed
Ġar thr
Ġhapp iest
ere sh
bo bs
ul ating
Ġdr ib
Ġdr unken
Ġcall er
Ġbu ggies
ree ch
gg s
Ġcom ments
ĠA s
ĠA re
ĠA mber
ĠA ggie
ĠA da
ĠA rr
ĠA lly
ĠA rt
ĠA nast
ĠA BC
Ġgu ac
Ġgu zzle
uff in
uff les
ĠR oor
ĠR ambler
ĠR oton
Ġman ly
Ġman ner
ish ment
Ġball room
ĠJ e
ĠJ os
ĠJ ud
ĠJ afar
ĠJ ewish
Ġbet te
Ġlo vie
Ġho st
Ġho gs
Ġche ered
oop ing
oop ed
pe ppers
Ġfl eas
Ġfl oss
Ġfl aky
Ġbr ack
Ġbr ide
Ġbr itches
Ġpe can
Ġpe bble
Ġpe bbles
Ġpu dad
Ġpic turing
go lf
ush ush
Ġano rex
ĠN a
ĠN ini
ĠN ikki
ĠN yqu
ĠT ing
ĠT han
ĠT ak
ĠT wo
ĠT urn
ĠT eet
ĠT hr
ĠT ina
ĠT hur
ĠT inky
ĠT roy
ĠT oys
ĠT wink
ĠT adu
ĠT asmin
ĠT widdle
ĠT aylor
ĠP ack
ĠP eep
ĠP ors
ĠP uppy
ĠP haedra
ĠP unxat
thank you
ĠL ook
ĠL ar
ĠL as
ĠL ane
ĠL earn
ĠL amb
ĠL issa
ĠL enny
ĠL uey
ĠL ux
ĠF e
ĠF ur
Ġsc out
ix iel
Ġsho ving
ist r
Ġwhy n
sh sht
Ġqu arant
Ġfind in
co ke
co le
co pper
Ġke n
pl ing
eas ier
Ġgr oo
Ġgr ater
Ġgr inned
Ġgr ipping
ug ly
ug ah
Ġcr ater
Ġcr ime
Ġcr utch
ĠG l
ĠG ap
ĠG el
ĠG umpy
ĠG inny
ĠG lou
ĠG rizzly
Ġju d
Ġpro lly
Ġmin ister
Ġmin eral
ung ung
Ġwork out
Ġlea ders
Ġcat alo
ob bit
oss ums
Ġsw ipe
Ġuse less
che ater
che la
ne haha
Ġsm ug
Ġunder dog
ĠH m
ĠH y
ĠH all
ĠH um
ĠH ey
ĠH ym
ĠH awai
ĠH eehaw
ĠH ospital
ĠH ebrew
ĠH eeman
Ġv a
Ġv omit
ĠE gy
ĠE ddy
ĠE liz
ĠE arth
ĠE rika
ĠE arly
ĠE yore
ĠE instein
bab af
ass es
Ġpi per
Ġduck bill
Ġfin icky
ip hias
Ġreal izing
Ġz est
Ġhor ribly
Ġice berg
Ġmight a
Ġex asper
Ġfoot ie
Ġdoor step
Ġdoor knob
ent on
Ġpo pp
Ġpo ds
Ġpo itions
ise ly
Ġbro ad
Ġhard boiled
Ġna tivity
Ġsweet ers
ri ya
Ġgreen ery
ma e
ma w
Ġstory books
Ġbreak er
aw z
Ġwh ir
Ġwh inin
Ġch ump
Ġch ords
Ġcheese burgers
ĠK u
ĠK itt
ĠK immy
ĠK irk
ĠK nievel
ĠW his
ĠW icked
ĠW iggles
ĠW heels
want ed
Ġapp li
Ġint ricate
ti ppietoe
Ġtap in
Ġsl oth
Ġsl ugs
Ġsl apping
Ġbea ches
Ġde ci
Ġde finite
Ġde ceptive
bit er
man e
man atee
Ġgl oom
Ġgl ob
Ġgl itch
sha l
Ġcho kin
cl ing
Ġthank fully
Ġsqu awk
for mer
Ġbus ier
most at
Ġpot ties
Ġpot assium
Ġyellow ish
Ġend angered
Ġsk inn
Ġpan try
Ġpan els
Ġbutter cup
Ġrec re
Ġrec har
Ġrec ycl
Ġpaper work
bl oop
pill ar
ub urn
Ġmat ched
Ġlive ly
ont aneously
ant enna
Ġcorn stalk
Ġteet er
ng uh
Ġflow s
sp o
sp aper
sp onge
br ushes
br icks
Ġow ies
Ġbag gie
cha u
cha in
Ġdan ish
ren ice
ren ce
fast er
und o
Ġbee per
Ġtick ing
ask in
Ġpop ulation
Ġfarm house
Ġun ion
Ġun wrap
Ġun salted
Ġun conscious
Ġun famil
Ġgave l
night s
Ġcry baby
stand in
Ġword less
Ġtrain er
Ġem pt
Ġem pire
Ġsock et
sc ream
Ġhors eradish
Ġdis ease
Ġdis pat
ĠBear d
Ġunt ies
whoops ies
Ġtre acle
od d
tain er
per ial
Ġte le
Ġte esh
Ġcon clusion
Ġpol kad
Ġfinger prints
push in
ps on
int on
Ġkn ead
Ġkn itted
Ġkn uckles
Ġfo amy
Ġcir cul
ile e
hold s
gu es
Ġbar ley
Ġbar riers
ĠO lah
ĠO ompapa
Ġdrive n
Ġbrown s
Ġaw ard
Mark ie
Ġspe ct
eep y
Ġpat tin
Ġpat ted
Ġgra pple
fly s
Ġcrack le
mon sters
Ġpeanut butter
Ġsn itch
Ġsn eezin
Ġsn ooze
Ġsn iveling
Ġwarm s
Ġboo g
Ġboo gers
Ġsnow in
Ġfam ilar
Ġbutton ed
Ġchildren s
Ġac com
Ġsort ed
Ġpump s
oy d
Ġscrew dri
ey o
Ġleaf s
care fully
Ġcur b
Ġcur ves
Ġcur ds
ĠU s
ĠU tica
Ġhang ers
Ġhang nail
pa ired
ĠBro adway
ĠBro ckton
fl at
fl uffy
car ving
car pet
Ġmagn ific
Ġfat ty
boom p
Ġmusic ians
Ġseat ed
ord in
Ġsea horses
pull in
peek ie
ĠGrand father
ald ine
ĠV egas
ĠV enus
Ġtoast ing
umb um
ĠMar got
Ġreco g
Ġreco very
ider ing
Ġdec iding
mean ing
em burg
em broke
em pire
Ġrecogn iz
vis iting
Ġdra pe
Ġmad i
Ġcover in
throw s
elic a
roll s
cr im
Ġforget s
pro ble
Ġmuff s
Ġshare s
Ġgen ius
Ġloud ly
Ġcra ft
pick in
Ġsmart est
bet cha
Ġvis ion
Ġsnake bite
ĠJo jo
Ġmar ked
Ġmar shal
ring ring
ĠSt uart
Ġsalt water
Ġland sc
Ġlap top
Ġdump in
Ġmis be
Ġtooth less
Ġstar ch
tr icycle
tr icky
Ġwheel ing
ĠĠ Ċ
ĠĠ ĠĊ
Ġpet al
Ġpet tico
Ġdark ness
Ġplan ing
Ġstraight forward
Ġwha cky
ze cho
Ġshort ening
feel ing
ĠCar o
ĠCar la
Ġcandy bar
Ġsquir ts
Ġtw igs
Ġroad grader
Ġlamb chop
de c
Ġtrick ortre
back hoe
Ġscratch ies
duck lings
Ġbeg un
Ġra ven
Ġreason ing
Ġshut ters
Ġda pper
pat ting
Ġnur turing
Ġcre ated
Ġcre amy
Ġcrayon ing
Ġdream er
ĠIn ky
Ġad ds
gr ill
gr oup
Ġdust pan
sl am
sl inky
sl ov
Ġslow ed
sw ings
Ġvac uu
ĠMonday s
Ġob st
ugg ies
ĠMiss y
ĠChar lene
ĠBr u
ĠBr atito
ĠBr ussel
walk walk
bow ls
band aid
shh h
Ġgas oline
Ġmet ers
Ġmet eor
Ġcont em
Ġste ppin
ĠUrs la
iam i
Ġba zam
Ġbeat ers
talk ie
Ġpack in
Ġbra ces
ding aling
Ġworry ing
Ġenjoy able
Ġson ny
hot dog
Ġsur fin
Ġsur vey
Ġcoll ard
Ġsi ree
Ġsoap y
ĠRob by
ĠRob bin
Ġpoin te
fight ing
Ġfresh water
milk shake
Ġrac ers
Ġhospital s
gen esis
ric t
ric tor
Ġtri angular
board s
Ġjo ining
una way
pig lets
Ġcarri ages
Ġhurry ing
Ġart ic
Ġwat ered
find ing
Ġwild ebe
Ġind ig
cut s
cut ive
Ġea red
Ġea ger
lo gs
Ġwag s
Ġwag ged
Ġhipp ie
Ġwhisper in
light ning
Ġext ras
Ġext inct
gi vin
pot atos
Ġcamp us
Ġflat ter
iv a
iv ities
Ġbeep ing
Ġacc ur
Ġsend in
clean er
Ġrough ly
Ġhar ves
Ġhar bor
Ġhar psichord
Ġhar monica
Ġpoo ey
Ġtrack ing
dri ves
ific ial
Ġsquirrel ies
Ġrel ates
Ġple ntiful
Ġpract iced
Ġtip toed
Ġcast s
Ġbumble bees
Ġrubber band
Ġbull do
Ġbull frog
Ġcol umn
Ġcor ny
ĠBe an
Ġwoo s
Ġpass age
Ġinv itation
Car men
Ġswitch ing
Ġcough s
po inting
Ġtough ie
Ġx iphias
Ġgener ations
ĠAnn ette
Ġconf usion
Ġsmoo ch
Ġsmoo chy
Ġregister s
Ġrep ly
Ġrep el
Ġrep acked
Ġrep eling
sna ppie
itam ins
Ġmac rame
ĠSc ary
ĠSc ience
ĠSc outs
ĠSc henley
Ġru f
quit a
sa usages
Ġdep th
Ġmill er
Ġstation s
Ġstation ery
bor hood
Ġradio ing
Ġtank er
Ġdar lings
start ing
Jo anne
Ġcart wheel
Ġchar ming
ĠGr oucho
screw s
touch ing
Ġteas es
bea st
bea uty
sal ty
Ġhy po
Ġhy dro
Ġblood ed
Br an
oc casion
Ġtexture d
Ġsy mmetrical
Ġdist rict
ĠCh rystal
ĠCh ooklee
color ing
must ache
ĠAr nold
Ġund ies
tea m
tea ches
Ġpad ded
Ġpad dles
Ġgym na
Ġzip s
Ġtor toises
Ġmain tenance
ĠMac Kenzie
ĠTy rannosaurus
ĠTy ronne
ĠTy ranosaurus
Ġmoment s
Ġpost ure
Ġpost ers
Ġpost card
Ġsquirre lly
Ġvacuum ing
plan et
Ġdoo bee
Ġfed eral
ai yaiyai
bad ada
Ġmall ards
erv atory
Ġhoo ting
Ġcollect s
Ġsmooth ie
bar ber
Ġram ps
Ġstud ious
sleep er
ĠBl oom
ĠEl is
Ġswallow ing
ĠWes ley
sk i
sk ating
whad ja
ĠSus y
bell s
pour ing
wed nesday
sock ie
Ġscoop er
fif th
Ġflavor ful
long er
mo vie
mo vies
lle ge
con ne
ĠFran kenmuth
Ġfellow s
ĠEd en
ĠMay a
chick ies
Ġcrust y
Ġcrust ace
bounce y
boop boop
Ġtu pperware
ĠNan olds
Ġscre ens
Ġdifficult ies
Ġmem orable
ĠJan na
ĠJan ice
olan tern
eg os
climb in
Ġpatch y
Ġhung er
Ġref use
Ġref erence
Ġres our
Ġres ult
new spaper
Ġsub tle
Ġlif esa
Ġlif etime
Ġspread s
Ġartist s
ĠFrank y
Ġpinch in
ded eded
Ġsip s
swim min
ĊĠĠ ĊĠ
wear in
Ġpuff s
Ġpuff ing
Ġdot ty
Ġsmo ked
Ġseason ed
She lley
Ġtow ing
Ġko a
Ġko sher
ĠDi aper
ĠDi plodocus
jo in
Ġwhatcha mac
Ġspark ler
ĠScot land
non inoni
Ġpun ctuation
Ġins pe
Ġins ists
Ġshr unk
Ġshr iveled
ĠRe ggie
Ġvar i
Ġconst rictor
In ky
Ġthread s
tra ining
Ġstre use
Ġscoot s
Al bert
Ġsol ved
Ġmeasure d
Ġmeasure ments
Ro lf
part s
ĠFl akes
Ġcontin u
cur l
cur ious
Ġspeed ometer
ĠTex aco
Ġphotogra pher
Ġspo kes
Ġcreep ing
Ġbrace lets
tw ins
Ġwise ly
ĠTeddy s
Ġcomm and
Ġcomm itted
Ġscra per
Ġproject ing
bac teria
Ġseparate ly
Ġmap le
Ġrot ate
ĠBab ies
Ġelectric ian
Ġdest ru
Ġkindergarten ers
Ġswims uit
Ġop ossums
Ġblink in
rrrr rrrr
Ġcoo chie
road runner
Ġattract s
Ġav o
Ġhic cing
Ġdrool in
Gre gory
Ġent rance
ills bury
Ġshoo ter
Ġtran sp
Christ ina
Ġsprink led
Ġthreat en
ued o
ĠJean ie
spe c
Ġmunch ies
Ġconcentr ation
pol ine
Ġtum blin
Ġrect angular
ĠTh under
Che w
Che eto
cro ak
Ġpine cone
mar bles
agag aga
ĠFo x
Ġmater ials
ĠOre gon
But ter
Ġinvol ves
Ġshi pped
Ġdeter mine
Ġbon king
Ġgoof ball
Ġfoo ting
ĠRock abye
ĠRock biter
bra ce
uk uk
ĠDa pper
Ġdrill ing
Ġexpress ive
Ġsupp e
Ġsupp ly
morn in
Ġwea ving
Ġident ifying
Cl aude
Ġtat t
Ġker chief
Ġlim bs
Bar bie
Ġut ter
Ġnutr ients
reach ing
Ġwob ble
lamb s
Ġplum eria
ĠAng ie
ĠAng elica
ĠHo key
Sp ark
Ġhero s
ĠPan ama
toot sie
rec ently
neck lace
Ġdef end
tractor s
Am ara
kn itting
Ġdare devil
Ġcav alry
ĠSher iff
ĠAm ish
ĠAm ara
Ġdev ils
Ġcuddle d
Ġsting y
Ġstream ers
ĠNick i
scoot ch
Ġwok ka
Ġtab s
Ġimit ation
Ġimit ates
Ġobs ervation
Fl opsy
Ġpure es
Ġbehave d
thur sday
Ġconstru ct
Ġcheap est
ĠTur kle
broom broom
Ġcaboose y
upp ies
Ġtrop hies
Ġsher bert
ĠCon ner
pepper mint
Ġstrang est
burn s
ĠLa wny
Ġprodu ction
Ġpsy ched
ĠMo ha
ĠMill enium
race car
ĠAna kin
ĠFix er
Ġhyena s
lick ing
Ġcred its
ĠMer maid
ĠSn itches
Ġflu id
Ġprov ide
Ġinterrup ting
des k
norm al
Ġmult igrain
ĠHer bert
numnum num
Ġarrange ments
Jen na
lal alight
Ġden y
Ġmyster ious
Ġaardvark s
Ġnoon time
Ġstalk s
ĠSim ps
ĠLind z
Ġsmil er
Ġstomp ing
Ġintellig ence
kitt les
von ne
Ã¡ ndor
Ġfuzz ies
ĠNi kes
shou l
Ar te
Pe pper
Ġjugg le
Ġunpl easant
Ġgram my
Ġscan ning
Ġbuh m
aboo booboo
imag ination
ĠPen gu
ĠPop corn
vo ila
dot dot
ĠMy r
ĠDot tie
Ġblast ed
Ġmeaning ful
ĠLand o
wag on
Ġsill iest
Ġmaid en
Ġrab ber
Ġrab bie
ĠDoug y
ĠHi ppity
ĠWay ne
Ġspeck s
Ġspeck led
Ġbookshe lves
ĠTweet ie
whisper ing
buck et
grand mas
grand father
ox ide
ĠCur ly
ĠBud a
ĠEurope an
ĠOr phan
Ġmajor ity
fus sing
gas oline
Ġfest ive
Ġome let
leno re
ĠSl udge
ĠLuc a
ĠLuc ie
Ġhyp erspace
Ab ba
opp os
pigg ys
Ġlumber jack
Ġbob ber
Ġspir al
Ġval uable
ĠEx p
Ġchomp ing
Ġvegetarian s
ĠZo ie
Ġblend ing
Ġfea st
Ġnu clear
ĠMin est
ĠMin oru
Ġarch ite
Ġdeli ber
Ġcapture d
Ġimagin ary
Ġundress ing
Pet sey
cartoon s
Ġsig nal
Ġcul tures
Ġore gano
owow ow
Ġsty rofoam
Ġret ro
Ġabsor bing
Ġconvin cing
tu v
yell ed
heaven s
ĠCom o
ĠCro aky
Ġbloom ing
ĠOlymp ia
ĠStep h
ĠAngel op
Ġnephew s
Tar sha
pbth pbth
ĠCha pter
Ġdisplay s
Ġphon etic
Ġphon ograph
Ġtechnic ally
Cor ps
Cor inna
Ġdy namite
Ġgnaw ing
Ġfidd ly
Ġjohn s
ĠJer icho
ĠJer amiah
ĠNe ppal
ĠPea body
ĠLea p
plum eria
acc ording
ĠKool ade
Ġslumber s
exerc ising
Ġapric ots
Miche le
Ġdemonstr ate
hundred s
pth pth
wip ie
Ġvag ue
Ġnat ive
tem per
Ġsuspic ion
Ġdemand ing
Ġorchard s
sht on
Ġorient ed
coll ect
Ġseg ments
ĠSpark y
Ġassist ant
ĊĠĠĠĊ ĠĠĠĠ
Ġchatter box
Pea ches
tim ore
Ġbaw ling
Ġges ture
eeay eeay
Ġanti que
Ġspat ulas
ĠJu ice
ĠPi ppin
Ġsnar l
Ġsnar ls
Ġdistingu ish
Ġchimpan zees
ĠWalt ham
Ce lia
Con ner
Fitt i
Fitt is
week s
happ ily
Ġgover n
Ġgover nor
ĠSy lvester
ulah oop
Ġcomfor ting
Ġloc ated
Ġfla pped
ĠLen ita
ĠHolly wood
ĠWalend a
ĠWalend as
Ġdemo cr
Ġdemo crat
Ġhiber nate
Ġknuckle head
Ġexperien ces
Ġexperien ced
Ġvolunte er
Ġvolunte ering
Apple dumpling
Ind ian
Sab ato
Wal ter
wra pped
Ġdea f
Ġjer ked
ĠMog way
ĠCandy land
ĠSop hia
ĠSham u
ĠTem etri
ĠLy on
Ġvibr ant
Ġunzi pped
Ġvenom ous
Ġgergo g
Ġrefere e
Ġcarniv ores
Ġencoun ter
complete ly
Ġintimid ating
Ġeconom ics
Ni Ã±o
Rain bow
mous ie
nur sery
skin ny
Ġcit rus
Ġeval uated
Ġsam ple
beet le
Ġcomed ian
ĠRaf ael
ĠNut cracker
Ġslo pping
Ġlightbul b
Ġdisse ct
yawn ing
ĠSpaghetti os
gener ally
ĠKath leen
ĠGriff ith
Ġmathe mat
Ġdetect ive
Ġdisproportion ate
Ġcoordin ated
ĠBrachi osaurus
Look s
Ros amund
Tweet y
gat ha
tram poline
wie back
Ġinfect ed
Ġinfan ts
Ġsplend id
Ġoverflow ing
ĠAut obot
Ġbrist les
ĠNest les
ĠThing s
Ġgreet ed
ugab ugab
Ġdisag ree
Ġconta cts
Ġexcav ator
crumb s
Ġmarin ara
Ġobno xious
ĠCindere llie
Gray son
Les lie
Mun ster
Tur kle
cong ratulations
sup a
vrr um
helm et
Ġswo llen
Ġsult an
Ġmesse nger
Ġthirt ies
Ġowow ow
Ġkay ak
Ġkale idoscope
ĠClay mation
ĠBM W
Ġwholes ome
ĠAu chela
ĠAgn es
Ġhobble dy
ĠPhill ip
ĠLab ell
Ġshoest rings
Ġqual ities
Ġzom bie
acqu eline
ĠWheat ies
Ġtreet op
gydig gydig
Ġmarig olds
Ġmisunder stood
Ġregroup ing
Ġfres hen
ajub ajub
Ġcontribut e
Ġsteams hovel
ĠHammer head
Ġapproxim ately
Ġportra it
googoogiggle gaga
Ġimprove ment
Ġdyna mic
Ġsubstit ute
Ġconsequ ences
Joy ce
Spu ds
Yomi ko
mang os
pompom s
spect rum
ĠÃ© ves
Ġsust ain
Ġcad et
llino is
Ġhelicop ters
Ġhick ies
Ġweir do
Ġrins ing
ĠMueh ler
Ġcogna c
ĠChed dy
Ġtrigon ometry
Ġarthr itis
ĠArr on
ĠAnast asia
Ġguac amole
ĠRoor oo
Ġpudad us
ĠNyqu il
ĠThr iller
ĠPors che
ĠLux emburg
ixiel and
Ġquarant ine
ĠGlou cester
ĠHym ie
ĠHawai ian
Ġexasper ated
Ġunfamil iar
Ġdispat cher
Ġteesh irt
Ġcircul ation
Ġaccom pl
Ġmagnific ent
zecho slov
Ġvacuu med
Ġwildebe est
Ġwhatchamac all
zechoslov ak
A re
A lly
A rt
A llie
A frica
A bby
A shley
A drian
B y
B ow
B ur
B op
B ully
B elly
B eth
B ru
B aron
B arn
C om
C ity
C ru
C ourt
C onnie
C acy
C orey
C heeky
D es
D ino
D udley
D eedee
D oodledoo
E cho
E than
E ileen
E arly
F er
F or
F as
F www
F ang
F ish
F ord
F rench
F elicia
F oster
G ary
G arden
G host
G ammy
G abriel
H ush
H ercules
H ospital
H aggis
I f
I r
I zzy
J u
J er
J ake
J ust
J ones
J ude
J ordan
J asmine
K a
K now
K www
K ool
L and
L ake
L ike
L ucky
M ag
M ont
M og
M uffet
M indy
M ooshabooshas
M aurice
N a
N www
N ini
N adine
O ink
O www
O sc
O pa
O bad
O bi
P o
P le
P ic
P ac
P hoebe
R ee
R iding
R uth
R usty
S a
S ay
S ea
S ee
S ome
S un
S ol
S even
S coo
S ayla
S tacy
T itch
T ales
T oby
T iggers
T inkerbell
T renice
V irginia
V alerie
W ell
W itch
W uzzy
Y a
a uh
a pped
a hah
a ched
a ardvark
b b
b w
b ir
b itty
b ent
b ages
b ison
b iot
b wuh
b inoculars
b icycles
b ugga
c ig
c ouch
c ave
c ud
c ort
c uit
c adabra
c hanging
c uffs
d au
d ate
d oot
d ied
d oof
d oodoodoo
d igging
e ons
e led
e vent
e eran
e cutive
f ir
f ab
f li
f ri
f ling
f board
f res
f lips
g ut
g al
g han
g oof
g het
g ums
g usted
h ick
h uff
h oop
h orn
h ub
h itting
h Ã¡
h oho
h uggies
i ving
i bl
i vers
i lets
i oos
i visible
j et
j ug
j ama
k ea
k ol
k arate
k aboo
l ter
l age
l oops
l ars
l amp
l ocks
l osaurus
l olo
m is
m ass
m ire
m ond
m ier
m itten
m aster
m oment
m arshmallow
n is
n uh
n ick
n ng
n ums
n ery
n ickle
o don
o ye
o llen
o ids
o van
o xygen
p hy
p au
p ff
p os
p ri
p air
p apers
p ically
p uddle
p je
p epe
r in
r unny
r ue
r ise
r igh
r hin
r ator
r umm
r oots
s I
s z
s us
s ak
s eas
s ongs
s ardines
t one
t il
t ist
t ug
t ied
t ada
t ilt
u ah
u cked
v oo
v uh
v ine
v ins
v ans
v itamins
w it
w ea
w ur
w op
w ool
w ire
w ich
w easel
w avin
w oohoo
x iously
y oo
y au
y ers
y stem
y psy
z on
z il
z sa
z sip
É ĺ
Ġ xx
Ġ ĊĊĊĊ
Ġ oof
Ġ imb
ĳ n
Ġt is
Ġt ing
Ġt itt
Ġt read
Ġt ato
Ġt eats
Ġt uffet
ou can
ou ette
ha b
ha e
ha ms
ha boo
ha nabata
Ġa ck
Ġa ish
Ġa ces
Ġa hee
Ġa ki
re ll
re ed
re sc
re friger
in ie
in ction
Ġw ou
Ġw ie
Ġw au
Ġw eal
Ġw ary
Ġw ither
Ġs in
Ġs if
Ġs hm
Ġs ue
Ġs kept
it as
it ro
it ud
it ated
it ives
it lins
on ing
on ked
on ions
Ġd you
Ġd ur
Ġd il
Ġd ese
Ġd unt
Ġd inky
Ġd ashed
Ġb ache
Ġb umbo
an in
an cer
an cial
an cho
Ġg ut
Ġg ook
Ġg im
Ġg ur
Ġg lor
Ġg eared
Ġg ills
Ġg lee
Ġg yere
Ġg adget
is er
Ġc au
Ġc oot
Ġc ym
Ġc ello
Ġc hatty
Ġc ootchy
Ġc aca
Ġl is
Ġl ear
Ġl ame
Ġl ones
Ġl urch
Ġl amps
Ġl ava
no on
no rah
Ġm out
Ġm one
Ġm are
Ġm ound
Ġm ild
Ġm ering
Ġm ules
Ġm ascar
Ġm mmm
Ġm uppet
Ġp f
Ġp ong
Ġp row
Ġp ne
Ġp ss
Ġp oopy
Ġp inger
Ġp hil
Ġp amper
Ġp heasants
Ġit ched
ing ing
ing bird
er f
er ang
er ous
er ator
er za
er geant
Ġf le
Ġf al
Ġf ade
Ġf aking
Ġf umble
Ġf iles
Ġf akin
Ġf eared
Ġf ading
Ġth or
Ġth irst
Ġth ine
Ġth und
Ġo der
Ġo bey
es the
es que
Ġdo h
et ra
Ġhe l
Ġto ed
Ġto get
Ġto ma
Ġto wed
Ġto apie
Ġto ilets
ke eter
ke ley
se xy
what ie
what choo
or i
or o
ve ls
le ct
le nce
le mur
Ġgo go
Ġgo ons
Ġgo blin
Ġgo pher
ig os
ig ent
Ġin clud
ut ab
ut tered
the a
ĠI f
ĠI ke
ĠI llinois
ee cha
na ting
na ge
na mes
na scar
st in
st ove
st eal
st ud
st irr
st nut
st eamed
Ġk h
Ġk ack
Ġk rite
now led
ar dy
ar ret
ar med
ar ctic
ht h
Ġu na
ic it
ic us
ic ia
ic atur
ow a
ow ed
Ġli kin
Ġli berry
Ġli mp
Ġwhat chya
at um
at tack
Ġr ig
Ġr mm
Ġr het
Ġr aking
Ġr amb
Ġr umm
Ġwan no
yeah huh
ir in
ad just
ad und
ad orable
Ġdon t
ck ing
Ġno ther
Ġno one
Ġno sh
Ġno sie
as ie
as ol
Ġe i
Ġe ject
Ġe cos
all as
all ion
ver n
Ġst a
Ġst u
Ġst ead
Ġst ages
Ġst ance
Ġst ocks
Ġst ilts
Ġre b
Ġre no
Ġre me
Ġre fl
Ġre tr
Ġre pot
Ġre build
Ġre plic
Ġre sem
Ġre ceptive
Ġre ception
Ġre union
Ġre paired
Ġbe ers
Ġbe verage
Ġbe ige
ho i
ho ven
Ġme norah
Ġknow in
we gie
ab f
ab o
ab s
ab el
ab la
ab by
ab abye
ab cs
al one
al ri
al act
Ġn ook
Ġn ie
Ġn ud
Ġn ookie
Ġn itro
ie ver
ie pje
ch ine
ch man
um huh
um onia
Ġget chu
en an
Ġfor ties
Ġj ay
Ġj ee
Ġj og
Ġj iggle
th ick
th ouse
Ġdid ey
im ble
do d
do p
Ġpl unk
Ġthey re
Ġnot ion
ur ies
ur key
un ie
un ter
un ked
un ning
un ition
un usual
un buckle
ot t
Ġout h
Ġout grown
hm pf
Ġsome chies
ĠM ed
ĠM ose
ĠM ace
ĠM oose
ĠM irror
ĠM aj
ĠM icky
ĠM amie
ĠM ellason
ĠM alden
ĠM etrecal
ĠM iami
ĠM asie
ĠM iepje
Ġright s
ry n
Ġso f
Ġso akin
pp ee
pp el
pp osing
Ġy ick
Ġy oke
ta chio
ta mb
ta xi
Ġgood ne
Ġjust ice
there fore
how dy
Ġher Ex
Ġab ra
dy e
right o
ra a
ra ft
ra iny
ce nd
Ġsa cr
Ġsa vin
Ġbo a
Ġbo jar
ear l
Ġthem s
Ġsp ay
Ġsp ed
Ġsp ears
Ġsp urt
Ġsp ittin
Ġsp iffy
Ġsp ontaneously
op ossum
op ardy
Ġor an
Ġor nate
Ġor nery
am ation
ick i
be be
be gone
Ġback in
Ġback up
han e
ive ly
Ġco c
Ġco lon
Ġco arse
Ġover come
Ġover time
Ġover done
Ġover coat
Ġover stayed
Ġbook ies
Ġbook bag
ag alog
ag ascar
ag iy
she lves
ĠC el
ĠC lip
ĠC lyde
ĠC ummings
ĠC zechoslovak
ber ts
ast ron
ast rophe
but tered
uck er
mhm m
Ġcl ears
Ġcl earer
Ġel k
Ġfr ien
Ġti ppie
Ġti ppity
Ġti ppiet
Ġhow led
Ġal o
Ġal way
ĠB on
ĠB ad
ĠB un
ĠB ere
ĠB av
ĠB ret
ĠB ren
ĠB eener
ĠB iddy
ĠB utch
ĠB ashful
ĠB askin
Ġcar dam
ap eekaboo
ap tor
ĠD ex
ĠD od
ĠD iet
ĠD ance
ĠD oodle
ĠD zen
ĠD iner
ĠD airy
ĠD emo
ĠD inah
ĠD ewie
ĠD ukie
ĠD enton
ĠD allas
Ġne in
Ġne ur
wo ke
Ġpre cut
Ġpre viously
Ġpre ced
Ġpre sence
ĠS e
ĠS on
ĠS at
ĠS ere
ĠS ony
ĠS hop
ĠS ein
ĠS nack
ĠS asha
ĠS lick
ĠS assy
ĠS ax
ĠS iamese
ĠS kittles
ong ress
Ġbl am
Ġbl ob
Ġbl oy
Ġbl urry
Ġsh ir
ct ly
os et
Ġtr u
Ġtr ous
Ġtr ike
Ġtr io
Ġtr ilo
Ġtr uffles
Ġmo lars
Ġtell er
mm guh
ers aults
Ġwor my
Ġhad da
Ġhad dock
ny a
Ġpret e
Ġum hum
Ġar cha
Ġar ctic
Ġhapp e
Ġag u
Ġag ent
ere nces
bo il
ul ture
ul ated
Ġdr oopy
Ġdr ills
get y
Ġbu il
Ġbu oy
Ġbu gged
ang els
ang led
ang ston
Ġcom ical
ĠA j
ĠA ly
ĠA ida
li x
li ked
Ġgu ga
uff le
ĠR in
ĠR ic
ĠR ome
ĠR ound
ĠR oose
ĠR anger
ĠR ean
ĠR ico
ĠR iva
Ġcook books
Ġman es
Ġball game
ĠJ ump
ĠJ ama
ĠJ ull
ĠJ eep
ĠJ aws
ĠJ ude
ĠJ uli
ĠJ ordon
ĠJ ocko
ĠJ edis
ĠJ acqueline
lor dy
ump apa
Ġlo x
Ġlo lo
Ġlo vins
Ġhand in
Ġhand ling
Ġhand ica
Ġhand cuffs
hic cup
Ġho key
Ġche che
Ġche ery
Ġche que
lp ha
lp lp
el se
el ice
el sh
pe anu
Ġtalk aphone
Ġfl ick
Ġfl ied
Ġfl ops
Ġfl apping
Ġfl icker
Ġfl appin
iss ant
Ġsit es
Ġgirl friend
Ġbr i
Ġbr ang
Ġbr rr
Ġbr ussels
Ġpe nal
go lly
Ġwater in
Ġano th
Ġfood ie
ĠN ot
ĠN ose
ĠN ada
ĠN ature
ĠN ative
ĠN icol
ĠN ixon
ĠN eresh
ven ge
ĠT ree
ĠT oot
ĠT hey
ĠT opher
ĠT ata
ĠT uppy
ĠT onto
ĠT inkerbell
ĠT agalog
ĠP j
ĠP ed
ĠP ost
ĠP aper
ĠP eekaboo
ĠP ull
ĠP ring
ĠP ico
ĠP orky
ĠP armesan
ĠP ablo
ĠP embroke
ĠP illsbury
ĠL am
ĠL os
ĠL ike
ĠL ander
ĠL ila
ĠL obster
side walk
Ġsha dy
Ġcha ndelier
ĠF ore
ĠF ive
ĠF eb
ĠF ield
ĠF airy
ĠF urry
ĠF antas
Ġsc ub
Ġsc ored
Ġsc uba
Ġsc atter
Ġsho bee
Ġsho ji
of t
ist ics
eet s
Ġqu a
Ġqu ills
Ġgre a
ĠChi le
co b
co e
co ve
co vers
co con
Ġmouth ie
Ġdoll ys
Ġwon ders
pl a
pl ug
eas ily
Ġpicture d
Ġgr unt
Ġgr umbled
Ġgr innin
ug hes
Ġcr i
Ġcr ate
Ġcr itters
Ġcr outons
Ġcr angrape
Ġcr ouched
ĠG or
ĠG all
ĠG ree
ĠG ame
ĠG ale
ĠG rocer
ĠG ordon
ĠG adget
ĠG abriell
ĠG ladys
ĠG rietje
ĠG alact
Ġle vers
pen nies
Ġpro gressive
Ġpro ceed
Ġmin or
Ġmin nows
ung les
Ġmak ers
Ġcat ched
Ġcat astrophe
ob ows
ob edient
Ġhead light
Ġhead aches
eel s
Ġsw atter
ble w
Ġbit er
Ġmilk y
Ġmilk shakes
Ġsm acked
ade hr
Ġby pass
Ġbox ing
Ġbox er
Ġunder st
ĠH ay
ĠH ere
ĠH undred
ĠH ello
ĠH airy
ĠH edi
ĠH orner
ĠH ooligan
ĠH ettie
ĠH ughes
Ġv at
Ġv eter
Ġv rr
Ġv ivid
Ġv iol
ĠE at
ĠE gg
ĠE ji
ĠE lenore
Ġen thus
Ġhoney comb
Ġsleep ie
Ġsleep ies
ĠMark et
ouch ing
Ġbat ty
ip ating
Ġred uced
Ġwalk ietalkie
Ġhear ty
Ġz ed
Ġz supa
ge ometry
Ġstart le
Ġex ecutive
Ġbre ather
Ġfoot ed
est e
Ġold en
end a
ous ing
ent ive
ent imes
Ġbefore hand
Ġkid die
Ġkid nap
Ġtea l
ac as
Ġna st
Ġna iled
Ġna ppity
ri ors
ri ots
ri vet
Ġpart ial
Ġgreen ish
ma chine
Ġfeet ies
Ġbreak able
aw bers
aw rence
Ġwh irl
Ġwh irling
ĠRoss ly
Ġch ugged
Ġch ugga
Ġro ver
Ġro les
ĠK n
ĠK no
ĠK ong
ĠK ix
ĠK angaroo
ĠK LM
ĠK alin
ĠK ista
ĠK eets
ĠW at
ĠW il
ĠW oe
ĠW iffle
ĠW itsky
ĠW ollen
Ġapp lic
Ġapp alled
Ġint ended
Ġegg shell
ti katika
lean s
Ġsl it
Ġsl ings
Ġsl ided
Ġsl icing
Ġsl osh
Ġsl aves
Ġsl inkies
Ġbea dy
Ġbea ks
Ġsu pple
Ġsu ction
Ġde ir
Ġde cl
Ġde fl
Ġde fine
bit ing
wait in
Ġtra m
Ġtra pping
man s
Ġgl ide
Ġgl ance
Ġgl ands
Ġpage ant
Ġcho c
Ġcho ir
cl ass
cl ub
cl appie
Ġfix able
ger ms
Ġsqu oosh
Ġsqu ealed
for ks
Ġbad ger
Ġbus s
Ġbus hed
wow s
Ġclean ers
Ġclean est
Ġtouch down
Ġpot a
Ġpot ats
Ġpot ata
Ġpot tery
Ġdi ab
Ġdi ag
Ġdi pple
Ġsk ins
Ġalright ie
Ġpan ting
Ġpan el
ple ments
Ġmove ments
Ġfavor s
Ġpaper boy
Ġfire fly
cle mson
Ġstr ut
Ġstr ict
Ġside burns
Ġfeed back
Ġpen sive
Ġpen ises
ied a
bl a
bl ub
ib les
ib ilities
Ġsand man
ci ble
Ġam o
Ġam used
Ġam igos
other ium
ant e
ane ous
ane mone
Ġcorn ed
Ġfell ed
Ġpar ading
Ġpar ades
col t
col ates
Ġhorse y
ctor s
Ġhi ves
Ġclo ak
know s
fr ied
fr uf
Ġbab oo
Ġbab blin
ex pl
sp oo
sp are
sp ins
sp icy
sp orts
sp uds
sp eedy
br ick
br ontosaurus
any how
Ġwash rag
Ġbow ed
Ġbow tie
Ġbag pipes
was hed
Ġcoffee pot
Ġswim my
aff e
thes is
fast en
Ġtick lin
yay ayay
Ġfarm ing
Ġun cover
Ġun certain
Ġun hook
Ġun fair
Ġun known
Ġun snapped
hum b
oun tains
night in
ia sed
ls ea
Ġem ploy
sc oo
sc ra
sc ade
sc rib
sc rap
Ġtail or
Ġdis c
Ġdis cs
Ġdis eases
Ġdis gusted
Ġunt ill
Ġlots a
Ġblack s
od el
od gy
tain ment
Ġbang er
per a
ten nis
Ġcon fl
Ġbowl er
Ġfinger paint
Ġgrow led
Ġsun flowers
ph ph
Ġton es
Ġyum s
Ġyum mies
Ġmom mas
act ion
act ory
Ġgi ver
ĠFr oot
Ġpr icked
Ġcir cling
Ġsoft est
ile ne
gu ggies
Ġbar rier
cy l
ĠO l
ĠO ink
ĠO ak
Ġdrive d
cher ries
Ġban ister
Ġbrown er
Ġaw a
els z
ans y
ans wered
fe ld
Ġdress y
Ġscare dy
Ġloves eat
Ġpat ties
Ġpat riotic
Ġgra iny
show s
bur gen
every thin
Ġsn outs
Ġgar a
Ġgar f
Ġgar land
ĠEr li
open ed
gy psy
Ġboo ba
Ġten s
wha a
wha daya
Ġsnow flakes
gre edy
iet nam
Ġunderstand able
ĠChrist ian
Ġac re
Ġneat er
Ġneat est
Ġwood cut
Ġwood chuck
yup yup
hur ting
Ġleg al
Ġpump er
unt eered
Ġbump in
Ġbump kin
Ġbump ety
lea ving
ling ton
Ġneck tie
Ġve g
Ġcur t
Ġcur tsy
Ġround s
Ġinst antly
Ġpark way
Ġfootball s
Ġcheck up
fl ake
fl ess
fl ash
fl ags
car ries
Ġfat test
Ġfat tening
Ġsea shell
Ġim plements
Ġdro pper
heart s
ĠGrand mommy
Ġpin ches
Ġty rannosaurus
Ġpresent ation
ĠV i
ĠV is
ĠV el
ĠV ect
ĠV illage
ĠV alley
ĠV icki
Ġtoast y
Ġmoo o
ĠMar cus
Ġet hic
Ġcomb ie
Ġjack olantern
og ne
quack quack
Ġblanket y
Ġrecogn izing
Ġper oxide
ĠRoman ian
ĠMat ilda
ale y
Ġdes erves
Ġbought ed
cr is
cr oo
cr ashed
cr icket
har t
Ġdun es
Ġdun ked
bre a
bre aking
bre aker
bre athe
Ġatt entive
pick yau
Ġpay day
Ġcraw fish
atur ated
sy rup
dr ing
dr ill
dr ool
dr unk
dr ums
Ġcour thouse
Ġmar ched
Ġmar athon
Ġmar riage
Ġmar acas
Ġkick ball
ĠAn ky
da i
ĠSt ation
ĠSt arf
oink oink
Ġaf ar
Ġsnack ing
Ġdump ling
vin cet
exc iting
Ġser ves
Ġser geant
Ġstar ter
after wards
Ġele ction
Ġele ments
Ġele vating
clock s
tr an
tr ouble
fish in
vel t
Ġwheel ie
Ġwheel chair
Ġmotor s
ĠĠ ĠĠĠ
Ġboom erang
Ġpet rified
Ġsince re
ĠMon ya
Ġwa iled
Ġsli ppin
ign ia
Ġwha a
Ġwha m
com mer
com mon
Ġshort ened
feel in
ĠCar roll
ĠCar rots
Ġcomp re
Ġcomp an
Ġsquir ter
Ġtw y
Ġtw irly
Ġpee you
de liver
Ġeng aging
Ġfre edom
Ġfre scade
Ġquestion ing
The a
jump in
Ġband its
Ġri pen
Ġbeg innin
Ġmed allion
Ġra i
Ġra fts
choo s
Pooh bear
tick ling
Ġda et
Ġnur ture
Ġnur sed
Ġrub bin
rel ation
rel ated
Ġtight ened
Ġpres erve
ĠIn tern
hom pson
Ġad ap
Ġad ject
gr ounds
ĠSp ain
ĠSp ock
ĠSp rat
ĠSp uds
Ġdust ed
anger ines
sl iced
sw eaters
sho p
sho el
amp les
water ing
ĠDavid al
Ġtrip od
cheese burger
ugg er
baa aa
Ġcer amic
vers ation
Ġstack in
Ġvo le
Ġvo id
squ awk
ĠBr ady
Ġla unch
Ġyoung ster
Ġfill in
Ġcal med
Ġcal ico
Ġstor ms
box es
ĠWednesday s
uc key
Ġkill s
Ġcap able
Ġcont ract
Ġcont rolling
Ġsign ific
Ġgoose berry
Ġpack aged
Ġbra g
ding er
Ġsink ing
Ġsur ge
kno bs
ĠY uppy
ĠY ager
ĠY vonne
Child ren
ĠTuesday s
ĠAl bany
ĠAl icia
ĠBar b
Ġhon or
Ġhon ked
Ġhon orable
Ġer mine
stay ing
Ġrac in
gen gen
ĠAlex is
ric hes
Ġgum mies
Ġjo ckey
ĠZ su
ĠZ ulu
pig tails
stick in
Mar issa
Ġbur g
Ġbur ying
Ġart illery
ĠPat riot
wr inkly
Ġplant ation
Ġwat cher
urt is
call s
sty le
Ġwild life
Ġpir anha
ĠMa ureen
Ġind ivisible
Ġrais ons
cin ella
tur quoise
ru ly
bu ying
ĠGra pe
ĠGra cie
Ġcamp in
Ġrad ios
iv ity
iv alent
Ġmeow s
Ġpor cel
Ġpor cupines
Ġacc ount
Ġacc used
Ġacc ustomed
Ġsuck ers
Ġmeas urin
Ġdig ital
abr ics
Ġpoo ie
Ġpoo ch
Ġsneak s
fort unate
seven th
Ġcrib s
ĠDan cer
blow s
count ry
Ġcab bages
Ġpitcher s
fer red
Ġrel ieved
num mies
ĠKat rina
peanut butter
nut r
hand le
hand ed
Ġger my
Ġdrum sticks
Ġrubber s
Ġpony tails
Ġbull shit
Ġninet ieth
Ġfe isty
Ġcol ogne
cook in
Ġcor ral
Ġcor relation
ĠBe c
ĠBe anie
Ġinter n
Ġwoo ed
Ġspank ings
Ġpass es
Ġpass port
woo o
Chr issy
Ġprot est
Ġswitch in
Ġgross es
Ġcough in
ĠHar lem
po ison
ĠShe ba
Ġgener ated
Ġparent al
Ġconf uses
str um
Ġsmoo ches
Ġsmoo shed
Fr iend
Ġshelf s
Ġrep orts
hor rible
par ading
amie n
Ġprom pt
Ġprom otion
Er ie
Ġchee ky
az a
Ġama zes
pur se
Ġdep r
bor o
Ġrob ins
Ġrob ots
sheep s
wash cloth
ĠMan hat
Ġyuck a
Ġchar ts
Ġchar mer
Ġhee led
Ġspray in
egg nog
ĠGr ound
ĠGr ouch
ĠGr inch
Ġteas er
Br ite
Ġbi plane
Ġrow ing
Ġposs essive
Ġdist inction
Ġbasketball s
hors ies
must a
must h
Ġbean bag
ĠAr ound
ĠAr chie
ĠAr lene
ĠAr lington
Ġexplain s
Ġbend ed
Ġshot gun
Kay lia
Ġund erest
tea chers
zip orah
Ġpow ered
Ste f
Ġiron wood
ĠBo ys
ĠCo llege
di pple
Ġorder ing
uss in
bon ked
ĠBen j
ĠBen ji
goo ey
goo gaga
Ġtest icles
Ġwip ie
Ġass ess
rock in
rock er
rock et
Ġmain tain
Ġpost man
Ġspr ings
Ġelect ro
wa x
wa ves
Ġwoods man
Ġaqu a
Ġpos itions
ĠSha ri
ĠSha ky
ĠRo ar
ĠRo ad
plan ting
Ġseas hore
Ġye lp
ĠGre gory
ĠGre mlin
Ġslee k
Ġmall et
ĠNor folk
Ġlou ra
Ġlou ng
Ġcoun ters
since rely
liz ards
ĠBl ow
ĠBl acky
yn thesis
inst ru
sk ate
Ġgoo sie
Ġpeep ing
Ġpeep ish
Ġthick et
Ġcorrect ing
Ġcrow ds
cover ing
ground hog
crack ery
build er
ĠBer mud
Ġscoop ing
Mary ann
ele ct
Ġed ging
mo dern
Ġma xim
Ġfrustr ation
Ġsniff in
Ġsniff le
Ġsniff les
con versation
wor ms
ching ao
bat tle
high chair
Ġbun ting
dry er
ĠMay flower
squeak ing
sn uggle
Ġtu dod
Ġsel fless
Ġfuss ies
poo s
Ġhugg in
Ġcons ervatory
Ġphoto genic
sweetie pie
Ġres idents
vie wed
ĠHan ke
Ġartist ic
snow y
Ġlaw yers
ĠFrank ie
Ġpinch ie
dump ing
Ġax es
Ġinc ident
ĠEm peror
Ġcluck ing
Miss y
break able
Ġprincess es
El thea
mat ches
ĠQu ick
Ġaut obot
Ġko alas
Ġbrave ly
Ġinteract ed
Ġspark lers
Ġspark lies
Ġins ight
Ġins ert
Ġins ignia
ĠRe c
ĠRe bel
ĠRe vere
Ġvar ies
Ġvar ju
pain ted
Ġthread ed
sea m
tra ffic
Ġthre ats
Ġexp and
Al an
Ġcig ar
Ġclick s
ĠDr ury
Ġunscrew s
Ġtim id
ĠFl opsy
Ġzero es
Ġspeed boat
Ġwrist s
ext reme
Ġspo ken
scr umptious
Ġcreep s
Boo ger
Boo booneen
tw ice
Ġsled ge
Ġscra wny
Ġcupboard s
fruit s
mag azine
wuh wuh
Ġmap s
Ġfli ppers
Ġscrub s
ĠPr issy
ĠPr ancer
Ġaddress ing
Ġcoo coo
road block
ĠAll igator
heehee heehee
su ds
su pposing
Ġver vop
Ġresp ir
cra per
sand als
ĠLes ter
idd les
ĠDick ie
ĠPiggy winkle
Ġraw r
Ġwashcloth s
Ġrout ines
asp irin
achoo achoo
Ġdigg ers
istic ated
pol ka
Ġhoop la
Ġstock in
Ġpine cones
ĠSqu igley
ĠPl anet
Ġexam ine
Ġexam ined
Ġdevelop ing
mar ble
Ġduh m
Ġcond itional
hion ed
agag agaga
ĠFo z
Ġlef ty
scratch ing
Nor strom
ran ch
Ġhunt ed
star fish
Ġmater nal
Ġprick ers
Ġinvol ve
Ġstretch in
cour ting
tee ny
Ġshi vered
Ġbon kin
Ġfoo ter
abab abababa
Ġgrad ually
Ġgrad uated
Nan na
uk uh
Ġtil ts
Ġexpress ions
point ed
Ġoper ate
Ġoper ated
Ġoper ating
hipp ety
Ġident ified
Le na
Ġtat le
Ġtat tle
Ġsym phony
Ġker pl
ĠDay ton
ĠKer me
Ġsugg esting
pass y
Ġscoo ters
Ġkiddo s
Ġflashlight s
bull shit
motor cycles
Ġmid st
Ġpit a
ĠPet ra
ĠPet ers
ĠPet rie
Ġwax ed
Ġisland s
ĠTr uro
ĠHo gan
Ġvol unteered
Ġcris pies
Ġcommun ion
Ġgravit ating
sli ppy
toot sies
rec ording
Ġbreast s
Ġdef ending
Ġmodel ing
Can ada
Mac y
Mac kenzie
bath robe
yi ppee
Ġsight s
Ġcent ip
Ġcent uries
Ġthr one
Ġthr asher
ĠSher ine
ĠSher man
ĠSher lock
Ġlabel ing
je wel
Ġthump s
Ġfort night
Ġfort une
Ġfort unate
Ġscar ves
Ġfreight er
Ġbalan ces
Mc Gregor
cre amy
Ġsen sor
Ġsen ses
Ġsen ior
Ġmul ch
Ġliqu ids
Ġpleas ing
ĠBal timore
Ġsunday s
Ġpure e
Ġbarbe c
fill ing
mi ah
Ġbund le
ĠNat alie
dough nut
saw ing
ino chio
sel ina
gold en
broom s
Ġwhisp ers
Ġdirect ing
Robin hood
Don ovan
Ġew ie
ĠSh oots
Ġguard ing
ĠHam burglar
gum gum
Ġdarn ed
Ġscrib blin
intst one
Ġroo mm
ĠMo she
ĠAna heim
Ġintell ect
Ġdub ba
Ġfer ret
Ġfer ment
Ġann ual
Ġsaving s
ĠBub ble
ĠRos coe
Ġleop ards
Ġvot es
Ġdem ol
cot ash
Ġtit les
Ġmult ip
ohoh ohoh
ohoh oho
Ġev oke
Ġmeerk ats
boing y
ĠTar get
Ġopt imistic
ĠCle veland
Ġclam s
Fran nie
Ġbay berry
stret ching
Ġur f
Ġanno y
ĠRon o
Ġsuc cotash
Ġrecommend ed
olog ist
Mel anie
Ã¡ bor
Ġwaddle d
Ġcust om
Ġmot el
chi huahua
Ġbabysit s
Ġcli ppity
ĠBonnie mae
mail man
ĠZack ary
smart ie
Ġprofession ally
Ar nold
Pe ggy
cht cht
craw lin
Ġsno re
Ġmass ive
Ġshield s
Ġbreed s
ĠPopp op
sur fboard
Ġharm less
Ġkak i
Ġspons or
ĠAnt onio
ĠAnt arctica
Ġappro ve
Ġtrave led
Ġdin os
Ġcas ual
Ġpy thon
Ġcliff s
Ġchallen ging
Ġmicro bacteria
Ġtransc rib
Ġinfant ry
Jim iny
ais er
bop bop
uf asa
vac ation
Ġsill ier
ora x
Ġstair case
chug chug
ĠCor vette
ĠBry ce
ĠDel ilah
Ġdiv iding
Ġtenta cle
Ġacro bats
Ġterm ites
swallow ed
Ġconsider ation
Ġdevelopment al
Ġdevelopment ally
Squ are
tall er
Ġtour ists
Ġtour nament
Ġcudd ler
Ġport ion
Ġport ray
Ġcarpen ters
essor i
Ġexha ust
Ġexcl amation
clos et
Ġunlo ading
Ġholler in
Gr ouch
pres ident
Ġtack led
hol idays
Ġpred ator
ĠOr bison
ĠOr leans
googoo goo
dodododo dododo
cough s
izz erza
Ġmi aw
eron ica
umum um
ĠCol umbus
ĠBrook s
ĠBrook line
ĠRose mary
ĠLuc ifer
ĠFisher price
Ġexhibit s
ĠChick ie
batter y
Ġaffect s
Bl anche
Lin us
Lind s
Ġswell ing
Ġnectar ine
Ġnectar ines
ĠSu ess
ĠLi jah
Ġsnugg les
comp any
Ġautom atic
sandw iches
Fred dy
Ġtart ar
Ġplat ypus
ĠMin nehaha
Ġskill et
Ġunbutton ed
cran berries
bom ber
dra gon
ev idently
Ġcul tural
Ġfoss ils
Ġsty les
Ġret ire
ĠBus ch
Ġhandful s
ĠFall ine
Ġcompet itive
police men
Ġcondition ing
Ġvolcan oes
Jon ah
Rock abye
bas ic
fas hioned
pas se
Ġir is
Ġir ish
Ġdunk ing
ĠCom m
ĠCom mon
Ġfrank ly
ĠTo var
ĠTor toise
ĠFang or
Ġswee ps
Ġdiscover ing
ĠOlymp ic
Ġfirm ly
Ġpsycho l
Jay lyn
Ker ri
La uren
Tar ci
jeep ers
learn ing
rid in
sim mer
Ġmim icking
Ġraff i
ifi able
rob bers
ĠBrend an
Ġchem ist
ĠHoo ver
Ġphon ics
Ġrearrang ed
cons idering
pra ise
vv v
Ġsnot ty
Ġwann oo
wok ka
ĠNe il
ĠTan ia
Ġprim arily
ĠBron cos
ĠLouis iana
Ġdemonstr ation
Jess ie
som ersaults
sle dding
Ġbam boo
oooo oo
Ġmut t
Ġpis tachio
beg ins
beg inning
ĠDes ie
Ġbugg er
Ġbugg le
Ġvag y
ĠEle na
Ġchirp ing
Ġintrig uing
Ġbullet in
Ġinsist ed
Har vey
Sleep ing
nun u
runn in
Ġsuh mm
Ġdup lic
Ġcong ratulations
Ġster n
Ġster ile
enjoy ed
ĠDeb orah
ĠPur im
ĠPro vincet
Ġchap el
Ġqueek a
spr ink
spr inkle
ĠZeven burgen
eyeb row
Ġshiver ing
Ġchatter ing
Ġinflu enced
cast le
dun no
gna gna
tim er
Ġteen s
Ġbaw bo
Ġges undheit
Ġmig r
Ġpap itas
nation al
Ġrump us
Ġja zz
thr alled
Ġfrown ing
ĠRiver side
ĠJu an
ĠPal ace
ĠFor ce
Ġbrea thes
Ġchuck led
ĠWater loo
clam s
Ġdistingu ished
Ġtwitch ing
Ġquestionna ires
Ġceil in
lasag ne
Ġsymbo ls
Ġsymbo lic
Ġreflect ing
Ġannounce ments
Ġdescript ions
cop y
diam onds
prop er
Ġping a
Ġfuck in
Ġinn ings
Ġbla ze
Ġchamber s
Ġsequ in
Ġsequ ence
Ġunh ooked
Ġdisgu ise
Ġdisgu ised
ĠZay res
safe ly
Ġwarri ors
Ġdumbbell s
Ġshrie k
Deb bi
Fo am
Sc out
Sab ina
pine cones
Ġtun er
Ġgna shed
Ġcack le
Ġrust le
Ġrap id
Ġresol ution
uman ji
Ġplung er
Ġplung ed
Ġplank ton
ĠMog ways
Ġalter nate
ĠSand man
ĠPor cinella
Ġnav igated
spank ing
Ġunzi pping
gym nastics
Ġcram ps
Ġgergo k
Ġcarniv ore
Ġencoun ters
Ġincorrect ly
Ġpediatric ian
Bry ce
Ġsumm ers
Ġgaz elle
Ġfuse lage
ĠIng rid
icol ored
Ġstroll ers
Ġner d
uro chrome
unct ious
Ġcoff ees
ĠCher ioos
Ġarri ving
Ġarri ves
elbow s
Ġbron co
ĠFig aro
ĠFire bird
ĠGoo sie
Ġchor us
ĠKenn ipoo
Ġskys crap
Ġemp has
ĠFruit y
ĠVer non
decor ate
Ġtransit ion
hallehalle halle
Kellogg s
Mer maid
Ore os
loose n
Ġamm unition
Ġmes han
ĠIr ish
Ġbene fit
Ġjing les
Ġabandon ed
ĠCorder oy
ĠBu ild
ĠDro id
ĠDisco very
Ġdrift ed
ĠRuss ia
Ġpud gy
ĠTweed le
ĠHigh land
Ġvi aduct
ĠEls a
ĠWr iting
Ġdeb ate
yahya hyah
Ġmusk rat
Ġcandid ates
Ġsyll ables
Ġtuxed o
Ġstreak s
Ġembarrass ing
ĠZevenber gen
Cha utauqua
Cur ly
Denn is
Es ther
Mass achusetts
Tex as
Tinky winky
Yod a
bv bv
bz bz
btha btha
biscuit s
fil m
glor ify
ihan na
mol asses
rasp berry
sile nt
ÉĽ t
Ġves ts
Ġavers ion
Ġgul f
Ġhaz ard
Ġhagg ard
igno re
ĠIm perial
Ġrelev ant
abudd abudd
Ġjac uzzi
Ġjalape no
ĠMI T
ĠMock ingbird
Ġbutts ie
ĠCost ello
Ġbloss oms
shk shk
Ġcrum bling
ĠGlen n
ĠHigg ens
ĠKoosh ball
Ġdisin fect
Ġtrem ble
Ġgraphic s
Ġethnic ity
ĠStea mer
ĠCarib bean
Ġarticho ke
ĠMcCar thy
Ġprivile ge
Ġsuffoc ate
Bel uga
Den ise
Hung ary
cass ette
del ish
jor ie
mall ard
serv ice
wast ebasket
Ġach ieve
Ġther mostat
Ġdus k
Ġdrow sy
Ġgau ze
Ġmong oose
Ġpitty pat
Ġost riches
Ġinvin cible
Ġult imate
Ġoft entimes
Ġnodd ed
Ġrehears al
abadab adoo
chill ing
Ġsoph isticated
belong s
Ġcogn itive
ĠCelt ics
Ġclin ic
apric ots
Ġnegot iate
ĠShaw na
Ġcaller pillar
ĠTeet ee
ĠHum or
ĠEliz a
Ġpopp a
Ġwhir led
Ġdeci bels
Ġscrewdri vers
Ġpettico at
ĠCaro lyn
grill ed
Ġindig estion
Ġaccur ate
occasion ally
Ġgymna stic
ski ing
Ġinspe ction
spec ific
ĠHokey pokey
Spark y
ĠMoha mmed
oppos ite
Ġgovern ment
ĠTemetri us
ĠGriffith s
Ġwhatchamacall it
Cru z
Court ney
Fer die
Ir ma
Mog way
Obad iah
Ple nty
bir dy
cud da
event ually
ghet ti
hÃ¡ ny
kol ÉĽt
zsip i
Ġwie ner
Ġbache lor
Ġbumbo bee
Ġcoot ies
Ġlear nt
Ġlones ome
Ġmout hing
Ġmering ue
Ġmascar a
Ġpne umonia
Ġoder t
icatur ization
Ġramb unctious
Ġecos ystem
Ġrefl ux
Ġnie ces
Ġnitro gen
tamb ourine
Ġsacr ifice
ĠCzechoslovak ia
astron aut
Ġtippiet oes
ĠBere nstein
ĠBav arian
Ġcardam om
ĠDemo crat
ĠSein feld
Ġtrous ers
Ġtrilo gy
ĠRoose velt
ĠJull iet
Ġhandica pped
Ġpenal ty
ĠNicol as
ĠPring le
ĠFantas ia
ĠGalact ica
Ġveter in
ĠKista ment
ĠWoe begone
ĠWollen sak
Ġsupple ment
Ġdefl ated
ĠVect rex
pickyau p
ĠStarf all
ĠIntern et
Ġadject ive
ĠZsu zsa
Ġporcel ain
ĠBermud a
extreme ly
izzerza zzer
ĠProvincet own
Ġskyscrap ers
A S
A T
A www
A qu
A ggie
A gra
A lle
A von
A ustralia
A lpha
B u
B ay
B al
B ell
B ra
B read
B ri
B ud
B eener
B ubby
B aba
B anana
B iscos
C hat
C ow
C ome
C ho
C al
C andy
C oke
C hop
C ooper
C ousin
C urtis
D in
D ig
D id
D oug
D au
D el
D av
D ana
D rew
D ex
D inosaur
D over
D oodle
D olly
D erek
D ragon
D awna
D ixieland
D amien
E n
E at
E lla
E ddy
E van
E rika
E skim
E vans
F ive
F isher
F lynn
F ourth
G oo
G or
G en
G il
G ret
G oose
G ander
G len
G inger
G wen
G epetto
G hostbusters
G ena
G arg
H y
H on
H er
H ic
H undred
H enny
H obbit
H unter
H odgy
I vy
I nez
J a
J s
J ose
J ere
J edi
K ong
K ung
K immy
K aaee
K anga
K arl
K LM
L y
L ea
L en
L ise
L ove
L over
L ala
L antern
L ibby
L ightyear
L owly
L egos
M i
M ea
M um
M ore
M us
M ose
M aura
M ash
M ars
M ason
M useum
M essy
M ercedes
M orty
M othra
M ondale
M ikie
M CA
N ow
N ot
N inny
O k
O l
O oh
O ma
P an
P oh
P ar
P ie
P ro
P ep
P uff
P ookie
P ony
P aj
P enn
P res
P ole
P rairie
P lymouth
P haedra
R as
R em
R anger
R angy
R upsje
R yden
S e
S k
S an
S and
S ho
S aul
S ummer
S ully
S ala
S ela
S nu
S idney
S croo
T ed
T ye
T her
T ouch
T oy
T ower
T ara
T weed
T oys
T iffany
U s
U nder
U ba
V a
V an
V ad
V el
V innie
V iv
V alentine
W as
W ater
W ait
W ard
W izard
Y ay
Z izzerzazzer
a ho
a we
a ire
a frican
a has
b ay
b en
b ys
b illy
b ins
b oof
b ummer
b ums
b uzzy
b ingo
b als
b wa
b eats
b bies
b ounder
b uffalo
c it
c ell
c uck
c www
c ater
c ine
c ate
c ous
c aking
c ello
c rows
c enter
c ourt
c cas
c uddly
c uddle
c ords
c adoo
c auliflower
d ink
d ood
d ive
d der
d rew
d ier
d eter
d oopsie
d isco
d uced
d udud
d almat
d esserts
d affod
e ck
e ch
e ur
e mer
e gy
e cho
e olog
e woks
f ea
f al
f ommy
f ool
f ac
f rown
f uzz
f ert
f ence
f erry
f aces
f oe
f ief
f ety
f uel
f erence
f isher
f aucet
f aced
f icent
g om
g ic
g im
g ag
g oop
g ng
g unk
g room
g la
g love
g achoo
g agagagag
h us
h ound
h ung
h oof
h ulk
h onda
h ulahoop
i h
i ated
i astic
i ors
j j
j z
j immy
j unct
k ies
k ings
k la
k ites
k hoo
k new
k ran
k asha
k awz
l u
l it
l at
l itt
l ane
l try
l unk
l iddle
l ala
l ops
l iter
l adeh
l oft
m ou
m ow
m ot
m ak
m ah
m gu
m pt
m ats
m ales
m ummie
m etery
m aple
n illy
n ib
n oun
n anny
n ggo
n enen
o be
o so
o ak
o kes
o ctopi
o bey
o lph
p ap
p ite
p atch
p ti
p oof
p ant
p ars
p aws
p ray
p uss
p ressed
p hys
p addle
p ounce
p rec
p unky
p hew
p omegran
p avement
q r
r or
r im
r ust
r one
r www
r ous
r ant
r umble
r adi
s ou
s ch
s ake
s il
s igh
s ings
s ling
s lee
s keleton
s aucer
t eed
t eas
t oss
t rop
t ries
t ears
t alked
t ops
t ips
t acks
t acky
t welfth
t angerine
t angerines
u ht
u ine
u ment
u elson
v h
v u
v na
v ot
v ane
v ase
v ich
v ial
v alentine
v ably
w ig
w ist
w oops
w eep
w alked
w aste
w itches
w xy
w awa
w artz
x er
x ophone
y am
y gallop
z in
z ook
z os
Ã ¶
Ã Ń
É ¹
É ĳn
Ġ '
Ġ ide
ĳ nt
Ľ kolÉĽt
Ġt es
Ġt and
Ġt ep
Ġt aper
Ġt rench
Ġt inse
Ġt arts
Ġt wen
Ġt tt
Ġt eepy
Ġt etra
he ha
he ll
he nd
he ld
he less
ou h
ou ston
ha l
ha ra
ha ble
ha za
Ġa st
Ġa hm
Ġa ro
Ġa ster
Ġa erob
Ġa ero
Ġa kk
you t
re p
re na
re ak
re turn
re ction
re ptiles
in x
in ty
in ney
in cy
in ated
in visible
Ġw are
Ġw ick
Ġw il
Ġw oop
Ġw ol
Ġw akin
Ġw uss
Ġw inkle
Ġw omp
Ġw ishy
Ġw awawa
Ġw inking
Ġw abble
Ġs itt
Ġs ce
Ġs unk
Ġs uey
Ġs aturated
Ġthe ories
it n
it he
it ask
it uate
it ussin
on is
on struct
Ġd v
Ġd it
Ġd ut
Ġd and
Ġd ood
Ġd if
Ġd ill
Ġd oug
Ġd well
Ġd ag
Ġd eed
Ġd oop
Ġd ings
Ġd oodood
Ġd uel
Ġd za
Ġb ice
Ġb il
Ġb ion
Ġb red
Ġb ooked
Ġb aj
Ġb inky
Ġb ashing
Ġb wah
Ġb onds
Ġb wack
Ġb asty
an ed
an im
an ti
an nie
an cing
Ġg ing
Ġg us
Ġg am
Ġg oop
Ġg ist
Ġg ung
Ġg est
Ġg utter
Ġg ooky
is ie
is ure
is ons
is ces
is cr
is kie
is pra
is holm
is chman
Ġc ues
Ġc rops
Ġc uffed
oo g
oo boo
oo woo
oo guh
oo booboo
Ġl ice
Ġl ep
Ġl eek
Ġl oss
Ġl ass
Ġl oops
Ġl air
Ġl aught
Ġl aws
Ġl ux
Ġl alala
Ġl enses
Ġm it
Ġm ea
Ġm kay
Ġm hi
Ġm ount
Ġm ugs
Ġm ai
Ġm ops
Ġm wuh
Ġm ien
Ġm unched
Ġm ands
Ġm uggy
Ġp ho
Ġp unk
Ġp hr
Ġp has
Ġp oodles
Ġp sal
Ġp omp
Ġp ester
Ġp imple
Ġp ixie
Ġp epe
Ġp achy
Ġp hara
ing ly
ing dale
er ies
er ting
er rr
er oni
er genic
Ġf uh
Ġf ang
Ġf ate
Ġf iff
Ġf end
Ġf ears
Ġf iling
Ġf enn
Ġf ilet
Ġf lier
Ġf erv
Ġth ud
Ġth unk
Ġo at
Ġo th
Ġo bo
Ġo gre
Ġo iling
es es
es ad
es aw
ea u
ea w
Ġdo l
Ġdo ke
Ġdo ed
Ġdo th
Ġdo do
Ġdo rs
Ġdo rm
Ġdo cile
et es
et heless
Ġhe if
Ġhe ating
Ġhe dges
Ġhe ctic
Ġto le
Ġto te
Ġto da
Ġto lerant
Ġto ppings
ke i
ke ke
om est
om ps
om ino
Ġh unch
Ġh ym
Ġh ickory
Ġh unks
Ġh ohoho
Ġh ousing
Ġon sies
Ġha mme
Ġha irsty
se w
se x
se ye
se mic
se esaw
what tcha
or my
or ate
or ous
or ient
or ically
or atory
ve eta
le ction
le ischman
Ġgo on
Ġgo ed
Ġgo bl
ig en
ig ating
ig uel
ig uana
Ġin na
Ġin her
Ġin con
Ġin formed
id le
id ee
id ie
id ell
id ispra
ut ed
ut us
ut ti
ut ches
ut zy
the ast
the dr
the tic
ĠI z
ĠI da
ĠI chabod
ook iet
ee no
ee yay
na o
na u
na ri
na di
na dada
na dry
st hat
st ad
st ump
st ri
st ew
st oke
st udy
st ract
st roller
st eg
st atic
st uv
Ġk ap
Ġk ah
Ġk iki
Ġk uz
Ġk utz
now ledge
Ġwe h
Ġwe n
oh hoh
ar c
ar an
ar at
ar ra
ar ara
ar rett
Ġu f
Ġu ho
ic ts
ic ken
ic ient
ic ial
ic ircle
ow lets
Ġli v
Ġli able
Ġli mme
Ġli que
Ġwhat dya
at r
at t
at at
at able
at cha
at ched
ight y
ome z
ome dar
and al
Ġr as
Ġr op
Ġr age
Ġr igh
Ġr oman
Ġr ates
Ġr idge
Ġr anger
Ġr agged
Ġr ises
Ġr ising
Ġr arr
Ġr usted
Ġr ushes
Ġr ungs
Ġr isky
Ġr ural
Ġr ussian
Ġr utab
ld ing
here d
ir m
ir ting
ir go
ir ky
ir ial
ir aptor
ir affe
ad in
ad oodle
ad ult
ad ior
ad rip
ad oodoodoo
ad oodledoo
Ġdon ate
Ġno ble
Ġno ds
as ing
as us
as ped
as hies
Ġe re
Ġe wok
all ic
all ahas
uh oo
uh hu
ink s
Ġst oo
Ġst ab
Ġst im
Ġst ro
Ġst ash
Ġst unk
Ġst ile
Ġst itch
Ġst iles
Ġst ressed
Ġst yl
Ġst ubby
Ġst umps
Ġst uttering
Ġre ve
Ġre all
Ġre fr
Ġre play
Ġre wards
Ġre pro
Ġre pet
Ġre pu
Ġre heat
Ġre bels
Ġre tainer
Ġre venge
Ġbe f
Ġbe ck
Ġbe ca
Ġbe friend
Ġbe ware
Ġbe cuz
Ġbe cau
me o
me in
me erk
ho ck
ho ppy
ho lly
ho va
ho ckey
Ġme esy
Ġme nace
Ġcan y
Ġknow led
ab ra
ab wa
ab bi
ab racadabra
ab aloo
ab ubu
ab esque
al ine
al ms
al ayo
al righ
Ġsee ming
ood ew
Ġn illy
Ġn ond
Ġn umb
Ġn ines
Ġn ips
ie booshas
ch g
ch ins
ch ubby
ch rist
um yumyumyumyum
en y
Ġat en
Ġat oms
ed ly
ed ia
Ġj ou
Ġj ell
Ġj oom
Ġj immy
Ġj umble
Ġj aund
Ġj agged
Ġj ugs
Ġj ungles
itt ery
Ġup date
Ġshe ars
Ġshe dding
Ġshe pherd
th re
th ousand
th umper
th quake
Ġdid ya
im mer
do le
do ink
do gg
Ġpl i
Ġpl ast
Ġpl ier
Ġan em
Ġan ec
ust us
Ġnot or
ur ried
ur assic
un y
un ty
un ction
un cuffed
eat en
if ies
if iers
Ġout land
Ġall o
ĠM m
ĠM ake
ĠM are
ĠM us
ĠM ak
ĠM ain
ĠM ul
ĠM ent
ĠM anny
ĠM ami
ĠM isha
ĠM avis
ĠM aple
ĠM orton
ĠM ilo
ĠM uppet
ĠM uffin
ĠM ountains
ĠM ufasa
ĠM ighty
ry e
ind i
ind s
ind ent
ack le
ack nowledge
where ver
pp it
pp ered
pp ler
ill ar
ill ie
ill ian
ill ages
ill inger
ore n
ore r
ore scent
ter m
Ġgot chya
my ard
Ġy ow
Ġy ip
Ġy icky
Ġy ipp
Ġy enta
ta g
ta m
ta cles
ta ught
ta mar
ta uk
ice cream
Ġplay mate
ell ite
Ġher on
Ġher ald
Ġher ring
Ġher mit
Ġab s
Ġab use
Ġab sent
Ġab normal
can t
dy ing
hi li
hi yah
ra ven
ra gue
ra vio
Ġdown s
ce y
ce lena
ce metery
Ġsa i
Ġsa int
Ġsa van
Ġsa cred
Ġsa xophone
let on
let ale
Ġbo g
Ġbo on
Ġbo ppin
Ġbo ggies
Ġbo gey
ear lier
ear thquake
Ġsp ite
Ġsp ine
Ġsp ied
Ġsp ines
Ġsp itter
op at
op ter
op hane
hy dr
hy mes
Ġor al
Ġor ca
Ġor tho
am o
am an
be yond
Ġback grounds
il an
il ion
il gy
il itis
so y
so fa
han ger
Ġco li
Ġco la
Ġco iled
Ġover head
Ġover ripe
Ġover load
Ġover lap
Ġover heard
Ġover due
ĊĊ ĠĠĠ
Ġbook cas
ag la
ag gy
ag net
ag mire
ty pical
she et
she esh
ure ka
ure tor
ĠC ook
ĠC ir
ĠC as
ĠC omet
ĠC os
ĠC ock
[...]
