{"<s>":0,"<pad>":1,"</s>":2,"<unk>":3,"<mask>":4,"!":5,"\"":6,"#":7,"$":8,"%":9,"&":10,"'":11,"(":12,")":13,"*":14,"+":15,",":16,"-":17,".":18,"/":19,"0":20,"1":21,"2":22,"3":23,"4":24,"5":25,"6":26,"7":27,"8":28,"9":29,":":30,";":31,"<":32,"=":33,">":34,"?":35,"@":36,"A":37,"B":38,"C":39,"D":40,"E":41,"F":42,"G":43,"H":44,"I":45,"J":46,"K":47,"L":48,"M":49,"N":50,"O":51,"P":52,"Q":53,"R":54,"S":55,"T":56,"U":57,"V":58,"W":59,"X":60,"Y":61,"Z":62,"[":63,"\\":64,"]":65,"^":66,"_":67,"`":68,"a":69,"b":70,"c":71,"d":72,"e":73,"f":74,"g":75,"h":76,"i":77,"j":78,"k":79,"l":80,"m":81,"n":82,"o":83,"p":84,"q":85,"r":86,"s":87,"t":88,"u":89,"v":90,"w":91,"x":92,"y":93,"z":94,"{":95,"|":96,"}":97,"~":98,"¡":99,"¢":100,"£":101,"¤":102,"¥":103,"¦":104,"§":105,"¨":106,"©":107,"ª":108,"«":109,"¬":110,"®":111,"¯":112,"°":113,"±":114,"²":115,"³":116,"´":117,"µ":118,"¶":119,"·":120,"¸":121,"¹":122,"º":123,"»":124,"¼":125,"½":126,"¾":127,"¿":128,"À":129,"Á":130,"Â":131,"Ã":132,"Ä":133,"Å":134,"Æ":135,"Ç":136,"È":137,"É":138,"Ê":139,"Ë":140,"Ì":141,"Í":142,"Î":143,"Ï":144,"Ð":145,"Ñ":146,"Ò":147,"Ó":148,"Ô":149,"Õ":150,"Ö":151,"×":152,"Ø":153,"Ù":154,"Ú":155,"Û":156,"Ü":157,"Ý":158,"Þ":159,"ß":160,"à":161,"á":162,"â":163,"ã":164,"ä":165,"å":166,"æ":167,"ç":168,"è":169,"é":170,"ê":171,"ë":172,"ì":173,"í":174,"î":175,"ï":176,"ð":177,"ñ":178,"ò":179,"ó":180,"ô":181,"õ":182,"ö":183,"÷":184,"ø":185,"ù":186,"ú":187,"û":188,"ü":189,"ý":190,"þ":191,"ÿ":192,"Ā":193,"ā":194,"Ă":195,"ă":196,"Ą":197,"ą":198,"Ć":199,"ć":200,"Ĉ":201,"ĉ":202,"Ċ":203,"ċ":204,"Č":205,"č":206,"Ď":207,"ď":208,"Đ":209,"đ":210,"Ē":211,"ē":212,"Ĕ":213,"ĕ":214,"Ė":215,"ė":216,"Ę":217,"ę":218,"Ě":219,"ě":220,"Ĝ":221,"ĝ":222,"Ğ":223,"ğ":224,"Ġ":225,"ġ":226,"Ģ":227,"ģ":228,"Ĥ":229,"ĥ":230,"Ħ":231,"ħ":232,"Ĩ":233,"ĩ":234,"Ī":235,"ī":236,"Ĭ":237,"ĭ":238,"Į":239,"į":240,"İ":241,"ı":242,"Ĳ":243,"ĳ":244,"Ĵ":245,"ĵ":246,"Ķ":247,"ķ":248,"ĸ":249,"Ĺ":250,"ĺ":251,"Ļ":252,"ļ":253,"Ľ":254,"ľ":255,"Ŀ":256,"ŀ":257,"Ł":258,"ł":259,"Ń":260,"Ġt":261,"he":262,"ou":263,"ha":264,"Ġa":265,"you":266,"re":267,"in":268,"Ġw":269,"Ġs":270,"hat":271,"Ġthe":272,"Ġyou":273,"it":274,"on":275,"Ġd":276,"Ġb":277,"an":278,"'s":279,"Ġg":280,"is":281,"Ġc":282,"oo":283,"ll":284,"Ġl":285,"no":286,"Ġm":287,"Ġp":288,"ay":289,"Ġit":290,"ing":291,"er":292,"Ġf":293,"Ġth":294,"Ġo":295,"Ġthat":296,"es":297,"ea":298,"Ġdo":299,"et":300,"Ġhe":301,"Ġto":302,"ke":303,"om":304,"Ġh":305,"nd":306,"Ġon":307,"xx":308,"'t":309,"Ġha":310,"se":311,"what":312,"or":313,"ve":314,"le":315,"Ġgo":316,"ig":317,"Ġin":318,"id":319,"ut":320,"the":321,"ĠI":322,"ook":323,"ee":324,"na":325,"st":326,"Ġk":327,"Ġis":328,"Ġand":329,"now":330,"Ġwe":331,"oh":332,"ar":333,"ht":334,"Ġu":335,"ic":336,"ow":337,"Ġli":338,"Ġwhat":339,"Ġof":340,"at":341,"ight":342,"ome":343,"kay":344,"Ġyour":345,"Ġthis":346,"and":347,"yea":348,"Ġlike":349,"Ġr":350,"Ġwan":351,"yeah":352,"ld":353,"xxx":354,"here":355,"ir":356,"ad":357,"Ġdon":358,"out":359,"ck":360,"Ġno":361,"as":362,"that":363,"Ġe":364,"all":365,"uh":366,"okay":367,"ver":368,"ink":369,"Ġst":370,"Ġre":371,"Ġbe":372,"me":373,"ho":374,"'re":375,"Ġme":376,"Ġcan":377,"Ġknow":378,"we":379,"ab":380,"Ġhave":381,"al":382,"Ġone":383,"Ġsee":384,"Ġare":385,"Ġthere":386,"ood":387,"Ġn":388,"ith":389,"ie":390,"ch":391,"Ġwith":392,"um":393,"Ġget":394,"en":395,"Ġat":396,"Ġfor":397,"ed":398,"Ġthink":399,"Ġj":400,"itt":401,"Ġhere":402,"Ġup":403,"Ġshe":404,"Ġwas":405,"th":406,"Ġdid":407,"im":408,"ould":409,"do":410,"Ġpl":411,"Ġthey":412,"Ġan":413,"ake":414,"Ġlook":415,"Ġput":416,"Ġgon":417,"ust":418,"Ġnot":419,"ur":420,"un":421,"Ġgonna":422,"Ġwanna":423,"ot":424,"eat":425,"if":426,"Ġwant":427,"Ġout":428,"hm":429,"Ġsome":430,"ittle":431,"Ġall":432,"ĠM":433,"Ġright":434,"ry":435,"'ll":436,"Ġso":437,"ind":438,"Ġlittle":439,"ack":440,"Ġxxx":441,"where":442,"pp":443,"ill":444,"ther":445,"ore":446,"ww":447,"ter":448,"Ġgot":449,"my":450,"Ġy":451,"aby":452,"ta":453,"ice":454,"Ġgood":455,"nt":456,"look":457,"Ġjust":458,"ly":459,"Ġsay":460,"there":461,"Ġdoes":462,"ro":463,"one":464,"Ġplay":465,"Ġeat":466,"how":467,"wn":468,"ell":469,"Ġher":470,"Ġab":471,"are":472,"can":473,"very":474,"dy":475,"right":476,"Ġbaby":477,"who":478,"hi":479,"ra":480,"hen":481,"Ġabout":482,"Ġdown":483,"ce":484,"us":485,"Ġsa":486,"oug":487,"'m":488,"let":489,"ally":490,"Ġbo":491,"well":492,"Ġbut":493,"ear":494,"Ġthem":495,"Ġsp":496,"Ġgoing":497,"Ġtoo":498,"op":499,"hy":500,"Ġor":501,"Ġhim":502,"ose":503,"am":504,"Ġhis":505,"yes":506,"ick":507,"Ġnow":508,"be":509,"Ġmy":510,"Ġback":511,"il":512,"so":513,"han":514,"huh":515,"ive":516,"ommy":517,"Ġif":518,"Ġco":519,"Ġany":520,"Ġover":521,"ĊĊ":522,"Ġbook":523,"ag":524,"Ġmore":525,"ep":526,"ty":527,"come":528,"ound":529,"omet":530,"she":531,"Ġthing":532,"Ġokay":533,"ure":534,"Ġbig":535,"Ġwhen":536,"ĠC":537,"Ġlet":538,"ber":539,"ast":540,"Ġthen":541,"ough":542,"au":543,"they":544,"but":545,"did":546,"uck":547,"Ġsomet":548,"Ġkind":549,"Ġmake":550,"ak":551,"hing":552,"Ġcome":553,"mhm":554,"Ġcl":555,"Ġel":556,"day":557,"Ġfr":558,"Ġwould":559,"Ġti":560,"Ġhow":561,"this":562,"ff":563,"ide":564,"Ġhuh":565,"Ġal":566,"www":567,"Ġelse":568,"Ġread":569,"ain":570,"ĠB":571,"Ġcar":572,"ap":573,"ĠD":574,"Ġne":575,"ies":576,"Ġtake":577,"alk":578,"wo":579,"fta":580,"Ġoff":581,"Ġpre":582,"our":583,"see":584,"eed":585,"Ġhafta":586,"ite":587,"qu":588,"ater":589,"art":590,"ĠS":591,"Ġwho":592,"Ġdoing":593,"Ġthose":594,"Ġvery":595,"Ġthese":596,"Ġreally":597,"addy":598,"ong":599,"Ġsaid":600,"why":601,"Ġbl":602,"ys":603,"row":604,"Ġwhere":605,"Ġhas":606,"up":607,"ess":608,"Ġsh":609,"ct":610,"Ġdidn":611,"os":612,"Ġtr":613,"way":614,"Ġmo":615,"Ġas":616,"Ġother":617,"zz":618,"Ġsomething":619,"ah":620,"Ġtell":621,"good":622,"Ġwere":623,"mm":624,"urn":625,"ers":626,"Ġtime":627,"Ġwor":628,"don":629,"Ġhad":630,"name":631,"ny":632,"irst":633,"to":634,"Ġpret":635,"Ġum":636,"Ġar":637,"Ġhapp":638,"ause":639,"wan":640,"thing":641,"Ġyeah":642,"aybe":643,"Ġdoesn":644,"ye":645,"ool":646,"Ġag":647,"ere":648,"atch":649,"ouse":650,"Ġlooks":651,"hank":652,"bo":653,"ul":654,"Ġdr":655,"Ġway":656,"get":657,"Ġcould":658,"Ġtwo":659,"mber":660,"Ġcall":661,"Ġbu":662,"ark":663,"Ġneed":664,"ang":665,"Ġnice":666,"cause":667,"ree":668,"her":669,"gg":670,"alright":671,"member":672,"ock":673,"Ġtry":674,"Ġcom":675,"put":676,"ĠA":677,"li":678,"ine":679,"Ġgu":680,"uff":681,"Ġthings":682,"Ġgive":683,"ĠR":684,"Ġcook":685,"Ġman":686,"Ġmean":687,"ĠMommy":688,"ish":689,"Ġball":690,"Ġagain":691,"oom":692,"ĠJ":693,"Ġboy":694,"lor":695,"oor":696,"Ġbet":697,"ump":698,"Ġlo":699,"oon":700,"Ġhand":701,"Ġgir":702,"ate":703,"hic":704,"unny":705,"Ġho":706,"Ġturn":707,"uch":708,"oney":709,"Ġche":710,"ting":711,"Ġhappen":712,"Ġhouse":713,"lp":714,"Ġus":715,"oop":716,"el":717,"'d":718,"pe":719,"Ġtalk":720,"Ġfrom":721,"Ġfl":722,"iss":723,"een":724,"ait":725,"Ġsit":726,"Ġgirl":727,"eek":728,"Ġcolor":729,"Ġbr":730,"Ġfa":731,"Ġpe":732,"Ġwill":733,"Ġpu":734,"Ġpic":735,"Ġuh":736,"orn":737,"Ġhome":738,"read":739,"Ġaround":740,"go":741,"uhhuh":742,"les":743,"ion":744,"Ġya":745,"Ġwater":746,"ush":747,"Ġpretty":748,"'ve":749,"ue":750,"Ġano":751,"Ġfood":752,"ĠN":753,"Ġanother":754,"ame":755,"ven":756,"say":757,"ĠT":758,"Ġgoes":759,"ked":760,"Ġmuch":761,"ird":762,"ĠP":763,"thank":764,"ĠL":765,"Ġname":766,"side":767,"lf":768,"Ġpie":769,"Ġstuff":770,"Ġsha":771,"Ġlot":772,"Ġremember":773,"Ġhelp":774,"Ġwent":775,"age":776,"Ġcha":777,"oot":778,"ĠF":779,"imal":780,"ease":781,"Ġsc":782,"ix":783,"Ġsho":784,"Ġaway":785,"of":786,"ist":787,"ute":788,"Ġshould":789,"ture":790,"does":791,"eet":792,"Ġwhy":793,"sh":794,"chool":795,"Ġanimal":796,"Ġqu":797,"hey":798,"just":799,"outh":800,"Ġgre":801,"Ġoh":802,"ard":803,"Ġfind":804,"Ġday":805,"ĠChi":806,"rough":807,"ought":808,"co":809,"Ġke":810,"Ġevery":811,"body":812,"Ġmouth":813,"Ġtoday":814,"Ġdoll":815,"wanna":816,"Ġwon":817,"raw":818,"pl":819,"Ġbetter":820,"eas":821,"Ġpicture":822,"Ġgr":823,"Ġthrough":824,"ĠDaddy":825,"ug":826,"tle":827,"Ġschool":828,"not":829,"Ġdone":830,"Ġcr":831,"Ġdog":832,"ost":833,"ĠG":834,"Ġle":835,"ople":836,"pen":837,"Ġfirst":838,"Ġstill":839,"Ġju":840,"ving":841,"ves":842,"Ġpro":843,"Ġmin":844,"hich":845,"Ġwr":846,"ilk":847,"ung":848,"Ġcalled":849,"Ġmak":850,"Ġse":851,"nder":852,"Ġcup":853,"kes":854,"Ġwork":855,"Ġlea":856,"Ġinto":857,"lep":858,"Ġcat":859,"Ġyes":860,"ts":861,"Ġtheir":862,"Ġpeople":863,"aur":864,"Ġbed":865,"der":866,"ob":867,"Ġwell":868,"oss":869,"Ġhead":870,"eel":871,"Ġsw":872,"Ġshow":873,"Ġour":874,"Ġhair":875,"Ġuse":876,"iff":877,"leep":878,"Ġbecause":879,"che":880,"xt":881,"maybe":882,"Ġjuice":883,"ne":884,"Ġtoys":885,"Ġbear":886,"Ġdrink":887,"Ġsays":888,"ble":889,"able":890,"ually":891,"Ġopen":892,"Ġbit":893,"Ġmilk":894,"Ġpick":895,"Ġmaybe":896,"Ġsm":897,"Ġspoon":898,"ade":899,"Ġby":900,"Ġbox":901,"Ġsure":902,"Ġunder":903,"Ġhold":904,"Ġnight":905,"itty":906,"Ġmany":907,"ĠH":908,"Ġplease":909,"Ġchair":910,"Ġv":911,"ĠE":912,"fter":913,"weet":914,"Ġanimals":915,"ful":916,"Ġhappened":917,"Ġisn":918,"Ġen":919,"bab":920,"Ġbot":921,"ungry":922,"ass":923,"Ġthree":924,"Ġhoney":925,"aper":926,"ace":927,"ese":928,"like":929,"red":930,"Ġsleep":931,"Ġpi":932,"Ġduck":933,"self":934,"Ġwait":935,"ĠMark":936,"Ġfin":937,"ouch":938,"Ġmommy":939,"rd":940,"Ġanything":941,"ss":942,"Ġbat":943,"ip":944,"Ġlikes":945,"Ġlong":946,"Ġhungry":947,"ory":948,"bably":949,"Ġred":950,"oops":951,"when":952,"fore":953,"would":954,"Ġdiff":955,"Ġreal":956,"inn":957,"Ġwalk":958,"ft":959,"Ġhear":960,"hant":961,"Ġfunny":962,"Ġz":963,"ummy":964,"bye":965,"llo":966,"Ġhor":967,"Ġminute":968,"Ġpig":969,"hone":970,"Ġtruck":971,"ge":972,"Ġnext":973,"Ġready":974,"Ġice":975,"Ġmight":976,"illy":977,"Ġhat":978,"Ġdiffere":979,"Ġstart":980,"uhoh":981,"Ġnew":982,"Ġex":983,"Ġbeen":984,"Ġbre":985,"Ġfoot":986,"est":987,"Ġlast":988,"Ġold":989,"end":990,"lephant":991,"Ġfeel":992,"Ġdoor":993,"Ġcame":994,"Ġhur":995,"ous":996,"Ġafter":997,"ent":998,"Ġate":999,"Ġbefore":1000,"ken":1001,"Ġkid":1002,"Ġpo":1003,"Ġwatch":1004,"ire":1005,"Ġthought":1006,"ise":1007,"Ġroom":1008,"your":1009,"Ġthough":1010,"Ġbro":1011,"ream":1012,"Ġstay":1013,"Ġbird":1014,"Ġkitty":1015,"key":1016,"Ġhard":1017,"Ġtable":1018,"Ġtea":1019,"Ġguess":1020,"hed":1021,"eekab":1022,"ac":1023,"ready":1024,"Ġgetting":1025,"Ġna":1026,"zza":1027,"Ġsweet":1028,"arm":1029,"ri":1030,"Ġpart":1031,"Ġgotta":1032,"Ġgreen":1033,"ma":1034,"Ġfeet":1035,"Ġmade":1036,"Ġthrow":1037,"Ġpiece":1038,"Ġstory":1039,"Ġfun":1040,"Ġlove":1041,"Ġnose":1042,"Ġbreak":1043,"Ġdifferent":1044,"aw":1045,"Ġcookie":1046,"Ġwh":1047,"Ġfall":1048,"Ġbooks":1049,"irstname":1050,"ĠRoss":1051,"Ġeven":1052,"Ġprobably":1053,"eekaboo":1054,"Ġthan":1055,"Ġdaddy":1056,"Ġch":1057,"more":1058,"Ġsor":1059,"ange":1060,"Ġcheese":1061,"Ġcow":1062,"Ġhot":1063,"Ġro":1064,"ellow":1065,"because":1066,"ĠK":1067,"Chi":1068,"ds":1069,"then":1070,"imes":1071,"Ġtop":1072,"Ġkinda":1073,"Ġeating":1074,"gether":1075,"ister":1076,"Ġblue":1077,"ĠW":1078,"want":1079,"Ġear":1080,"Ġkeep":1081,"unch":1082,"Ġcare":1083,"Ġapp":1084,"Ġcou":1085,"Ġint":1086,"Mommy":1087,"ama":1088,"Ġonly":1089,"Ġegg":1090,"ild":1091,"Ġtogether":1092,"ti":1093,"Ġwear":1094,"Ġlooking":1095,"air":1096,"hello":1097,"lean":1098,"Ġsaw":1099,"ail":1100,"Ġtap":1101,"Ġeyes":1102,"Ġelephant":1103,"Ġwants":1104,"Ġmon":1105,"which":1106,"Ġsl":1107,"Ġpull":1108,"Ġbea":1109,"Ġsu":1110,"Ġde":1111,"Ġshoes":1112,"ins":1113,"Ġbring":1114,"bit":1115,"irt":1116,"Ġcomes":1117,"ball":1118,"hile":1119,"ways":1120,"ull":1121,"Ġlight":1122,"Ġcut":1123,"Ġplaying":1124,"erest":1125,"hose":1126,"Ġpizza":1127,"Ġhands":1128,"iend":1129,"ooh":1130,"wait":1131,"Ġtra":1132,"Ġdogg":1133,"Ġkiss":1134,"man":1135,"Ġclose":1136,"Ġgl":1137,"Ġpage":1138,"Ġstick":1139,"Ġfour":1140,"aura":1141,"Ġinterest":1142,"Ġnever":1143,"those":1144,"sha":1145,"got":1146,"Ġcho":1147,"Ġwasn":1148,"Ġbottle":1149,"Ġbath":1150,"av":1151,"cl":1152,"Ġfix":1153,"ave":1154,"Ġjump":1155,"ger":1156,"Ġthank":1157,"Ġdraw":1158,"Ġyet":1159,"Ġfriend":1160,"Ġsqu":1161,"tell":1162,"Ġjob":1163,"wh":1164,"Ġfro":1165,"Ġenough":1166,"for":1167,"Ġbad":1168,"Ġbus":1169,"ash":1170,"Ġsound":1171,"Ġlad":1172,"Ġhurt":1173,"Ġfing":1174,"Ġhm":1175,"Ġfive":1176,"Ġact":1177,"Ġsilly":1178,"Ġalways":1179,"rown":1180,"wow":1181,"Ġmorn":1182,"Ġclean":1183,"yep":1184,"Ġbunny":1185,"ons":1186,"most":1187,"Ġinside":1188,"Ġface":1189,"Ġtouch":1190,"Ġfloor":1191,"Ġpot":1192,"Ġrun":1193,"Ġsna":1194,"Ġyellow":1195,"Ġdi":1196,"Ġend":1197,"Ġsk":1198,"ank":1199,"Ġmust":1200,"two":1201,"Ġones":1202,"Ġeverything":1203,"Ġwhole":1204,"ĊĊĊĊ":1205,"Ġsame":1206,"Ġalright":1207,"Ġtoy":1208,"Ġtrying":1209,"ĠFirstname":1210,"Ġstand":1211,"ster":1212,"Ġoutside":1213,"Ġpan":1214,"Ġpretend":1215,"Ġmorning":1216,"ple":1217,"some":1218,"Ġbutter":1219,"Ġcream":1220,"vor":1221,"watch":1222,"Ġwhile":1223,"igh":1224,"Ġfish":1225,"Ġblock":1226,"Ġmove":1227,"Ġtape":1228,"should":1229,"sed":1230,"isten":1231,"Ġkids":1232,"ppy":1233,"Ġdoin":1234,"pped":1235,"Ġbite":1236,"Ġfavor":1237,"remember":1238,"head":1239,"pper":1240,"inner":1241,"Ġrec":1242,"Ġpaper":1243,"Ġfire":1244,"Ġorange":1245,"irth":1246,"cle":1247,"Ġsing":1248,"Ġfit":1249,"Ġmakes":1250,"Ġyea":1251,"Ġbuild":1252,"gs":1253,"Ġstr":1254,"Ġfound":1255,"Ġside":1256,"Ġfeed":1257,"Ġpen":1258,"Ġleave":1259,"ied":1260,"peekaboo":1261,"Ġpeas":1262,"Ġask":1263,"Ġbuy":1264,"sit":1265,"irty":1266,"Ġyear":1267,"Ġbirth":1268,"ond":1269,"Ġpush":1270,"Ġseen":1271,"Ġtast":1272,"Ġplate":1273,"bl":1274,"pill":1275,"Ġair":1276,"Ġdre":1277,"rot":1278,"ach":1279,"airs":1280,"Ġbread":1281,"omi":1282,"Ġcold":1283,"Ġstop":1284,"Ġmaking":1285,"with":1286,"ana":1287,"Ġever":1288,"ib":1289,"ub":1290,"Ġguy":1291,"Ġsand":1292,"aterpill":1293,"ms":1294,"Ġchi":1295,"oof":1296,"Ġtook":1297,"aterpillar":1298,"Ġmat":1299,"Ġyourself":1300,"ĠLaura":1301,"lot":1302,"Ġdinner":1303,"Ġrock":1304,"Ġbirthday":1305,"Ġlive":1306,"ci":1307,"Ġcookies":1308,"Ġfavorite":1309,"Ġam":1310,"Ġmoon":1311,"osta":1312,"ew":1313,"Ġtree":1314,"Ġcoming":1315,"hah":1316,"Ġfinish":1317,"ont":1318,"other":1319,"aug":1320,"turn":1321,"Ġsposta":1322,"ant":1323,"ane":1324,"Ġlady":1325,"iz":1326,"Ġahead":1327,"umber":1328,"itc":1329,"Ġwrite":1330,"Ġchic":1331,"Ġcorn":1332,"Ġmoney":1333,"Ġfell":1334,"Ġpar":1335,"col":1336,"Ġid":1337,"Ġgoin":1338,"baby":1339,"Ġsmall":1340,"Ġapple":1341,"ove":1342,"Ġchicken":1343,"Ġhorse":1344,"Ġwhich":1345,"Ġneedta":1346,"ctor":1347,"Ġteet":1348,"ng":1349,"Ġhi":1350,"rew":1351,"eal":1352,"ffee":1353,"Ġcake":1354,"Ġclo":1355,"know":1356,"hin":1357,"fr":1358,"ary":1359,"own":1360,"Ġbab":1361,"looks":1362,"take":1363,"Ġhop":1364,"ation":1365,"Ġstore":1366,"Ġwind":1367,"akes":1368,"Ġactually":1369,"Ġwanted":1370,"Ġflow":1371,"Ġaren":1372,"ret":1373,"ex":1374,"ness":1375,"Ġweek":1376,"Ġhappy":1377,"Ġmother":1378,"Ġcaterpillar":1379,"sp":1380,"give":1381,"Ġtold":1382,"Ġrecor":1383,"Ġlunch":1384,"Ġbye":1385,"Ġchan":1386,"Ġkno":1387,"br":1388,"any":1389,"Ġnoise":1390,"Ġanymore":1391,"Ġwash":1392,"try":1393,"Ġwhe":1394,"Ġbow":1395,"Ġalready":1396,"itting":1397,"whoa":1398,"Ġow":1399,"Ġbag":1400,"Ġsec":1401,"cha":1402,"Ġtalking":1403,"ud":1404,"hind":1405,"Ġsorry":1406,"Ġdoggie":1407,"Ġguys":1408,"Ġdan":1409,"was":1410,"Ġcoffee":1411,"Ġswim":1412,"colate":1413,"Ġidea":1414,"unk":1415,"Ġteeth":1416,"abbit":1417,"ren":1418,"orrow":1419,"these":1420,"Ġtom":1421,"Ġwrong":1422,"Ġalmost":1423,"aff":1424,"ces":1425,"het":1426,"Ġbel":1427,"Ġdri":1428,"Ġletter":1429,"Ġwonder":1430,"rop":1431,"Ġwhite":1432,"Ġbutt":1433,"aghet":1434,"ither":1435,"thes":1436,"ase":1437,"hr":1438,"oup":1439,"fast":1440,"oman":1441,"und":1442,"Ġbehind":1443,"Ġusually":1444,"Ġsal":1445,"Ġride":1446,"aghetti":1447,"Ġbee":1448,"Ġroll":1449,"ished":1450,"Ġnumber":1451,"ets":1452,"Ġtick":1453,"ask":1454,"ina":1455,"ĊĊĊ":1456,"Ġlater":1457,"Ġphone":1458,"Ġgets":1459,"Ġgreat":1460,"eak":1461,"yay":1462,"Ġpop":1463,"Ġfarm":1464,"Ġplace":1465,"Ġclothes":1466,"Ġhit":1467,"Ġun":1468,"sure":1469,"Ġgave":1470,"Ġcareful":1471,"Ġpain":1472,"hum":1473,"ator":1474,"Ġglass":1475,"Ġshirt":1476,"oun":1477,"dam":1478,"Ġcute":1479,"nope":1480,"Ġgame":1481,"Ġblocks":1482,"Ġknows":1483,"Ġfly":1484,"Ġwouldn":1485,"boo":1486,"night":1487,"Ġmess":1488,"Ġcool":1489,"ooked":1490,"ia":1491,"Ġcry":1492,"ort":1493,"Daddy":1494,"stand":1495,"ars":1496,"gie":1497,"Ġsaying":1498,"Ġshoe":1499,"Ġzoo":1500,"Ġsomebody":1501,"Ġtur":1502,"uhuh":1503,"Ġword":1504,"ls":1505,"Ġtrain":1506,"zzz":1507,"Ġem":1508,"terday":1509,"Ġsock":1510,"Ġyours":1511,"Ġcount":1512,"kin":1513,"Ġcatch":1514,"Ġbreakfast":1515,"Ġtired":1516,"sc":1517,"Ġbeing":1518,"Ġits":1519,"ings":1520,"Ġtail":1521,"Ġlisten":1522,"ol":1523,"Ġhaving":1524,"Ġsometimes":1525,"osaur":1526,"Ġnap":1527,"ich":1528,"earn":1529,"cer":1530,"ious":1531,"Ġboth":1532,"arah":1533,"Ġleft":1534,"Ġfinished":1535,"Ġhors":1536,"iel":1537,"anut":1538,"Ġeither":1539,"Ġsweetie":1540,"have":1541,"use":1542,"onna":1543,"Ġdis":1544,"Ġlearn":1545,"Ġhug":1546,"itchen":1547,"aking":1548,"ment":1549,"Ġrabbit":1550,"Ġyummy":1551,"ĠBear":1552,"ever":1553,"stairs":1554,"Ġchocolate":1555,"Ġfront":1556,"Ġunt":1557,"ya":1558,"andy":1559,"Ġlots":1560,"ian":1561,"gan":1562,"Ġah":1563,"Ġblack":1564,"whoops":1565,"Ġfast":1566,"Ġkitchen":1567,"Ġyesterday":1568,"te":1569,"Ġtre":1570,"od":1571,"Ġhigh":1572,"Ġpuzz":1573,"Ġsong":1574,"Ġmatter":1575,"Ġchild":1576,"tain":1577,"inosaur":1578,"Ġbang":1579,"Ġbabies":1580,"Ġgone":1581,"ily":1582,"per":1583,"ten":1584,"Ġte":1585,"Ġcolors":1586,"Ġtaste":1587,"Ġsix":1588,"Ġcon":1589,"Ġhappens":1590,"Ġdirty":1591,"Ġmeat":1592,"Ġmag":1593,"ĠNomi":1594,"Ġset":1595,"Ġtomorrow":1596,"eb":1597,"ato":1598,"Ġhaven":1599,"stop":1600,"ĠChr":1601,"Ġshake":1602,"each":1603,"cake":1604,"Ġbowl":1605,"Ġpol":1606,"ney":1607,"Ġrain":1608,"Ġsitting":1609,"Ġown":1610,"Ġspaghetti":1611,"Ġfinger":1612,"Ġmov":1613,"Ġpictures":1614,"Ġwindow":1615,"Ġbott":1616,"Ġfrog":1617,"Ġpants":1618,"Ġgrow":1619,"Ġputting":1620,"push":1621,"rawber":1622,"ead":1623,"Ġsun":1624,"ph":1625,"Ġton":1626,"really":1627,"somet":1628,"Ġyum":1629,"Ġsandw":1630,"Ġowl":1631,"ps":1632,"Ġsecond":1633,"Ġrest":1634,"Ġmom":1635,"ahhah":1636,"Ġchew":1637,"int":1638,"Ġknock":1639,"little":1640,"Ġkn":1641,"athan":1642,"Ġboys":1643,"ĠAbe":1644,"Ġalso":1645,"Ġfo":1646,"Ġhole":1647,"act":1648,"Ġgi":1649,"ĠFr":1650,"Ġpr":1651,"Ġmus":1652,"please":1653,"shall":1654,"rs":1655,"Ġcir":1656,"Ġsoft":1657,"ches":1658,"Ġexc":1659,"ile":1660,"enry":1661,"Ġuntil":1662,"iny":1663,"ike":1664,"mme":1665,"Ġeas":1666,"hold":1667,"erson":1668,"gu":1669,"isn":1670,"Ġeye":1671,"pping":1672,"urp":1673,"Ġkeys":1674,"ĠMarky":1675,"ier":1676,"Ġbar":1677,"cy":1678,"ĠO":1679,"Ġbrother":1680,"Ġgrand":1681,"Ġflowers":1682,"fin":1683,"Ġdrive":1684,"Ġsister":1685,"ather":1686,"cher":1687,"nty":1688,"yy":1689,"utif":1690,"Ġsheep":1691,"Ġdinosaur":1692,"goodness":1693,"dd":1694,"ross":1695,"Ġears":1696,"plane":1697,"utiful":1698,"Ġboat":1699,"ĠMom":1700,"room":1701,"Ġban":1702,"Ġbrown":1703,"hes":1704,"Ġaw":1705,"la":1706,"rand":1707,"Ġperson":1708,"cial":1709,"Ġtonight":1710,"Ġsoup":1711,"Mark":1712,"eta":1713,"boy":1714,"els":1715,"imb":1716,"lyn":1717,"haha":1718,"Ġmay":1719,"Ġpieces":1720,"ans":1721,"Ġinterested":1722,"Ġblow":1723,"Ġfew":1724,"pt":1725,"fe":1726,"make":1727,"tin":1728,"Ġmost":1729,"Ġmeans":1730,"Ġbrush":1731,"Ġparty":1732,"Ġcarrot":1733,"Ġdress":1734,"pret":1735,"sta":1736,"Ġkne":1737,"Ġspe":1738,"eep":1739,"three":1740,"Ġclock":1741,"Ġinteresting":1742,"Ġsandwich":1743,"Ġap":1744,"Ġcouple":1745,"Ġfingers":1746,"mer":1747,"Ġscare":1748,"iger":1749,"Ġwords":1750,"mell":1751,"ries":1752,"Ġloves":1753,"Ġring":1754,"Ġstrawber":1755,"Ġuseta":1756,"wer":1757,"wel":1758,"athaniel":1759,"by":1760,"iding":1761,"Ġmiss":1762,"Ġpat":1763,"Ġgra":1764,"ĠMama":1765,"Ġstarted":1766,"ĠBaby":1767,"fly":1768,"aa":1769,"rook":1770,"Ġcrack":1771,"show":1772,"Ġwet":1773,"dle":1774,"bur":1775,"mon":1776,"every":1777,"uit":1778,"reet":1779,"Ġdiaper":1780,"ada":1781,"Ġpeanut":1782,"Ġelephants":1783,"Ġsn":1784,"his":1785,"Ġpink":1786,"lla":1787,"oseph":1788,"Ġlegs":1789,"could":1790,"Ġbeautiful":1791,"ipe":1792,"Ġtaking":1793,"Ġtickle":1794,"Ġgar":1795,"Ġairplane":1796,"oose":1797,"Ġlooked":1798,"asket":1799,"Ġpuzzle":1800,"Ġcray":1801,"ĠEr":1802,"rooklyn":1803,"Ġbell":1804,"Ġliked":1805,"open":1806,"aught":1807,"Ġfull":1808,"Ġlion":1809,"mas":1810,"Ġwarm":1811,"Ġhasta":1812,"gy":1813,"Ġeight":1814,"Ġneeds":1815,"ugar":1816,"uzz":1817,"Ġpolice":1818,"Ġboo":1819,"Ġlay":1820,"ĠBig":1821,"Ġten":1822,"ize":1823,"wha":1824,"Ġsnow":1825,"Ġham":1826,"Ġclos":1827,"gre":1828,"iet":1829,"Ġunderstand":1830,"ĠChrist":1831,"Ġchange":1832,"Ġfam":1833,"ĠAdam":1834,"Ġpuppy":1835,"ĠNina":1836,"ward":1837,"lemme":1838,"Ġplayed":1839,"Ġsmell":1840,"Ġpur":1841,"aul":1842,"eddy":1843,"Ġcars":1844,"Ġbutton":1845,"Ġchildren":1846,"Ġac":1847,"ert":1848,"eter":1849,"Ġquack":1850,"Ġrecorder":1851,"yum":1852,"Ġcere":1853,"Ġapart":1854,"utes":1855,"Ġstuck":1856,"Ġeggs":1857,"Ġblank":1858,"Ġbasket":1859,"Ġsomethin":1860,"Ġneat":1861,"Ġsort":1862,"Ġcereal":1863,"Ġwood":1864,"yup":1865,"think":1866,"hur":1867,"Ġarm":1868,"Ġleg":1869,"nie":1870,"Ġmine":1871,"Ġnothing":1872,"uhhum":1873,"Ġspecial":1874,"Ġpump":1875,"ming":1876,"will":1877,"Ġdoctor":1878,"ebra":1879,"Ross":1880,"oud":1881,"Ġcone":1882,"Ġminutes":1883,"Ġclimb":1884,"ohn":1885,"Ġteacher":1886,"oy":1887,"Ġsugar":1888,"unt":1889,"Ġfriends":1890,"itch":1891,"Ġbigger":1892,"Ġasked":1893,"Ġmonkey":1894,"big":1895,"Ġeach":1896,"Ġheard":1897,"Ġbest":1898,"Ġbottom":1899,"Ġbump":1900,"amb":1901,"Ġsocks":1902,"Ġmovie":1903,"lea":1904,"Ġmouse":1905,"Ġscrew":1906,"lm":1907,"ey":1908,"anta":1909,"Ġleaf":1910,"Ġgirls":1911,"ling":1912,"Ġcouldn":1913,"Ġdry":1914,"Ġforgot":1915,"Ġdolls":1916,"Ġwall":1917,"Ġmic":1918,"itten":1919,"Ġsupper":1920,"ks":1921,"Ġneck":1922,"unday":1923,"irr":1924,"lephone":1925,"care":1926,"esday":1927,"ĠMic":1928,"Ġve":1929,"Ġtiny":1930,"Ġcur":1931,"Ġballoon":1932,"ssed":1933,"ince":1934,"Ġstuffed":1935,"gonna":1936,"ĠU":1937,"Ġsoon":1938,"Ġpus":1939,"Ġround":1940,"ity":1941,"Ġhang":1942,"Ġeverybody":1943,"Ġwaff":1944,"Ġspoons":1945,"Ġseven":1946,"Ġpaint":1947,"ched":1948,"pa":1949,"Ġshar":1950,"Ġhalf":1951,"time":1952,"Ġfar":1953,"Ġknew":1954,"aroo":1955,"pple":1956,"Ġinst":1957,"Ġwearing":1958,"mommy":1959,"Ġbroken":1960,"Ġtv":1961,"Ġsuch":1962,"Ġquite":1963,"coon":1964,"ĠBro":1965,"Ġdolly":1966,"Ġpark":1967,"sent":1968,"Ġpeekaboo":1969,"angaroo":1970,"Bird":1971,"Ġfootball":1972,"aren":1973,"Ġboot":1974,"Ġcheck":1975,"fl":1976,"Ġfine":1977,"Ġreading":1978,"Ġslice":1979,"Ġrem":1980,"play":1981,"Ġable":1982,"Ġspill":1983,"Ġscr":1984,"Ġhimself":1985,"ĠSunday":1986,"ucky":1987,"aid":1988,"car":1989,"hee":1990,"Ġfig":1991,"ĠHenry":1992,"Ġtrees":1993,"Ġbutterfly":1994,"Ġhorsie":1995,"lew":1996,"Ġeats":1997,"Ġmagn":1998,"irror":1999,"Ġlaug":2000,"ates":2001,"Ġquick":2002,"Ġfat":2003,"pretty":2004,"boom":2005,"Ġmusic":2006,"Ġseat":2007,"ides":2008,"io":2009,"avy":2010,"gone":2011,"Ġoink":2012,"ord":2013,"Ġanyway":2014,"Ġpupp":2015,"Ġquiet":2016,"Ġsea":2017,"Ġtall":2018,"Ġsounds":2019,"pull":2020,"Ġsad":2021,"Ġstreet":2022,"rophone":2023,"ning":2024,"peek":2025,"Ġim":2026,"Ġdro":2027,"Ġsomeone":2028,"Ġhadta":2029,"down":2030,"heart":2031,"Ġdear":2032,"Ġonce":2033,"wenty":2034,"ĠGrand":2035,"ald":2036,"gn":2037,"Ġpin":2038,"Ġtelephone":2039,"ears":2040,"careful":2041,"ookie":2042,"Ġmirror":2043,"Ġpast":2044,"ĠNathaniel":2045,"cked":2046,"Ġfigure":2047,"Ġty":2048,"Ġhey":2049,"igator":2050,"Ġsleeping":2051,"another":2052,"Ġpour":2053,"Ġspl":2054,"Ġspace":2055,"Ġpresent":2056,"Ġhope":2057,"nice":2058,"Ġlost":2059,"ĠChristmas":2060,"Ġbeach":2061,"Ġsick":2062,"Ġcam":2063,"ddy":2064,"Ġtimes":2065,"ĠV":2066,"Ġtoast":2067,"Ġfruit":2068,"umb":2069,"Ġmoo":2070,"ions":2071,"Ġturtle":2072,"Ġteddy":2073,"ork":2074,"Ġtrucks":2075,"Ġstrong":2076,"Ġmicrophone":2077,"ummer":2078,"Ġheavy":2079,"ieve":2080,"moo":2081,"Ġbanana":2082,"over":2083,"Ġboun":2084,"ĠMar":2085,"Ġwee":2086,"cing":2087,"four":2088,"ason":2089,"Ġscared":2090,"urpr":2091,"Ġzebra":2092,"Ġpotato":2093,"led":2094,"ggie":2095,"Ġground":2096,"Ġused":2097,"Ġreco":2098,"Ġet":2099,"ĠJoseph":2100,"ouble":2101,"iting":2102,"Ġcomb":2103,"ider":2104,"Ġran":2105,"Ġthinking":2106,"Ġdance":2107,"corn":2108,"Ġwhatever":2109,"Ġdays":2110,"Ġjack":2111,"Ġbyebye":2112,"ages":2113,"Ġkinds":2114,"Ġclown":2115,"iday":2116,"Ġshall":2117,"Ġyears":2118,"og":2119,"Ġwalking":2120,"Ġdec":2121,"ĠPooh":2122,"Ġgrab":2123,"Ġswimming":2124,"zy":2125,"Ġbike":2126,"mean":2127,"Ġspot":2128,"quack":2129,"finite":2130,"Ġetc":2131,"too":2132,"lex":2133,"Ġblanket":2134,"ect":2135,"Ġwel":2136,"em":2137,"Ġrecord":2138,"Ġrecogn":2139,"Ġalone":2140,"Ġbelieve":2141,"vis":2142,"Ġper":2143,"immy":2144,"Ġwelcome":2145,"iddle":2146,"Ġtummy":2147,"Ġdra":2148,"Ġmama":2149,"Ġanybody":2150,"ĠRoman":2151,"doesn":2152,"finitely":2153,"ĠMat":2154,"Ġnine":2155,"Ġquest":2156,"Sarah":2157,"Ġmind":2158,"Ġcoat":2159,"Ġlate":2160,"Ġeasy":2161,"Brooklyn":2162,"Ġsurpr":2163,"Ġrace":2164,"Ġhello":2165,"Ġproble":2166,"ale":2167,"nic":2168,"Ġmad":2169,"byebye":2170,"yummy":2171,"ony":2172,"ĠSarah":2173,"Ġgrass":2174,"Ġdressed":2175,"hael":2176,"Ġflew":2177,"wards":2178,"ress":2179,"Ġtoes":2180,"Ġcover":2181,"Ġveget":2182,"Ġkangaroo":2183,"Ġtried":2184,"Ġdes":2185,"Ġupstairs":2186,"throw":2187,"Ġspell":2188,"close":2189,"Ġseems":2190,"Ġstra":2191,"Ġbirds":2192,"Ġremind":2193,"oke":2194,"ĠSanta":2195,"Ġpurple":2196,"elic":2197,"burger":2198,"Ġbrought":2199,"Ġcarry":2200,"Ġpoint":2201,"Ġbought":2202,"ated":2203,"roll":2204,"Ġmonth":2205,"Ġmail":2206,"Ġcrying":2207,"Ġpumpkin":2208,"Ġmix":2209,"Ġswing":2210,"cr":2211,"ular":2212,"ĠChild":2213,"Ġi":2214,"Ġsummer":2215,"Ġforget":2216,"Ġinstead":2217,"nce":2218,"pro":2219,"Ġsweetheart":2220,"Ġrocket":2221,"lie":2222,"Ġmm":2223,"Ġmuff":2224,"Mama":2225,"har":2226,"uce":2227,"Ġpill":2228,"raid":2229,"Ġshare":2230,"Ġdun":2231,"Ġgen":2232,"Ġloud":2233,"Ġpicked":2234,"Ġdogs":2235,"bre":2236,"whatcha":2237,"Ġatt":2238,"avid":2239,"Ġbase":2240,"Ġholding":2241,"Ġcra":2242,"Ġgettin":2243,"Ġwipe":2244,"ones":2245,"Ġfif":2246,"illon":2247,"Ġdriver":2248,"Ġfamily":2249,"Ġtwenty":2250,"pick":2251,"ppose":2252,"alth":2253,"otor":2254,"arden":2255,"Ġpay":2256,"Ġtrue":2257,"Ġsmart":2258,"Ġbug":2259,"blue":2260,"cup":2261,"listen":2262,"woof":2263,"Ġcraw":2264,"atur":2265,"Ġsleepy":2266,"bet":2267,"Ġtong":2268,"cakes":2269,"sy":2270,"Ġbeans":2271,"Ġvis":2272,"Ġsnake":2273,"une":2274,"ĠJo":2275,"Ġweeks":2276,"Ġfur":2277,"Ġhelm":2278,"dr":2279,"Ġcour":2280,"Ġtrunk":2281,"Ġpicnic":2282,"Ġworking":2283,"Ġchim":2284,"pes":2285,"Ġmar":2286,"Ġkick":2287,"Ġstove":2288,"Ġlookin":2289,"Ġbelly":2290,"Ġcause":2291,"organ":2292,"Ġcocoon":2293,"didn":2294,"ĠAn":2295,"Ġbroke":2296,"Ġdoggy":2297,"Ġpoliceman":2298,"aturday":2299,"Ġhelmet":2300,"whose":2301,"Ġducks":2302,"Ġcircle":2303,"ween":2304,"Ġmiddle":2305,"Ġstep":2306,"da":2307,"Ġplays":2308,"ring":2309,"Ġang":2310,"ĠSt":2311,"Ġpiggy":2312,"Ġsalt":2313,"Ġgarden":2314,"med":2315,"cus":2316,"Ġdefinitely":2317,"Ġglasses":2318,"Ġdropped":2319,"keys":2320,"Ġwithout":2321,"Ġsomewhere":2322,"oink":2323,"Ġland":2324,"astic":2325,"rib":2326,"ance":2327,"Ġlap":2328,"ors":2329,"five":2330,"Ġaf":2331,"Ġsnack":2332,"Ġdunno":2333,"Ġdump":2334,"ums":2335,"innie":2336,"book":2337,"vin":2338,"its":2339,"Ġliving":2340,"shake":2341,"Ġrunning":2342,"Ġsquare":2343,"Ġmis":2344,"Ġchimney":2345,"Ġreg":2346,"Ġtooth":2347,"elicious":2348,"Ġpillow":2349,"daddy":2350,"llow":2351,"bles":2352,"Ġfight":2353,"Ġlob":2354,"exc":2355,"Ġser":2356,"Ġstar":2357,"sometimes":2358,"after":2359,"Ġwow":2360,"Ġpock":2361,"ils":2362,"ence":2363,"issa":2364,"Ġsweat":2365,"Ġrib":2366,"Ġstairs":2367,"Ġturned":2368,"Ġele":2369,"clock":2370,"Ġbarn":2371,"tr":2372,"idge":2373,"Ġago":2374,"Ġstrawberries":2375,"Ġreach":2376,"Ġtowel":2377,"fish":2378,"vel":2379,"alked":2380,"Ġwheel":2381,"king":2382,"Ġmotor":2383,"ĠĠ":2384,"Ġter":2385,"Ġboom":2386,"Ġmark":2387,"Ġpet":2388,"allow":2389,"ife":2390,"Ġalong":2391,"Ġbody":2392,"Ġsew":2393,"ache":2394,"ope":2395,"Ġproblem":2396,"ĠPaul":2397,"probably":2398,"Ġsince":2399,"ram":2400,"Ġcupcake":2401,"Ġworks":2402,"Ġcarrots":2403,"ĠMon":2404,"Ġdownstairs":2405,"Ġclass":2406,"Ġbuddy":2407,"Ġafraid":2408,"sing":2409,"Ġwa":2410,"ĠMrs":2411,"mmer":2412,"Ġtrouble":2413,"sor":2414,"Ġwoof":2415,"Ġsli":2416,"unh":2417,"aggie":2418,"Ġboots":2419,"ican":2420,"Ġlives":2421,"Ġtelling":2422,"Ġwalks":2423,"leave":2424,"Ġhour":2425,"ign":2426,"ĠSis":2427,"Ġdark":2428,"Ġplan":2429,"apa":2430,"Ġslide":2431,"Ġstraight":2432,"Ġwha":2433,"irsty":2434,"Ġsuppose":2435,"something":2436,"Ġgrandma":2437,"kitty":2438,"keep":2439,"Ġtongue":2440,"elephant":2441,"Ġdad":2442,"Ġthirty":2443,"Ġstom":2444,"were":2445,"Laura":2446,"cept":2447,"ilt":2448,"yeh":2449,"Ġbub":2450,"Ġskin":2451,"Ġwaffle":2452,"Ġcourse":2453,"Ġholes":2454,"Bro":2455,"atherine":2456,"kind":2457,"Ġwatching":2458,"ged":2459,"ery":2460,"com":2461,"uring":2462,"Ġletters":2463,"green":2464,"ze":2465,"Ġmen":2466,"imme":2467,"ables":2468,"Ġclap":2469,"Ġshort":2470,"Nomi":2471,"feel":2472,"mes":2473,"Ġpoor":2474,"ower":2475,"ĠCar":2476,"Ġcomp":2477,"Ġcandy":2478,"Ġfork":2479,"liver":2480,"Ġcups":2481,"Ġpengu":2482,"ount":2483,"Ġseem":2484,"Ġwheels":2485,"Ġcrayons":2486,"Ġdrop":2487,"ully":2488,"Ġsquir":2489,"Ġsnap":2490,"Ġtw":2491,"ital":2492,"Ġpee":2493,"Ġbetween":2494,"Ġroad":2495,"teen":2496,"Ġwin":2497,"Ġpages":2498,"Ġwhis":2499,"ĠFriday":2500,"Ġflower":2501,"Ġcracker":2502,"Ġmagnet":2503,"pi":2504,"Ġans":2505,"ĠJen":2506,"eather":2507,"Ġworld":2508,"ĠJohn":2509,"cho":2510,"udy":2511,"onald":2512,"Ġshape":2513,"Ġclosed":2514,"Ġstanding":2515,"bage":2516,"ited":2517,"Ġlamb":2518,"Ġmeet":2519,"nothing":2520,"Ġthirsty":2521,"Ġhide":2522,"unn":2523,"Marky":2524,"de":2525,"ames":2526,"ating":2527,"Ġplastic":2528,"Ġtrick":2529,"Ġtrash":2530,"Ġeng":2531,"eath":2532,"ĠSaturday":2533,"back":2534,"Ġballs":2535,"Ġolder":2536,"honey":2537,"Ġfre":2538,"Ġquestion":2539,"Ġweren":2540,"Ġbears":2541,"Ġbelong":2542,"Ġtakes":2543,"Ġtower":2544,"Ġking":2545,"Ġsalad":2546,"sorry":2547,"Ġarms":2548,"Ġscratch":2549,"Ġhiding":2550,"Ġcorner":2551,"Ġpotatoes":2552,"The":2553,"igg":2554,"Ġbusy":2555,"Ġhamburger":2556,"Abe":2557,"Ġbunch":2558,"Ġcooking":2559,"Ġpocket":2560,"jump":2561,"oodle":2562,"Ġpenc":2563,"Ġgiving":2564,"mkay":2565,"Ġband":2566,"thew":2567,"Ġnut":2568,"rench":2569,"Ġline":2570,"Ġfore":2571,"Ġri":2572,"essert":2573,"Ġbuttons":2574,"laus":2575,"duck":2576,"Ġrat":2577,"Ġbeg":2578,"Ġmed":2579,"elissa":2580,"Ġdriving":2581,"whee":2582,"Ġcaught":2583,"icy":2584,"ĠMister":2585,"Ġumbre":2586,"Ġbuilding":2587,"Ġra":2588,"Ġsky":2589,"onk":2590,"choo":2591,"Ġdelicious":2592,"Ġkitten":2593,"pizza":2594,"cat":2595,"erry":2596,"Ġnear":2597,"Ġkisses":2598,"Ġstrawberry":2599,"Pooh":2600,"Ġpea":2601,"bring":2602,"anges":2603,"Ġdishes":2604,"move":2605,"Ġnois":2606,"Ġreason":2607,"meow":2608,"Ġflying":2609,"bird":2610,"tick":2611,"Ġshut":2612,"ines":2613,"Ġda":2614,"Ġdessert":2615,"Ġdolp":2616,"bug":2617,"Ġtiger":2618,"ised":2619,"Ġdonkey":2620,"Ġtire":2621,"ĠEve":2622,"Ġcrazy":2623,"Ġumbrella":2624,"cco":2625,"Ġlights":2626,"friger":2627,"Ġtype":2628,"ccoli":2629,"first":2630,"Ġdancing":2631,"undred":2632,"Ġhorses":2633,"Ġvisit":2634,"cles":2635,"elt":2636,"Adam":2637,"old":2638,"pat":2639,"Ġnur":2640,"Ġupside":2641,"Ġsail":2642,"Ġstayed":2643,"meal":2644,"ton":2645,"Ġonto":2646,"Ġrub":2647,"from":2648,"Ġacross":2649,"Ty":2650,"sday":2651,"Ġta":2652,"Ġcre":2653,"ract":2654,"fully":2655,"neath":2656,"Ġmissing":2657,"Ġmoving":2658,"yyy":2659,"Ġwave":2660,"dog":2661,"frigerator":2662,"rel":2663,"Ġmach":2664,"ield":2665,"Ġcrayon":2666,"Ġcats":2667,"Ġtight":2668,"Ġpool":2669,"Ġleast":2670,"Ġmissed":2671,"aj":2672,"egan":2673,"less":2674,"Ġhammer":2675,"ĠDad":2676,"Ġpres":2677,"Ġteach":2678,"Ġnames":2679,"Ġsto":2680,"Ġscary":2681,"Ġgarage":2682,"Ġchick":2683,"nesday":2684,"anny":2685,"Ġrefrigerator":2686,"rover":2687,"Ġpopcorn":2688,"uzzy":2689,"Ġwoman":2690,"Ġdream":2691,"Ġbuck":2692,"ĠIn":2693,"ics":2694,"ĠMr":2695,"Ġearly":2696,"Ġstring":2697,"ica":2698,"Ġshouldn":2699,"Ġchairs":2700,"hom":2701,"ooster":2702,"atmeal":2703,"Ġleaves":2704,"Ġnapkin":2705,"Ġcloser":2706,"Ġlobster":2707,"Ġad":2708,"Ġapples":2709,"avier":2710,"Ġreminds":2711,"excuse":2712,"Ġhundred":2713,"ingo":2714,"Ġgoodness":2715,"Ġkey":2716,"Ġmonster":2717,"Ġgarbage":2718,"poor":2719,"Ġnobody":2720,"ents":2721,"Ġcomin":2722,"homas":2723,"Ġcouch":2724,"Ġfelt":2725,"Ġrice":2726,"uper":2727,"Ġfather":2728,"rible":2729,"gr":2730,"yellow":2731,"Ġthrew":2732,"Ġglad":2733,"ribbit":2734,"help":2735,"ical":2736,"ĠSp":2737,"Ġdollars":2738,"Ġbake":2739,"Ġtoe":2740,"Ġoranges":2741,"Ġdrawing":2742,"Ġsent":2743,"Ġjacket":2744,"Ġanswer":2745,"Ġpencil":2746,"Ġwitch":2747,"umble":2748,"frican":2749,"Ġvegetables":2750,"ried":2751,"Ġain":2752,"Ġdust":2753,"Ġfan":2754,"anger":2755,"port":2756,"sl":2757,"Ġgosh":2758,"apers":2759,"Ġexact":2760,"Ġslow":2761,"Ġfrogs":2762,"Ġbaseball":2763,"sw":2764,"orange":2765,"ĠDillon":2766,"aces":2767,"Ġpuppet":2768,"sho":2769,"Ġhaha":2770,"almost":2771,"amp":2772,"aster":2773,"Ġbuilt":2774,"Ġtryin":2775,"Ġvac":2776,"water":2777,"inet":2778,"era":2779,"Ġfis":2780,"Ġrid":2781,"hursday":2782,"ĠDavid":2783,"Ġtrip":2784,"Ġjumping":2785,"ĠGrandma":2786,"ĠMonday":2787,"uesday":2788,"Ġpeek":2789,"Ġspider":2790,"Mic":2791,"Ġob":2792,"Ġgiraff":2793,"Ġtalkin":2794,"vest":2795,"Sis":2796,"icine":2797,"cheese":2798,"only":2799,"Ġrather":2800,"Ġturkey":2801,"ugg":2802,"Ġwish":2803,"ĠJwww":2804,"whoop":2805,"Ġmonths":2806,"Xavier":2807,"Ġwake":2808,"Ġgro":2809,"Ġfree":2810,"ĠPeter":2811,"baa":2812,"Ġcer":2813,"ander":2814,"ĠMiss":2815,"Ġhasn":2816,"Ġenj":2817,"apple":2818,"vers":2819,"Ġstack":2820,"ednesday":2821,"Ġcard":2822,"Ġvo":2823,"elly":2824,"Ġboard":2825,"ĠChar":2826,"Ġsees":2827,"Ġfits":2828,"bie":2829,"rr":2830,"squ":2831,"Ġoatmeal":2832,"Ġeatin":2833,"ĠBr":2834,"Ġfair":2835,"Ġchoo":2836,"walk":2837,"Ġoften":2838,"Ġyell":2839,"amas":2840,"Ġsat":2841,"Ġsize":2842,"Ġstars":2843,"arent":2844,"Ġcertain":2845,"bow":2846,"band":2847,"Ġla":2848,"illa":2849,"lets":2850,"gotta":2851,"Ġsweater":2852,"Ġcher":2853,"ention":2854,"sters":2855,"Ġhappening":2856,"Ġdrinking":2857,"Ġyoung":2858,"Ġfill":2859,"Ġoven":2860,"shh":2861,"Ġunderneath":2862,"Ġwaiting":2863,"Ġbirdie":2864,"Ġfox":2865,"Ġbounce":2866,"eor":2867,"Ġcal":2868,"Ġstor":2869,"cean":2870,"Ġbroccoli":2871,"Ġpipe":2872,"Ġpushed":2873,"six":2874,"Ġplates":2875,"box":2876,"Ġgrocer":2877,"peas":2878,"Ġwo":2879,"Ġgas":2880,"Ġpigs":2881,"ible":2882,"rm":2883,"alie":2884,"ibble":2885,"ized":2886,"Ġpainting":2887,"Ġmomma":2888,"drink":2889,"Ġfeels":2890,"Ġstomach":2891,"Ġmedicine":2892,"pty":2893,"ouds":2894,"Ġdish":2895,"Ġlife":2896,"thanks":2897,"Ġcows":2898,"Ġcircus":2899,"cow":2900,"cess":2901,"Ġrooster":2902,"ĠChe":2903,"inning":2904,"Ġtractor":2905,"Ġnumbers":2906,"Ġattention":2907,"ĠWednesday":2908,"Ġcrawl":2909,"gon":2910,"Ġbes":2911,"Ġmet":2912,"Ġocean":2913,"ĠNana":2914,"brush":2915,"anything":2916,"cycle":2917,"Ġangry":2918,"uc":2919,"Ġkill":2920,"Ġwilln":2921,"elephants":2922,"under":2923,"Ġpears":2924,"ĠCatherine":2925,"ĠTimmy":2926,"Ġfixed":2927,"somebody":2928,"Ġengine":2929,"off":2930,"Ġcap":2931,"Ġcont":2932,"ats":2933,"inky":2934,"Ġste":2935,"iling":2936,"ĠUrs":2937,"Ġlaughing":2938,"Ġtus":2939,"Ġburn":2940,"ppers":2941,"Henry":2942,"iam":2943,"ĊĠ":2944,"Ġpaj":2945,"Ġalligator":2946,"ĠMot":2947,"Ġcheer":2948,"ĠThursday":2949,"Ġfalling":2950,"spoon":2951,"ĠMickey":2952,"ĠMichael":2953,"Ġba":2954,"Ġsave":2955,"ĠThe":2956,"Ġsign":2957,"Ġstir":2958,"ggy":2959,"Ġriding":2960,"aser":2961,"Ġruns":2962,"gimme":2963,"Ġbeat":2964,"Ġgoose":2965,"Ġplayin":2966,"ĠGod":2967,"Ġeasier":2968,"talk":2969,"Ġadd":2970,"Ġpack":2971,"ami":2972,"Ġdinosaurs":2973,"yan":2974,"Ġbra":2975,"Ġcro":2976,"arter":2977,"ote":2978,"Ġmyself":2979,"Ġwonderful":2980,"Ġcloset":2981,"ding":2982,"ĠBird":2983,"Ġworry":2984,"ĠAunt":2985,"Ġmush":2986,"Ġcost":2987,"Ġclouds":2988,"aws":2989,"Ġsqueak":2990,"Ġsurprised":2991,"Ġenjoy":2992,"bee":2993,"lves":2994,"sian":2995,"Ġson":2996,"Ġplane":2997,"ĠErnie":2998,"Ġmachine":2999,"lon":3000,"pop":3001,"Ġgames":3002,"hot":3003,"actually":3004,"Ġexcited":3005,"ĠMary":3006,"ĠMaggie":3007,"ored":3008,"ravis":3009,"angle":3010,"Ġkept":3011,"next":3012,"Ġgentle":3013,"ently":3014,"Ġrecognize":3015,"app":3016,"Ġsink":3017,"Ġsur":3018,"Ġusing":3019,"John":3020,"Ġsim":3021,"Ġhos":3022,"lly":3023,"eth":3024,"Ġcoll":3025,"Ġbridge":3026,"welve":3027,"firstname":3028,"Ġhealth":3029,"Ġyep":3030,"Ġpretz":3031,"Ġbatter":3032,"Ġturning":3033,"oopy":3034,"Ġwriting":3035,"Ġjumped":3036,"Ġmuffin":3037,"dge":3038,"kno":3039,"ray":3040,"ĠY":3041,"usage":3042,"ounds":3043,"ĠBob":3044,"Child":3045,"kins":3046,"ĠJune":3047,"ĠTuesday":3048,"gra":3049,"iw":3050,"ky":3051,"ara":3052,"ĠAl":3053,"Ġsi":3054,"anas":3055,"about":3056,"Ġsoap":3057,"ĠBar":3058,"Ġpreschool":3059,"pital":3060,"Ġbib":3061,"ĠRob":3062,"Ġpicking":3063,"ĠMummy":3064,"Ġcherry":3065,"Firstname":3066,"set":3067,"Ġtie":3068,"Ġmud":3069,"Ġhus":3070,"Ġyard":3071,"Ġnewsp":3072,"Ġparrot":3073,"Ġexactly":3074,"Ġfence":3075,"ashed":3076,"Ġballet":3077,"Ġspots":3078,"ctop":3079,"lip":3080,"Ġpoin":3081,"Ġknife":3082,"Ġcamera":3083,"tickle":3084,"Roman":3085,"fight":3086,"ature":3087,"Ġknocked":3088,"Ġempty":3089,"achel":3090,"Ġtusks":3091,"even":3092,"Ġhon":3093,"ident":3094,"Ġlift":3095,"Ġplums":3096,"Ġspeak":3097,"land":3098,"Ġer":3099,"oosha":3100,"Ġshell":3101,"Ġrocks":3102,"Ġribbit":3103,"Ġfresh":3104,"Ġpajamas":3105,"buzz":3106,"milk":3107,"ham":3108,"Ġpair":3109,"stay":3110,"Ġrac":3111,"hop":3112,"ĠSte":3113,"Ġpickle":3114,"Ġpiggie":3115,"Ġgiraffe":3116,"Ġbark":3117,"Ġhum":3118,"Ġthinks":3119,"Ġasleep":3120,"ered":3121,"Ġcalling":3122,"Ġfact":3123,"Ġhospital":3124,"Ġrug":3125,"gen":3126,"ncle":3127,"aund":3128,"ĠAlex":3129,"Ġshopping":3130,"iwi":3131,"ric":3132,"tie":3133,"Ġtri":3134,"Ġdifference":3135,"alloween":3136,"Ġseal":3137,"Ġgum":3138,"llip":3139,"board":3140,"Ġsinging":3141,"Ġsmaller":3142,"ctopus":3143,"Ġfuzzy":3144,"Ġjo":3145,"ĠRyan":3146,"Ġmakin":3147,"Ġvan":3148,"llipop":3149,"Ġfield":3150,"everybody":3151,"Ġsplash":3152,"Ġmotorcycle":3153,"icycle":3154,"aundry":3155,"bread":3156,"ca":3157,"may":3158,"una":3159,"ĠZ":3160,"Ġlaundry":3161,"Ġpil":3162,"melon":3163,"ĠMorgan":3164,"lots":3165,"Alex":3166,"Claus":3167,"cookie":3168,"pig":3169,"Ġlose":3170,"ĠCind":3171,"Ġcarri":3172,"ĠGrover":3173,"Ġhurry":3174,"Ġbottles":3175,"Ġhusband":3176,"bble":3177,"oth":3178,"ying":3179,"ula":3180,"Ġuhhuh":3181,"stick":3182,"ĠHalloween":3183,"An":3184,"Mar":3185,"hard":3186,"Ġbur":3187,"Ġlick":3188,"ĠBrooklyn":3189,"ction":3190,"Ġart":3191,"ĠPat":3192,"Ġladder":3193,"Ġsharp":3194,"Ġsafe":3195,"Ġanywhere":3196,"Peter":3197,"wr":3198,"Ġwww":3199,"Ġdirt":3200,"Ġpond":3201,"Ġplant":3202,"Ġpepper":3203,"rian":3204,"Ġfifty":3205,"has":3206,"Ġdeal":3207,"Ġcents":3208,"Ġsauce":3209,"truck":3210,"vestigator":3211,"Ġwat":3212,"urt":3213,"ĠMelissa":3214,"Ġeaten":3215,"ĠSam":3216,"Ġlistening":3217,"Ġfollow":3218,"guess":3219,"ĠErin":3220,"Ġsewing":3221,"knock":3222,"find":3223,"whats":3224,"Ġweird":3225,"ummhm":3226,"hip":3227,"Ġquarter":3228,"Ġexcuse":3229,"mother":3230,"Ġgrown":3231,"ĠInd":3232,"Ġyucky":3233,"Ġsmile":3234,"call":3235,"Ġheart":3236,"sty":3237,"berry":3238,"Ġagainst":3239,"Ġladybug":3240,"Ġbananas":3241,"Ġwaffles":3242,"bs":3243,"Ġwild":3244,"Ġgold":3245,"Ġbackwards":3246,"Ġdollar":3247,"Ġsticks":3248,"Ġskunk":3249,"bunny":3250,"oosh":3251,"Ġpir":3252,"Ġtown":3253,"ĠMa":3254,"Ġcupcakes":3255,"great":3256,"Ġdolphin":3257,"ĠCharlie":3258,"noopy":3259,"ped":3260,"ual":3261,"happy":3262,"Ġind":3263,"quick":3264,"ĠGeor":3265,"Ġcrackers":3266,"cut":3267,"ipper":3268,"pet":3269,"Ġea":3270,"Ġsuper":3271,"ilar":3272,"tycake":3273,"today":3274,"Ġeverywhere":3275,"Ġfeeling":3276,"Ġawful":3277,"Ġrais":3278,"Ġstopped":3279,"ime":3280,"Ġmister":3281,"erc":3282,"Ġnibble":3283,"ĠThomas":3284,"Ġlonger":3285,"Ġfarmer":3286,"Ġstories":3287,"cin":3288,"tur":3289,"eapple":3290,"doggie":3291,"Ġchop":3292,"eh":3293,"ka":3294,"lo":3295,"Ġwag":3296,"Ġtools":3297,"ĠBoo":3298,"Ġhipp":3299,"oe":3300,"Ġdough":3301,"Ġgun":3302,"Ġlollipop":3303,"plain":3304,"Ġgrandpa":3305,"Joseph":3306,"rick":3307,"tom":3308,"Ġhandle":3309,"cod":3310,"Ġafterno":3311,"Ġdeer":3312,"Ġfirefight":3313,"ĠMatty":3314,"Ġwhisper":3315,"Ġnewspaper":3316,"fro":3317,"ru":3318,"Ġdanger":3319,"Ġhorn":3320,"Ġspin":3321,"ĠKalie":3322,"bang":3323,"ges":3324,"ju":3325,"light":3326,"anda":3327,"Ġext":3328,"Ġbless":3329,"Ġbuzz":3330,"Ġvoice":3331,"ĠAfrican":3332,"ouses":3333,"Ġfeeding":3334,"Ġtastes":3335,"Ġregular":3336,"Mister":3337,"ining":3338,"Ġfus":3339,"Ġseemed":3340,"ense":3341,"Ġant":3342,"Ġplayer":3343,"Ġsausage":3344,"Mon":3345,"Ġmhm":3346,"aron":3347,"otch":3348,"Ġyog":3349,"Ġpenguin":3350,"itter":3351,"Ġcarto":3352,"ĊĊĊĊĊĊĊĊ":3353,"hurry":3354,"Ġhealthy":3355,"ooshas":3356,"bu":3357,"gi":3358,"pot":3359,"thin":3360,"male":3361,"Ġtwelve":3362,"Ġcand":3363,"nobody":3364,"ĠMegan":3365,"ĠJack":3366,"Ġbroom":3367,"ĠGra":3368,"Ġcamp":3369,"Nathaniel":3370,"Ġtear":3371,"Ġborn":3372,"Ġce":3373,"kend":3374,"ĠCookie":3375,"Ġgroup":3376,"Ġmagic":3377,"Ġweekend":3378,"ĠInvestigator":3379,"pr":3380,"Ġsir":3381,"etch":3382,"iced":3383,"ative":3384,"Ġrad":3385,"Ġroof":3386,"chic":3387,"umpty":3388,"Ġbubbles":3389,"Ġafternoon":3390,"Baby":3391,"nose":3392,"vent":3393,"Ġbother":3394,"Ġflat":3395,"cially":3396,"Ġtomato":3397,"Ġrolling":3398,"bed":3399,"iv":3400,"ided":3401,"nah":3402,"Ġmeow":3403,"Ġhurts":3404,"Ġlearned":3405,"Ġfamil":3406,"lt":3407,"Ġbone":3408,"Ġmatch":3409,"Ġpor":3410,"Ġjelly":3411,"Ġscream":3412,"Ġthrowing":3413,"Ġbeep":3414,"Ġmostly":3415,"everything":3416,"Ġacc":3417,"Ġlaugh":3418,"Ġcross":3419,"Ġputs":3420,"Ġsend":3421,"Ġforest":3422,"clean":3423,"Ġnic":3424,"doll":3425,"ĠMatthew":3426,"Ġnoises":3427,"cock":3428,"Ġcous":3429,"Ġless":3430,"Ġhill":3431,"Ġrough":3432,"men":3433,"ared":3434,"ĠDo":3435,"mma":3436,"ĠWinnie":3437,"Ġpuzzles":3438,"Ġrattle":3439,"chicken":3440,"bear":3441,"lic":3442,"sweet":3443,"Ġduckie":3444,"Ġchanged":3445,"Ġwire":3446,"Ġwalked":3447,"Ġsuck":3448,"Ġmeas":3449,"Ġpac":3450,"ittin":3451,"Ġbeginning":3452,"eme":3453,"work":3454,"Ġtalked":3455,"Ġfeather":3456,"Ġwashed":3457,"rac":3458,"Ġneigh":3459,"Ġcrab":3460,"itcher":3461,"finish":3462,"Mat":3463,"Ġes":3464,"Ġdig":3465,"Ġhar":3466,"len":3467,"abr":3468,"Ġherself":3469,"pecially":3470,"Ġstarts":3471,"Ġpretending":3472,"Ġtasty":3473,"Ġtub":3474,"Ġbright":3475,"Ġpoo":3476,"selves":3477,"Ġnorm":3478,"ient":3479,"Ġpress":3480,"Ġtrack":3481,"ĠLe":3482,"clap":3483,"Ġasking":3484,"iously":3485,"Ġgiant":3486,"better":3487,"Ġcarriage":3488,"dri":3489,"ler":3490,"ific":3491,"Ġturns":3492,"going":3493,"ĠNew":3494,"Ġchip":3495,"Ġwhether":3496,"Ġsalami":3497,"scar":3498,"Ġsneak":3499,"Ġsimilar":3500,"iar":3501,"Ġduring":3502,"Ġmice":3503,"ushi":3504,"ĠAnd":3505,"Ġwatermelon":3506,"Ġdrawer":3507,"fort":3508,"Ġpenny":3509,"fect":3510,"chocolate":3511,"Ġge":3512,"seven":3513,"Ġtray":3514,"Ġcrib":3515,"ĠKaren":3516,"ambi":3517,"Ġdesk":3518,"Ġsquirrel":3519,"lay":3520,"pee":3521,"ssh":3522,"ison":3523,"inda":3524,"ĠDan":3525,"Ġopened":3526,"Ġpulling":3527,"blow":3528,"chair":3529,"Ġmuffins":3530,"ios":3531,"mp":3532,"Ġmeal":3533,"Ġpas":3534,"Ġoctopus":3535,"ult":3536,"people":3537,"Ġpresents":3538,"Ġterrible":3539,"ĠCarl":3540,"codile":3541,"Big":3542,"Morgan":3543,"count":3544,"yuck":3545,"Ġdaught":3546,"enn":3547,"Ġkeeps":3548,"unhunh":3549,"Ġwaved":3550,"Brown":3551,"Mom":3552,"eight":3553,"Ġwings":3554,"Ġkiwi":3555,"Ġsayin":3556,"Ġfalls":3557,"Ġchoke":3558,"spaghetti":3559,"ĠRobin":3560,"ba":3561,"kiss":3562,"Ġgoat":3563,"ĠPapa":3564,"Ġsticky":3565,"Ġmessy":3566,"Ġhuge":3567,"Ġgrowing":3568,"Ġballoons":3569,"Ġeleven":3570,"Ġsippy":3571,"Michael":3572,"Ġtee":3573,"Ġcab":3574,"Ġpitcher":3575,"Ġgod":3576,"omen":3577,"soon":3578,"ĠSnoopy":3579,"Ġstarting":3580,"fer":3581,"zer":3582,"Ġtiss":3583,"Ġrel":3584,"Ġabove":3585,"Ġchin":3586,"ĠChris":3587,"Ġdead":3588,"Ġple":3589,"Ġthumb":3590,"eeze":3591,"arn":3592,"Ġlibr":3593,"Ġcarpet":3594,"Ġshoot":3595,"Ġmeant":3596,"ĊĊĊĊĊ":3597,"Ġriver":3598,"doo":3599,"num":3600,"won":3601,"Ġpract":3602,"Ġtip":3603,"Ġage":3604,"eener":3605,"Ġsnakes":3606,"tles":3607,"llen":3608,"Ġbugs":3609,"ĠKat":3610,"Ġpulled":3611,"Ġcleaning":3612,"Ġplants":3613,"rt":3614,"zing":3615,"Ġcast":3616,"peanut":3617,"Ġdangerous":3618,"Ġfamiliar":3619,"dad":3620,"ium":3621,"tuce":3622,"rap":3623,"Ġchest":3624,"Ġshowed":3625,"Ġparts":3626,"Ġpartic":3627,"Ġimag":3628,"Ġpineapple":3629,"mies":3630,"nut":3631,"nger":3632,"sm":3633,"vroom":3634,"hand":3635,"Ġbumble":3636,"Ġger":3637,"Ġgotten":3638,"Ġdrum":3639,"Ġcowboy":3640,"burg":3641,"Ġdragon":3642,"Ġtrunks":3643,"kinda":3644,"Ġrubber":3645,"Ġvacation":3646,"Ġgrocery":3647,"ĠCheer":3648,"ym":3649,"ites":3650,"Ġlid":3651,"Ġpony":3652,"esame":3653,"Ġhook":3654,"Ġhouses":3655,"Ġclear":3656,"Ġbull":3657,"Ġnamed":3658,"Ġknee":3659,"ĠUncle":3660,"gir":3661,"erob":3662,"Ġthird":3663,"Ġninet":3664,"before":3665,"ulia":3666,"Ġshower":3667,"Ġmonkeys":3668,"lmo":3669,"Ġnibbled":3670,"Ġdaughter":3671,"inger":3672,"Ġfe":3673,"Ġlie":3674,"Ġseeds":3675,"Ġcol":3676,"ĠLittle":3677,"Ġcountry":3678,"ĠFraser":3679,"ittens":3680,"cook":3681,"Ġcor":3682,"urch":3683,"hang":3684,"ĠBe":3685,"lia":3686,"Ġexcept":3687,"scotch":3688,"Ġpushing":3689,"Ġmagnets":3690,"although":3691,"Ġache":3692,"real":3693,"Ġcage":3694,"Ġinter":3695,"Ġcob":3696,"ĠDonald":3697,"ĠRachel":3698,"Ġcried":3699,"awoh":3700,"Ġstrip":3701,"aaee":3702,"Ġsupposed":3703,"Ġcertainly":3704,"Ġlibrary":3705,"erobics":3706,"yah":3707,"Ġtunn":3708,"Ġwoo":3709,"ices":3710,"Ġspank":3711,"Ġcards":3712,"Ġdeliver":3713,"Ġfriendly":3714,"Ġpotty":3715,"pretend":3716,"ĠĊ":3717,"Ġpass":3718,"Ġinv":3719,"iron":3720,"Ġcomput":3721,"Ġrecording":3722,"Ġsurprise":3723,"Ġfirefighter":3724,"juice":3725,"etchup":3726,"Ġplenty":3727,"woo":3728,"Ġpoop":3729,"als":3730,"Ġflo":3731,"Ġlived":3732,"Ġhanging":3733,"Ġcreature":3734,"ĠIndian":3735,"Monster":3736,"fit":3737,"used":3738,"Ġoops":3739,"Ġsell":3740,"ief":3741,"ĠEaster":3742,"Ġfroggie":3743,"Ġwolf":3744,"Ġmushroom":3745,"Ġpilot":3746,"Car":3747,"Chr":3748,"ters":3749,"Ġgoodbye":3750,"Ġtaken":3751,"Ġstrange":3752,"Ġwagon":3753,"last":3754,"Ġtill":3755,"Ġprot":3756,"Ġplaces":3757,"tap":3758,"erella":3759,"Ġtreat":3760,"Ġwinter":3761,"Ġhay":3762,"oring":3763,"tains":3764,"ĠAsian":3765,"Ġswitch":3766,"Ġmovies":3767,"Ġfold":3768,"Ġexciting":3769,"Ġwhale":3770,"Donald":3771,"iana":3772,"Ġgross":3773,"Ġcough":3774,"kee":3775,"ĠMc":3776,"goodbye":3777,"Ġshapes":3778,"Ġpile":3779,"Ġbeads":3780,"mom":3781,"ition":3782,"Ġbal":3783,"Ġcooked":3784,"ley":3785,"soft":3786,"ĠSally":3787,"Ġthanks":3788,"Ġpurse":3789,"rom":3790,"whe":3791,"Ġbaa":3792,"Ġmoun":3793,"Ġseeing":3794,"icky":3795,"Ġbran":3796,"ĠLinda":3797,"ĠHar":3798,"ĠHoney":3799,"Ġsticking":3800,"Ġhopscotch":3801,"anybody":3802,"dding":3803,"Ġkittens":3804,"Ġcalf":3805,"Ġcrocodile":3806,"Ġparticular":3807,"ject":3808,"ses":3809,"Ġpeel":3810,"butter":3811,"Ġwrote":3812,"Ġpops":3813,"Ġpenguins":3814,"Mandy":3815,"bot":3816,"mst":3817,"po":3818,"pie":3819,"Ġtough":3820,"Ġsle":3821,"umbo":3822,"ĠShe":3823,"Ġcrash":3824,"Ġzipper":3825,"Ġexerc":3826,"Ġfireman":3827,"Ġbelt":3828,"Ġyogurt":3829,"Eve":3830,"Ġx":3831,"ĠBert":3832,"Ġgives":3833,"Ġshark":3834,"ĠGrandpa":3835,"Ġgener":3836,"ĠAnn":3837,"Ġtunnel":3838,"mstress":3839,"Ġaerobics":3840,"Ġmam":3841,"Ġparent":3842,"abit":3843,"Ġallow":3844,"auce":3845,"Ġbeds":3846,"Ġchurch":3847,"flies":3848,"roller":3849,"shoes":3850,"lings":3851,"ically":3852,"cky":3853,"Ġsquirt":3854,"Ġknees":3855,"boun":3856,"Ġlar":3857,"Ġpear":3858,"Ġot":3859,"Ġug":3860,"ittany":3861,"hies":3862,"Ġalive":3863,"ulp":3864,"Ġhate":3865,"leader":3866,"Johnny":3867,"abrie":3868,"Paul":3869,"dow":3870,"ik":3871,"Ġwomen":3872,"oodles":3873,"Ġwashing":3874,"iles":3875,"Ġrabbits":3876,"Ġfemale":3877,"abitha":3878,"cool":3879,"lk":3880,"pu":3881,"viously":3882,"Ġcash":3883,"ifer":3884,"Ġtool":3885,"Ġzoom":3886,"Ġconf":3887,"Ġgrape":3888,"Ġsnip":3889,"Ġtriangle":3890,"love":3891,"str":3892,"Ġrip":3893,"ala":3894,"Ġthemselves":3895,"opher":3896,"ĠBrian":3897,"Ġswiss":3898,"Ġsmoo":3899,"Ġregister":3900,"Ġtissue":3901,"Fr":3902,"lish":3903,"Ġcord":3904,"Ġhen":3905,"Ġshelf":3906,"Ġnotice":3907,"Ġyay":3908,"usually":3909,"pect":3910,"Ġhelps":3911,"place":3912,"Ġknit":3913,"case":3914,"min":3915,"said":3916,"wood":3917,"hehe":3918,"Ġburp":3919,"Ġcase":3920,"Ġrep":3921,"Ġbeets":3922,"Ġnum":3923,"Ġspit":3924,"Ġshowing":3925,"Ġraining":3926,"Ġnurse":3927,"Ġwatched":3928,"cal":3929,"ced":3930,"ida":3931,"Ġclaws":3932,"Ġlemon":3933,"Ġchewing":3934,"Ġneckl":3935,"Ġdecided":3936,"Ġcheerleader":3937,"Ġpretzel":3938,"Ġnicke":3939,"hor":3940,"par":3941,"sna":3942,"itam":3943,"Ġmac":3944,"Ġketchup":3945,"Ġrings":3946,"Ġnope":3947,"amie":3948,"Ġlets":3949,"Ġlettuce":3950,"Ġseamstress":3951,"Ġperfect":3952,"Ġbesides":3953,"Ġboring":3954,"ĠSc":3955,"Ġtells":3956,"Ġflies":3957,"iffy":3958,"Ġdiapers":3959,"Ġpirate":3960,"Ġpasse":3961,"abriella":3962,"silly":3963,"Ġding":3964,"ids":3965,"Ġru":3966,"host":3967,"Ġnone":3968,"woah":3969,"Ġhelping":3970,"Ġbaba":3971,"vision":3972,"ĠJoe":3973,"Ġsailor":3974,"David":3975,"Ġought":3976,"ĠTravis":3977,"Ġhelped":3978,"Ġunless":3979,"Ġprom":3980,"ĠJoey":3981,"Ġdusting":3982,"driver":3983,"mine":3984,"Ġdie":3985,"still":3986,"ĠMandy":3987,"again":3988,"quit":3989,"Ġchalk":3990,"Ġsuit":3991,"Ġpottie":3992,"Er":3993,"cmon":3994,"sa":3995,"while":3996,"Ġbunn":3997,"orts":3998,"ashing":3999,"Ġjam":4000,"Ġyyy":4001,"Ġwhose":4002,"Ġchee":4003,"Ġfoods":4004,"Ġeveryone":4005,"Ġdollie":4006,"chew":4007,"Ġvide":4008,"Ġfixing":4009,"olin":4010,"Ġawhile":4011,"Ġsnowman":4012,"Ġvegetable":4013,"Ġcomputer":4014,"Ġoughta":4015,"az":4016,"gee":4017,"Ġama":4018,"Ġsense":4019,"Ġbicycle":4020,"levision":4021,"Ġoutfit":4022,"Ġcutting":4023,"Ġimport":4024,"Ġlanded":4025,"Ġraisins":4026,"pur":4027,"Ġtaught":4028,"Ġdat":4029,"Ġdep":4030,"ano":4031,"Ġcop":4032,"Ġlang":4033,"Ġmill":4034,"Ġmist":4035,"icked":4036,"Ġstation":4037,"Ġupset":4038,"ĠDingo":4039,"Ġloved":4040,"tomorrow":4041,"Ġfeathers":4042,"ĠCheerios":4043,"bor":4044,"nine":4045,"Ġfrench":4046,"sting":4047,"Ġjus":4048,"ustr":4049,"Ġanyone":4050,"ĠBambi":4051,"Ġworm":4052,"Ġchickens":4053,"udd":4054,"useum":4055,"Ġcurtain":4056,"alent":4057,"gle":4058,"ilet":4059,"sie":4060,"zen":4061,"Ġsittin":4062,"ĠSesame":4063,"Ġload":4064,"issors":4065,"Ġbites":4066,"Ġsmiling":4067,"Ġboxes":4068,"Ġextra":4069,"Ġradio":4070,"Ġlangu":4071,"Pat":4072,"Ġtweet":4073,"Ġtank":4074,"Ġdar":4075,"Ġfake":4076,"ved":4077,"vered":4078,"start":4079,"Ġrides":4080,"Ġnoticed":4081,"never":4082,"Ġducklings":4083,"Ġdecor":4084,"Ġlately":4085,"Ġprotect":4086,"Jo":4087,"eyes":4088,"ookee":4089,"Ġmittens":4090,"orgie":4091,"ict":4092,"Ġrob":4093,"ĠMother":4094,"Ġbabys":4095,"sheep":4096,"Ġmetal":4097,"Ġsurf":4098,"Ġaccident":4099,"Ġimportant":4100,"St":4101,"ial":4102,"uke":4103,"wash":4104,"ering":4105,"Ġhall":4106,"arf":4107,"Ġsoda":4108,"lorida":4109,"ĠNonna":4110,"Ġpenn":4111,"Ġlearning":4112,"Ġtelevision":4113,"Matthew":4114,"Ġdada":4115,"Ġpeach":4116,"ath":4117,"Ġruff":4118,"ience":4119,"ĠMan":4120,"Ġyuck":4121,"ellent":4122,"Ġcart":4123,"lier":4124,"Ġchar":4125,"Ġjumps":4126,"Ġbelongs":4127,"Ġbucket":4128,"aroni":4129,"ĠGraeme":4130,"June":4131,"Ġhee":4132,"aste":4133,"ĠJudy":4134,"ĠWeener":4135,"Ġmuscles":4136,"ĠOliver":4137,"af":4138,"need":4139,"wipe":4140,"Ġspray":4141,"ulk":4142,"Ġvroom":4143,"Ġbeaver":4144,"iled":4145,"carrot":4146,"Ġsteps":4147,"romer":4148,"ae":4149,"ean":4150,"gest":4151,"wise":4152,"rese":4153,"ichard":4154,"Ġlemme":4155,"Ġdoors":4156,"ĠKent":4157,"Ġsuitc":4158,"ĠJohnny":4159,"ĠDoctor":4160,"Ġlanguage":4161,"brown":4162,"egg":4163,"esus":4164,"Ġnoodles":4165,"Ġcoloring":4166,"ĠGr":4167,"Ġbiting":4168,"Ġdoggies":4169,"black":4170,"Ġbrothers":4171,"Ġspilled":4172,"Ġbatteries":4173,"Alexander":4174,"Ġcartoon":4175,"beep":4176,"tha":4177,"itches":4178,"Ġhavin":4179,"whatever":4180,"Ġgobble":4181,"Ġbabydoll":4182,"bert":4183,"Ġpancakes":4184,"izes":4185,"anyway":4186,"screw":4187,"Ġotter":4188,"Ġmistake":4189,"draw":4190,"touch":4191,"Ġteas":4192,"Ġsushi":4193,"Ġkitt":4194,"Ġforty":4195,"Ġspend":4196,"Ġteam":4197,"exture":4198,"Ġdancer":4199,"gentle":4200,"Ġparents":4201,"ban":4202,"bea":4203,"sal":4204,"wah":4205,"Ġhy":4206,"lete":4207,"Ġblood":4208,"Ġcalls":4209,"Ġpiano":4210,"Ġsongs":4211,"Ġnuts":4212,"Br":4213,"bro":4214,"cent":4215,"makes":4216,"oc":4217,"Ġwoke":4218,"isha":4219,"Ġlucky":4220,"Ġtoilet":4221,"arch":4222,"Ġflav":4223,"ĠFlorida":4224,"except":4225,"ĠAuntie":4226,"Mrs":4227,"gies":4228,"sounds":4229,"Ġbi":4230,"Ġtowards":4231,"Ġrow":4232,"Ġplain":4233,"Ġoffice":4234,"Ġuses":4235,"Ġtouching":4236,"oofy":4237,"hino":4238,"Ġdecide":4239,"Ġfifteen":4240,"bottle":4241,"Ġugly":4242,"Ġnecklace":4243,"Mr":4244,"Maggie":4245,"doodle":4246,"made":4247,"vy":4248,"wee":4249,"Ġbones":4250,"Ġlines":4251,"Ġmuseum":4252,"Ġposs":4253,"Ġthro":4254,"ette":4255,"ift":4256,"ĠSwww":4257,"ĠTod":4258,"Ġscissors":4259,"ĠGram":4260,"Ġcastle":4261,"catch":4262,"foot":4263,"Ġtexture":4264,"Ġcannot":4265,"Ġputtin":4266,"ĠCl":4267,"ĠKay":4268,"bless":4269,"Ġbags":4270,"wasn":4271,"Ġobviously":4272,"food":4273,"Ġwre":4274,"Ġsy":4275,"Ġdist":4276,"Ġdire":4277,"Ġstroller":4278,"Ġspring":4279,"ĠCh":4280,"Ġuhoh":4281,"color":4282,"Ġvitam":4283,"ĠElmo":4284,"oopsie":4285,"ĠMomma":4286,"ĠCinderella":4287,"Ġcousin":4288,"Ġbunnies":4289,"home":4290,"hunhunh":4291,"lad":4292,"rabbit":4293,"haps":4294,"Ġlist":4295,"Ġtot":4296,"ushing":4297,"ocks":4298,"Ġcrumb":4299,"Ġbathroom":4300,"uddy":4301,"Ġbasketball":4302,"Ġdrain":4303,"Ġhours":4304,"Ġnoisy":4305,"Ġfancy":4306,"fine":4307,"hors":4308,"must":4309,"spl":4310,"uum":4311,"Ġcity":4312,"Ġeh":4313,"Ġstudy":4314,"Ġbean":4315,"Ġshh":4316,"ĠAr":4317,"ĠTim":4318,"Ġexplain":4319,"ĠWill":4320,"Ġbutterflies":4321,"Ġblowing":4322,"Ġbubble":4323,"fortable":4324,"pan":4325,"ron":4326,"sive":4327,"ume":4328,"Ġtuna":4329,"hafta":4330,"Ġaunt":4331,"once":4332,"Ġgate":4333,"Ġloose":4334,"Ġstink":4335,"Ġbend":4336,"Ġclip":4337,"Ġhomework":4338,"god":4339,"Ġstays":4340,"Ġsudd":4341,"Ġfrosting":4342,"Ġchips":4343,"antha":4344,"ations":4345,"Ġdisapp":4346,"Ġclimbing":4347,"Ġpasta":4348,"pattycake":4349,"slow":4350,"Ġcolored":4351,"Ġallowed":4352,"Ġsudden":4353,"press":4354,"Ġlying":4355,"ete":4356,"Ġhose":4357,"Ġstool":4358,"tern":4359,"Ġsometime":4360,"Ġshiny":4361,"Ġshot":4362,"Ġmoved":4363,"Ġrained":4364,"Ġpumpkins":4365,"Ġvanilla":4366,"Kay":4367,"fire":4368,"house":4369,"hins":4370,"nin":4371,"peep":4372,"Ġflip":4373,"Ġund":4374,"Ġcane":4375,"ĠBrown":4376,"Ġtalks":4377,"Ġopens":4378,"ĊĊĊĊĊĊ":4379,"Ġhugs":4380,"Ġfaster":4381,"write":4382,"Ġvideo":4383,"fo":4384,"fall":4385,"kers":4386,"tea":4387,"rect":4388,"nort":4389,"orm":4390,"enny":4391,"Ġmoves":4392,"Ġdime":4393,"Ġcloth":4394,"Ġwondering":4395,"Ġslippers":4396,"Ġpacked":4397,"Ġnickel":4398,"Jwww":4399,"feet":4400,"Ġbas":4401,"isc":4402,"Ġlow":4403,"Ġpad":4404,"etty":4405,"through":4406,"Ġcock":4407,"Ġchase":4408,"Ġsmoke":4409,"ĠHe":4410,"ĠWood":4411,"Ġwears":4412,"Ġsecret":4413,"ola":4414,"Ġscrewdriver":4415,"Ġmeasuring":4416,"Ġnormally":4417,"purple":4418,"Dillon":4419,"Melissa":4420,"sery":4421,"yard":4422,"zip":4423,"Ġgym":4424,"Ġpow":4425,"andra":4426,"ened":4427,"Ġabc":4428,"akin":4429,"ĠTom":4430,"white":4431,"Ġskirt":4432,"ĠMariana":4433,"Ġquestions":4434,"Ġmarket":4435,"ĠUrsula":4436,"ĠBobby":4437,"Ġharder":4438,"Ġmacaroni":4439,"Ste":4440,"ging":4441,"hones":4442,"Ġiron":4443,"Ġghost":4444,"Ġmashed":4445,"Ġfool":4446,"icle":4447,"Ġrope":4448,"Ġjar":4449,"ello":4450,"ĠBo":4451,"Ġqueen":4452,"Ġgrew":4453,"ĠKing":4454,"Ġearlier":4455,"Ġcutie":4456,"Ġchance":4457,"zebra":4458,"Ġzzz":4459,"icing":4460,"iest":4461,"ĠSw":4462,"Ġworked":4463,"easy":4464,"trying":4465,"ceros":4466,"Ġprin":4467,"Ġpuppies":4468,"Ġcarrying":4469,"Ġslipper":4470,"bing":4471,"nifer":4472,"ero":4473,"Ġfas":4474,"ĠCo":4475,"ĠDada":4476,"Ġwhist":4477,"Ġbringing":4478,"Ġturtles":4479,"ddya":4480,"Ġcomplete":4481,"God":4482,"di":4483,"lass":4484,"pink":4485,"Ġginger":4486,"alif":4487,"Ġje":4488,"rain":4489,"Ġorder":4490,"agged":4491,"Ġhats":4492,"Ġglo":4493,"Ġski":4494,"Ġcounting":4495,"Ġawfully":4496,"randma":4497,"Ġtoothbrush":4498,"ĠJennifer":4499,"Tyrese":4500,"pril":4501,"Ġneighbor":4502,"done":4503,"ues":4504,"Ġwide":4505,"Ġdeep":4506,"aylen":4507,"Ġsteak":4508,"usting":4509,"uss":4510,"aker":4511,"Ġzip":4512,"someone":4513,"Ġproud":4514,"Ġmountain":4515,"hinoceros":4516,"Bob":4517,"bon":4518,"haw":4519,"Ġgulp":4520,"their":4521,"strawber":4522,"inkle":4523,"Ġbees":4524,"Ġforth":4525,"ĠBen":4526,"Ġtries":4527,"Ġbeak":4528,"Ġamount":4529,"Ġlaying":4530,"Ġmarried":4531,"Ġfighting":4532,"Ġserious":4533,"Ġdolphins":4534,"Ġnursery":4535,"ĠMax":4536,"goo":4537,"Ġbank":4538,"isco":4539,"oment":4540,"opot":4541,"ĠClaus":4542,"Ġflap":4543,"Ġfaces":4544,"Ġteachers":4545,"aliforn":4546,"Ġtest":4547,"Ġwip":4548,"Ġitself":4549,"Ġstinky":4550,"umhum":4551,"ĠCromer":4552,"Ġass":4553,"Ġworried":4554,"Ġsits":4555,"ĠGabriella":4556,"Ġsandbox":4557,"Ġrestaur":4558,"Ġcompany":4559,"Ġbeside":4560,"giving":4561,"Ġkitties":4562,"Moon":4563,"hoo":4564,"waff":4565,"Ġwigg":4566,"Ġtor":4567,"eez":4568,"around":4569,"Ġlions":4570,"adad":4571,"Ġatta":4572,"rock":4573,"Ġleaving":4574,"Ġpicks":4575,"Ġcleaned":4576,"Ġwheat":4577,"Ġwindows":4578,"Ġstarfish":4579,"licop":4580,"alifornia":4581,"Megan":4582,"Nina":4583,"iness":4584,"Ġmain":4585,"Ġmerry":4586,"iches":4587,"ĠMac":4588,"amus":4589,"boat":4590,"ĠTy":4591,"Ġshadow":4592,"ungle":4593,"Ġchoose":4594,"ĠEric":4595,"Ġtyp":4596,"Ġmixed":4597,"fix":4598,"ruff":4599,"ination":4600,"isney":4601,"Ġlake":4602,"Ġmoment":4603,"Ġpost":4604,"Ġpork":4605,"erg":4606,"Ġspr":4607,"Ġwhoa":4608,"yours":4609,"Ġmonsters":4610,"udge":4611,"Ġscrews":4612,"Ġsharing":4613,"Ġelect":4614,"Ġwaving":4615,"ĠGeorge":4616,"opotamus":4617,"cap":4618,"lin":4619,"rup":4620,"wa":4621,"Ġbac":4622,"isl":4623,"Ġpunch":4624,"Ġpounds":4625,"hog":4626,"chy":4627,"ĠMiffy":4628,"sol":4629,"ugs":4630,"Ġwoods":4631,"cupine":4632,"Ġbandaid":4633,"Ġeagle":4634,"Ġdarling":4635,"run":4636,"Ġaqu":4637,"Ġsides":4638,"Ġpos":4639,"arium":4640,"Ġnothin":4641,"Ġsteal":4642,"tast":4643,"sher":4644,"boys":4645,"ĠGood":4646,"Ġsund":4647,"ngers":4648,"Ġdrives":4649,"Ġsquirre":4650,"lookee":4651,"Ġheat":4652,"Ġsold":4653,"Ġbud":4654,"ĠPig":4655,"Ġshovel":4656,"Ġmustard":4657,"Ġcoats":4658,"Ġvacuum":4659,"Ġespecially":4660,"Ġpractice":4661,"licopter":4662,"islinn":4663,"Travis":4664,"bump":4665,"later":4666,"Ġship":4667,"Ġpapa":4668,"Ġhig":4669,"asure":4670,"Ġbackyard":4671,"Ġnail":4672,"Ġbeef":4673,"ments":4674,"Ġcircles":4675,"Ġgrapes":4676,"Ġpassengers":4677,"Ġsuitcase":4678,"Catherine":4679,"came":4680,"py":4681,"onds":4682,"Ġhitting":4683,"ĠMouse":4684,"ĠSha":4685,"osh":4686,"Ġothers":4687,"things":4688,"ĠRo":4689,"plan":4690,"Ġgrade":4691,"ude":4692,"Ġsandwiches":4693,"ĠChristopher":4694,"Ġwhiskers":4695,"ĠJenny":4696,"Ġforever":4697,"Ġraccoon":4698,"Ġamazing":4699,"aggedy":4700,"Ġseas":4701,"Ġdoo":4702,"Ġgimme":4703,"ises":4704,"Ġfed":4705,"Ġhid":4706,"ĠMorgie":4707,"Ġye":4708,"aret":4709,"ĠBaaee":4710,"ĠLou":4711,"ĠLee":4712,"Ġcharac":4713,"Ġcrunch":4714,"ĠGre":4715,"Ġdrinks":4716,"ends":4717,"Ġtrains":4718,"Ġchoice":4719,"Ġbuying":4720,"Ġeighteen":4721,"Ġrecognizes":4722,"Ġpoints":4723,"Ġslee":4724,"Dada":4725,"Winnie":4726,"gusting":4727,"ior":4728,"zo":4729,"Ġweather":4730,"ities":4731,"Ġca":4732,"Ġlock":4733,"berries":4734,"ĠDisney":4735,"Ġnicely":4736,"ĠJulia":4737,"goes":4738,"istmas":4739,"coffee":4740,"ĠDaniel":4741,"Ġgloves":4742,"Dingo":4743,"ai":4744,"bad":4745,"pha":4746,"Ġmall":4747,"Ġpapers":4748,"erv":4749,"erver":4750,"omp":4751,"Ġhoo":4752,"stir":4753,"Ġstraw":4754,"Ġcovered":4755,"Ġneeded":4756,"ĠNor":4757,"Ġlean":4758,"aurie":4759,"Ġfinally":4760,"cloth":4761,"Ġbowls":4762,"Ġbanging":4763,"Ġmagaz":4764,"Ġsmells":4765,"Ġinstru":4766,"Ġrecognized":4767,"Ġcollect":4768,"ĠSteve":4769,"Ġlarge":4770,"Nana":4771,"bite":4772,"eye":4773,"iver":4774,"ives":4775,"las":4776,"number":4777,"sab":4778,"vil":4779,"had":4780,"Ġlou":4781,"Ġmale":4782,"leen":4783,"Ġants":4784,"ĠDe":4785,"toys":4786,"Ġcomfortable":4787,"Ġnasty":4788,"Ġcoun":4789,"Ġrocking":4790,"cious":4791,"Ġquickly":4792,"Ġfigured":4793,"ĠYork":4794,"Ġsmooth":4795,"Ġpennies":4796,"horsie":4797,"bar":4798,"fan":4799,"iod":4800,"sound":4801,"since":4802,"van":4803,"Ġtou":4804,"iture":4805,"Ġgor":4806,"Ġpal":4807,"erina":4808,"Ġhelicopter":4809,"igger":4810,"Ġweight":4811,"Ġram":4812,"Ġstud":4813,"edy":4814,"Ġjoke":4815,"Ġalley":4816,"urniture":4817,"Ġways":4818,"liz":4819,"Ġheads":4820,"Ġroared":4821,"Ġfavorites":4822,"Ġuncle":4823,"Ġpuppets":4824,"Ġfurry":4825,"Ġfishies":4826,"Marie":4827,"bserver":4828,"Ġdoughnut":4829,"Ġwhispering":4830,"Ġimagine":4831,"horse":4832,"ebr":4833,"sleep":4834,"uly":4835,"Ġpanda":4836,"Ġfil":4837,"Ġhonk":4838,"Ġbein":4839,"Ġnest":4840,"umm":4841,"Ġjour":4842,"Ġgotcha":4843,"Ġhers":4844,"ushed":4845,"Ġbiggest":4846,"ĠCalifornia":4847,"ĠBl":4848,"both":4849,"ugh":4850,"Ġours":4851,"ĠEl":4852,"Ġsqueeze":4853,"Ġmath":4854,"Ġpray":4855,"Ġpussy":4856,"Ġmailman":4857,"Ġcontro":4858,"Ġpointing":4859,"Carl":4860,"alentine":4861,"Ġrestaurant":4862,"twenty":4863,"yn":4864,"inst":4865,"Ġsil":4866,"Ġyounger":4867,"Ġfurniture":4868,"Ġoil":4869,"Ġrhy":4870,"Ġbegan":4871,"ĠDumbo":4872,"Ġoffic":4873,"ĠSeth":4874,"Ġshorts":4875,"Ġdried":4876,"Ġshaking":4877,"Ġswallow":4878,"Ġpiggies":4879,"eekababy":4880,"ĠWes":4881,"Ġdrew":4882,"Ġtreasure":4883,"Ġsentence":4884,"Ġpretzels":4885,"Ġtotally":4886,"Ġjourney":4887,"And":4888,"chan":4889,"sk":4890,"ted":4891,"hear":4892,"Ġboop":4893,"Ġgoo":4894,"Ġpeep":4895,"Ġpoodle":4896,"Ġthick":4897,"Ġform":4898,"que":4899,"upid":4900,"ĠJill":4901,"oston":4902,"whoosh":4903,"Ġcontain":4904,"ĠOscar":4905,"whad":4906,"shoe":4907,"Ġporcupine":4908,"Ġcorrect":4909,"Ġmillions":4910,"Ġaquarium":4911,"Qu":4912,"dada":4913,"feed":4914,"mama":4915,"Ġshy":4916,"Ġsnort":4917,"Ġcrow":4918,"iddy":4919,"Ġlip":4920,"Ġbecome":4921,"Ġarea":4922,"ota":4923,"ĠMike":4924,"Ġnecess":4925,"ĠSus":4926,"cover":4927,"Ġhorrible":4928,"Ġsounded":4929,"Ġowls":4930,"Ġdripped":4931,"Ġrolled":4932,"whaddya":4933,"Ġserve":4934,"ground":4935,"Ġfilled":4936,"ĠGeorgie":4937,"Bear":4938,"bell":4939,"hit":4940,"pour":4941,"arate":4942,"melia":4943,"tail":4944,"Ġdrank":4945,"getting":4946,"pencer":4947,"Ġexper":4948,"Ġexpect":4949,"rett":4950,"ode":4951,"crack":4952,"Ġteaching":4953,"ĠBrittany":4954,"ĠPatrick":4955,"Ġwires":4956,"zoom":4957,"Ġwrench":4958,"Ġcot":4959,"Ġpri":4960,"Ġpower":4961,"erwood":4962,"Ġclay":4963,"ĠTabitha":4964,"balls":4965,"bling":4966,"Ġsisters":4967,"Ġwooden":4968,"flow":4969,"emi":4970,"ĠTheo":4971,"frog":4972,"build":4973,"Ġthroat":4974,"Timmy":4975,"same":4976,"Ġtac":4977,"ishy":4978,"Ġcave":4979,"Ġstret":4980,"wed":4981,"sock":4982,"ĠBer":4983,"Ġjudge":4984,"neigh":4985,"ĠEng":4986,"Ġlovely":4987,"Ġdisgusting":4988,"Ġcurtains":4989,"Ġribbon":4990,"Ġapplesauce":4991,"wonder":4992,"hie":4993,"kangaroo":4994,"rific":4995,"Ġoo":4996,"Ġbill":4997,"isy":4998,"stra":4999,"Ġweb":5000,"mem":5001,"illage":5002,"ĠCat":5003,"Ġfries":5004,"ĠDwww":5005,"donald":5006,"says":5007,"Ġscoop":5008,"shut":5009,"coa":5010,"ught":5011,"acha":5012,"Ġrecently":5013,"Ġcrawling":5014,"Ġscratchy":5015,"ĠAlexander":5016,"Ġcharge":5017,"banana":5018,"Ġtacos":5019,"Mary":5020,"Sam":5021,"Santa":5022,"door":5023,"ned":5024,"Ġtent":5025,"Ġwar":5026,"ety":5027,"Ġben":5028,"Ġbeer":5029,"Ġjungle":5030,"Ġyup":5031,"ĠBoston":5032,"pensive":5033,"Ġbedtime":5034,"ĠHulk":5035,"Ġdiffic":5036,"Ġbabe":5037,"whoopsie":5038,"Judy":5039,"Thomas":5040,"ccer":5041,"ele":5042,"fif":5043,"than":5044,"Ġdam":5045,"Ġdumb":5046,"Ġthin":5047,"Ġed":5048,"Ġstone":5049,"ens":5050,"Ġupon":5051,"ppin":5052,"ĠDuck":5053,"ules":5054,"ĠJason":5055,"ĠJamie":5056,"Ġshows":5057,"Ġpickles":5058,"hantilly":5059,"Ġmatches":5060,"Ġparade":5061,"Ġprince":5062,"ĠObserver":5063,"Ġpattycake":5064,"flower":5065,"Ġbasement":5066,"Ġfishing":5067,"Ġteasing":5068,"Ġflavor":5069,"ĠSwiss":5070,"Ġwhistle":5071,"lasses":5072,"dinosaur":5073,"long":5074,"mo":5075,"res":5076,"Ġwrap":5077,"Ġssh":5078,"Ġbout":5079,"lle":5080,"Ġma":5081,"left":5082,"Ġlips":5083,"adi":5084,"ader":5085,"Ġequ":5086,"Ġfrustr":5087,"ĠSpencer":5088,"uffy":5089,"ĠTony":5090,"Ġworkin":5091,"wouldn":5092,"Ġpopped":5093,"Ġsniff":5094,"Ġgasped":5095,"Ġbattery":5096,"Ġcandle":5097,"Ġbumblebee":5098,"Ġpopsicle":5099,"Dad":5100,"bus":5101,"con":5102,"dies":5103,"gram":5104,"pin":5105,"round":5106,"ties":5107,"wor":5108,"yucky":5109,"Ġdied":5110,"Ġpound":5111,"hoto":5112,"ching":5113,"hanks":5114,"Ġcamel":5115,"Ġtrail":5116,"Ġhighchair":5117,"Ġfingerna":5118,"Ġpainted":5119,"Ġclowns":5120,"Ġburger":5121,"ĠBecky":5122,"Ġhigher":5123,"Ġlouder":5124,"leenex":5125,"Ġcounter":5126,"bat":5127,"die":5128,"ga":5129,"high":5130,"ker":5131,"oah":5132,"inse":5133,"llie":5134,"Ġpitter":5135,"Ġelbow":5136,"ups":5137,"ctions":5138,"zzy":5139,"Ġshoulder":5140,"check":5141,"Ġearth":5142,"Ġcarefully":5143,"ĠFran":5144,"ault":5145,"ĠStreet":5146,"Ġkilled":5147,"Ġsteering":5148,"Ġninety":5149,"solute":5150,"Ġeel":5151,"Ġbun":5152,"Ġcub":5153,"Ġlos":5154,"Ġpurp":5155,"Ġfellow":5156,"Ġstea":5157,"Ġjunk":5158,"though":5159,"eater":5160,"Ġsore":5161,"Ġyarn":5162,"Ġeater":5163,"Ġalpha":5164,"ĠRichard":5165,"ĠJim":5166,"ĠJess":5167,"ĠJerry":5168,"Ġquit":5169,"ĠHung":5170,"Ġvillage":5171,"ĠEd":5172,"Ġbats":5173,"playing":5174,"Ġtwist":5175,"Ġtricky":5176,"Ġladybugs":5177,"mpoo":5178,"Ġexercise":5179,"iscuit":5180,"Ġmagazine":5181,"ughty":5182,"Jack":5183,"aven":5184,"dry":5185,"hood":5186,"mit":5187,"Ġuhuh":5188,"Ġstupid":5189,"Ġremem":5190,"ĠMay":5191,"inde":5192,"ppie":5193,"ĠJilly":5194,"ĠPo":5195,"Ġshop":5196,"Ġsweep":5197,"armer":5198,"Ġsquash":5199,"Ġmornin":5200,"Ġsidewalk":5201,"Ġboats":5202,"Ġawake":5203,"Ġdressing":5204,"ĠStar":5205,"squeak":5206,"ĠCindy":5207,"othy":5208,"Ġpromise":5209,"Asian":5210,"euss":5211,"ris":5212,"son":5213,"Ġtakin":5214,"Ġsep":5215,"igers":5216,"irts":5217,"chick":5218,"ooper":5219,"ards":5220,"Ġgran":5221,"Ġcrust":5222,"ĠGold":5223,"Ġexpensive":5224,"Ġkidding":5225,"Ġsorta":5226,"Ġroast":5227,"irteen":5228,"Ġkissing":5229,"Ġdancin":5230,"Ġringing":5231,"Ġclimbed":5232,"crash":5233,"Ġhippopotamus":5234,"Ġstripes":5235,"Ġcreatures":5236,"ĠShem":5237,"bounce":5238,"Ġcrumbs":5239,"hanksgiving":5240,"boop":5241,"sn":5242,"Ġtu":5243,"Ġwal":5244,"Ġsel":5245,"Ġhush":5246,"uth":5247,"Ġnom":5248,"Ġstew":5249,"hope":5250,"abeth":5251,"Ġoutta":5252,"looking":5253,"ĠAllen":5254,"ĠApril":5255,"Ġballerina":5256,"ĠNan":5257,"ĠFat":5258,"Ġscre":5259,"Ġprogram":5260,"Ġblankie":5261,"Ġtwice":5262,"Ġfuss":5263,"Ġgerb":5264,"Ġbranch":5265,"follow":5266,"Ġpowder":5267,"lizabeth":5268,"Ġdifficult":5269,"African":5270,"iot":5271,"poo":5272,"Ġmask":5273,"ags":5274,"Ġbrick":5275,"Ġchasing":5276,"Ġproper":5277,"ĠHungry":5278,"Ġafterwards":5279,"Ġnails":5280,"Ġbaths":5281,"Ġconne":5282,"Ġconvers":5283,"Ġdesign":5284,"Ġpeaches":5285,"Ann":5286,"Ġsneakers":5287,"cookies":5288,"Ġmushrooms":5289,"Ġbench":5290,"rus":5291,"Ġtha":5292,"Ġwing":5293,"Ġdip":5294,"Ġble":5295,"issed":5296,"Ġmoose":5297,"Ġheld":5298,"Ġhugg":5299,"alls":5300,"Ġmem":5301,"Ġanten":5302,"ophie":5303,"bered":5304,"Ġworse":5305,"ĠJan":5306,"Ġdollies":5307,"Ġfirstname":5308,"Ġsleepin":5309,"Ġduckies":5310,"Ġrealize":5311,"Ġblueberry":5312,"Ġbrings":5313,"Ġbusiness":5314,"Ġairport":5315,"olan":5316,"Ġgrandmother":5317,"lax":5318,"Ġripped":5319,"Ġgeese":5320,"Ġbalance":5321,"Ġbacon":5322,"Ġantenna":5323,"bara":5324,"eg":5325,"mark":5326,"paper":5327,"tweet":5328,"xy":5329,"Ġvers":5330,"Ġgall":5331,"Ġcons":5332,"Ġphoto":5333,"ingle":5334,"adah":5335,"Ġedge":5336,"Ġni":5337,"itts":5338,"Ġwhenever":5339,"ĠDanny":5340,"Ġhadn":5341,"eensie":5342,"easel":5343,"shine":5344,"climb":5345,"Ġsingle":5346,"Ġunif":5347,"Ġpaying":5348,"ĠAnnie":5349,"Mickey":5350,"sweetie":5351,"ĠAndy":5352,"Ġvitamins":5353,"Cookie":5354,"jack":5355,"mouse":5356,"Ġwra":5357,"Ġmood":5358,"Ġpatch":5359,"Ġhung":5360,"Ġgolf":5361,"arian":5362,"Ġref":5363,"Ġres":5364,"ĠMoom":5365,"Ġbol":5366,"soci":5367,"akota":5368,"ĠBetty":5369,"Ġgiven":5370,"ĠJesus":5371,"Ġlocked":5372,"Ġducky":5373,"Ġpole":5374,"Ġlobsters":5375,"Ġskinny":5376,"Ġhippo":5377,"Ġcandles":5378,"Grover":5379,"guh":5380,"ji":5381,"ressed":5382,"Ġwitches":5383,"Ġswan":5384,"Ġdouble":5385,"Ġol":5386,"Ġhint":5387,"nard":5388,"atos":5389,"went":5390,"yesterday":5391,"ĠCare":5392,"Ġcolorful":5393,"Ġpudding":5394,"imals":5395,"ĠGail":5396,"new":5397,"Ġvio":5398,"ĠEwo":5399,"Ġsub":5400,"Ġglue":5401,"ebbie":5402,"Ġcurls":5403,"ĠSamantha":5404,"Ġceiling":5405,"burgers":5406,"Ġnineteen":5407,"solutely":5408,"aomi":5409,"vie":5410,"yle":5411,"hair":5412,"Ġbored":5413,"Ġbiscuit":5414,"ising":5415,"Ġtock":5416,"arily":5417,"Ġlif":5418,"Ġreinde":5419,"Ġmelt":5420,"Ġcans":5421,"Ġspread":5422,"Ġtellin":5423,"umpy":5424,"Ġshampoo":5425,"ĠGer":5426,"ĠHan":5427,"Ġnews":5428,"Ġstickers":5429,"Ġproblems":5430,"Ġartist":5431,"Ġrelative":5432,"ĠHarry":5433,"instead":5434,"dear":5435,"might":5436,"rth":5437,"snow":5438,"va":5439,"Ġborrow":5440,"Ġcakes":5441,"Ġlaw":5442,"Ġfright":5443,"utch":5444,"Ġkite":5445,"Ġrhinoceros":5446,"outside":5447,"Ġneedle":5448,"ĠRaggedy":5449,"Ġbeard":5450,"Ġhurting":5451,"Ġrode":5452,"Ġsixteen":5453,"ĠFrank":5454,"Ġpinch":5455,"ĠMarie":5456,"coming":5457,"Ġyelling":5458,"apples":5459,"Ġtomatoes":5460,"Ġremembered":5461,"ittsburg":5462,"Dan":5463,"dump":5464,"mister":5465,"rub":5466,"ristmas":5467,"teddy":5468,"Ġouch":5469,"Ġax":5470,"inna":5471,"inter":5472,"inoc":5473,"Ġmash":5474,"Ġoc":5475,"Ġinc":5476,"Ġnoodle":5477,"rows":5478,"Ġtrade":5479,"ĠLuke":5480,"Ġgrey":5481,"ĠEm":5482,"Ġsleeps":5483,"Ġdiap":5484,"Ġtails":5485,"Ġnapkins":5486,"Ġgrabbed":5487,"Ġperiod":5488,"excellent":5489,"Ġpeacock":5490,"trucks":5491,"ĠKatie":5492,"puppy":5493,"ĠToddy":5494,"Ġcontrol":5495,"Ma":5496,"ded":5497,"mur":5498,"pic":5499,"pack":5500,"Ġwore":5501,"Ġsip":5502,"Ġlas":5503,"Ġdonut":5504,"Ġstri":5505,"dodo":5506,"ĠMooshas":5507,"Ġsoccer":5508,"elle":5509,"osie":5510,"Ġlog":5511,"whoo":5512,"Ġladies":5513,"Ġgrace":5514,"Ġbumpy":5515,"ĠAnne":5516,"lloween":5517,"Ġmeeting":5518,"swim":5519,"Ġcamping":5520,"Ġteeny":5521,"Ġcompletely":5522,"flowers":5523,"Ġconversation":5524,"vator":5525,"ĊĠĠ":5526,"Ġwife":5527,"Ġdum":5528,"Ġhun":5529,"iders":5530,"Ġewe":5531,"veral":5532,"Ġstage":5533,"ĠMad":5534,"tape":5535,"Ġcluck":5536,"onge":5537,"Ġassoci":5538,"Ġmane":5539,"Ġflash":5540,"ĠThanksgiving":5541,"Ġmustache":5542,"exter":5543,"Ġchanging":5544,"Ġbumped":5545,"cray":5546,"Ġsquares":5547,"Ġtypical":5548,"Miss":5549,"cou":5550,"funny":5551,"ja":5552,"mind":5553,"uary":5554,"wear":5555,"Ġbaking":5556,"Ġblew":5557,"Ġgently":5558,"Ġpies":5559,"Ġpuff":5560,"Ġdot":5561,"Ġrea":5562,"ales":5563,"chio":5564,"enter":5565,"Ġforward":5566,"Ġreads":5567,"ourt":5568,"Ġshout":5569,"Ġflour":5570,"Ġgray":5571,"Ġsmo":5572,"ĠEmma":5573,"Ġwhoops":5574,"Ġfourth":5575,"Ġdial":5576,"frica":5577,"Ġwhee":5578,"Ġcryin":5579,"telephone":5580,"Ġscrat":5581,"break":5582,"Ġlawn":5583,"Ġhorns":5584,"small":5585,"hands":5586,"Ġgeneral":5587,"Ġprincess":5588,"Ġseason":5589,"Ġofficer":5590,"Ġpurpose":5591,"Ġuniform":5592,"El":5593,"Mouse":5594,"She":5595,"Vas":5596,"bi":5597,"hite":5598,"kids":5599,"miss":5600,"mouth":5601,"smell":5602,"into":5603,"Ġtow":5604,"stal":5605,"arth":5606,"Ġripe":5607,"Ġstate":5608,"Ġyeh":5609,"ĠDonna":5610,"ĠSandy":5611,"cts":5612,"ĠAislinn":5613,"ĠPot":5614,"cold":5615,"ugust":5616,"Ġopening":5617,"Ġnaughty":5618,"Ġpatty":5619,"Ġpatient":5620,"ĠVery":5621,"Ġspelling":5622,"Ġfreezer":5623,"Ġpackage":5624,"Ġhuman":5625,"Chris":5626,"butterfly":5627,"Ġconfused":5628,"Patrick":5629,"beautiful":5630,"Ġgingerbread":5631,"Ġsilver":5632,"Tim":5633,"him":5634,"mat":5635,"wind":5636,"ĠQu":5637,"Ġaut":5638,"Ġpail":5639,"essed":5640,"Ġdots":5641,"Ġko":5642,"Ġjeep":5643,"Ġplug":5644,"behind":5645,"ĠDi":5646,"whyn":5647,"ĠJJ":5648,"ĠPittsburg":5649,"Ġbatht":5650,"Ġtapes":5651,"Ġpots":5652,"Ġrainbow":5653,"hurt":5654,"flakes":5655,"Ġbouncy":5656,"Ġmarbles":5657,"Theo":5658,"Ġbrave":5659,"Ġspinach":5660,"Ġinteract":5661,"Ġtouched":5662,"Ġcontainer":5663,"Ġgerbil":5664,"Man":5665,"Night":5666,"jo":5667,"making":5668,"inside":5669,"onnie":5670,"Ġpets":5671,"Ġfry":5672,"arry":5673,"Ġwhatcha":5674,"Ġspark":5675,"ĠCaterpillar":5676,"Ġshirts":5677,"toe":5678,"ĠAmer":5679,"Ġyawn":5680,"Ġshaped":5681,"ousand":5682,"Ġhandsome":5683,"Ġconcer":5684,"Ġgrows":5685,"Ġspec":5686,"monkey":5687,"Ġchecking":5688,"ĠJoan":5689,"Ġchickie":5690,"ĠMissus":5691,"Ġcolle":5692,"ĠSammy":5693,"Ġcement":5694,"piece":5695,"ĠScot":5696,"Joey":5697,"Ġgorilla":5698,"Ġnecessarily":5699,"achache":5700,"Joe":5701,"gor":5702,"non":5703,"pea":5704,"soup":5705,"zie":5706,"Ġtut":5707,"Ġtigers":5708,"Ġdou":5709,"Ġbonk":5710,"Ġlamp":5711,"Ġpun":5712,"esome":5713,"especially":5714,"Ġins":5715,"ico":5716,"Ġrinse":5717,"ppity":5718,"ops":5719,"aga":5720,"ĠSnow":5721,"Ġshr":5722,"ĠAmelia":5723,"ĠAfrica":5724,"ĠRe":5725,"Ġeveryday":5726,"ifford":5727,"Ġvar":5728,"Ġvalentine":5729,"Ġexpl":5730,"Ġsorts":5731,"ĠKitty":5732,"airplane":5733,"Ġsticker":5734,"Ġfroggy":5735,"Ġrolls":5736,"Ġconst":5737,"Ġseats":5738,"Ġslowly":5739,"Ġscreaming":5740,"ĠMcDonald":5741,"Ġsyrup":5742,"planes":5743,"Ġalphabet":5744,"Ġgranola":5745,"Ġreindeer":5746,"In":5747,"Julia":5748,"Kat":5749,"dirty":5750,"dance":5751,"hu":5752,"pain":5753,"Ġig":5754,"rest":5755,"Ġwaste":5756,"Ġbom":5757,"Ġcrown":5758,"Ġthread":5759,"Ġhu":5760,"igan":5761,"Ġstable":5762,"wels":5763,"Ġnin":5764,"Ġjello":5765,"unless":5766,"erent":5767,"umper":5768,"umpkin":5769,"ĠTra":5770,"ĠPe":5771,"ips":5772,"Ġhardly":5773,"Ġstops":5774,"Ġdrove":5775,"Ġtires":5776,"Ġbaked":5777,"Ġfollowing":5778,"Ernie":5779,"ĠBernard":5780,"Mummy":5781,"bt":5782,"bub":5783,"cas":5784,"diff":5785,"gar":5786,"lift":5787,"ner":5788,"sea":5789,"tra":5790,"Ġthre":5791,"Ġheaven":5792,"Ġknot":5793,"Ġrules":5794,"Ġstre":5795,"unches":5796,"onely":5797,"Ġprefer":5798,"ĠAb":5799,"Ġscoot":5800,"shirt":5801,"Ġseveral":5802,"lephones":5803,"Ġholds":5804,"ĠHumpty":5805,"Ġexp":5806,"Ġstaying":5807,"Ġteapot":5808,"Ġchristmas":5809,"Ġfourteen":5810,"Ġacting":5811,"Ġpancake":5812,"Ġfishie":5813,"Ġgravy":5814,"Ġimp":5815,"Ġpocketbook":5816,"ducks":5817,"Ġcostume":5818,"ĠWilliam":5819,"Ġfascin":5820,"Ġsquirrels":5821,"Ġcharacter":5822,"Rachel":5823,"fell":5824,"tal":5825,"ua":5826,"ined":5827,"ishes":5828,"Ġlab":5829,"Ġluck":5830,"Ġthousand":5831,"eared":5832,"Ġgoats":5833,"Ġkissed":5834,"ĠMir":5835,"Ġspan":5836,"ĠCourt":5837,"Ġhol":5838,"Ġzebr":5839,"Ġpoison":5840,"Ġdiam":5841,"Ġideas":5842,"Ġteething":5843,"Ġcones":5844,"Ġbarrel":5845,"Ġpattern":5846,"Ġbegins":5847,"Ġbuckle":5848,"Ġcartoons":5849,"Ġnormal":5850,"Ġcobra":5851,"Ġwooly":5852,"Ġzebras":5853,"Al":5854,"Char":5855,"Gra":5856,"grandma":5857,"nel":5858,"ule":5859,"Ġill":5860,"hammer":5861,"Ġsunny":5862,"Ġcig":5863,"sey":5864,"Ġstood":5865,"thony":5866,"dozer":5867,"eating":5868,"Ġsol":5869,"Ġsale":5870,"Ġspiders":5871,"ĠCap":5872,"Ġclick":5873,"ĠDr":5874,"Ġcookin":5875,"ĠPete":5876,"Ġsevent":5877,"lept":5878,"Ġswam":5879,"Ġbathing":5880,"Ġbreaking":5881,"Ġswimmin":5882,"Ġsunshine":5883,"Ġeasily":5884,"Ġfruits":5885,"Ġperhaps":5886,"Ġracecar":5887,"ĠSpider":5888,"ucumber":5889,"Ġstepped":5890,"Ġcousins":5891,"Ġmeasure":5892,"Ġtracks":5893,"snap":5894,"waffle":5895,"Ġself":5896,"Ro":5897,"athe":5898,"delicious":5899,"eff":5900,"mic":5901,"part":5902,"nothin":5903,"Ġstones":5904,"dogs":5905,"ffic":5906,"Ġotherwise":5907,"ĠRed":5908,"ĠTigger":5909,"babies":5910,"assie":5911,"Ġwalkin":5912,"Ġroar":5913,"Ġunscrew":5914,"Ġtelephones":5915,"Ġmovin":5916,"Ġattack":5917,"Ġtricks":5918,"hamburger":5919,"Ġindian":5920,"Ġcabinet":5921,"iddyup":5922,"Ġbathtub":5923,"Jason":5924,"tiger":5925,"Ġtim":5926,"Ġsang":5927,"Ġfi":5928,"Ġhood":5929,"Ġhah":5930,"stack":5931,"Ġramp":5932,"Ġresc":5933,"Ġrelax":5934,"enee":5935,"ila":5936,"ĠBat":5937,"arten":5938,"ĠLaurie":5939,"Ġhelper":5940,"ĠFl":5941,"redible":5942,"Ġzero":5943,"ĠKe":5944,"Ġskip":5945,"Ġstands":5946,"Ġtem":5947,"Ġgivin":5948,"Ġwalls":5949,"Ġswinging":5950,"cupcake":5951,"Ġkicking":5952,"Ġstomachache":5953,"ĠCarol":5954,"Ġcontin":5955,"Ġbranches":5956,"Ġlemonade":5957,"uddly":5958,"Ġsurfing":5959,"Bobby":5960,"strawberry":5961,"Ġattached":5962,"ergarten":5963,"Ġsundae":5964,"different":5965,"Oscar":5966,"Tony":5967,"apping":5968,"bonk":5969,"cur":5970,"march":5971,"such":5972,"teet":5973,"via":5974,"weed":5975,"Ġslept":5976,"Ġbah":5977,"isa":5978,"erve":5979,"Ġhalloween":5980,"Ġinse":5981,"Ġroot":5982,"thought":5983,"unior":5984,"tage":5985,"Ġspare":5986,"Ġspeed":5987,"Ġsport":5988,"lion":5989,"Ġbrushing":5990,"amed":5991,"ĠTex":5992,"Ġwrist":5993,"awk":5994,"awai":5995,"Ġfrozen":5996,"form":5997,"Ġbells":5998,"Ġsharks":5999,"ĠMaria":6000,"Ġsnacks":6001,"Ġpillows":6002,"Ġelevator":6003,"Ġpeace":6004,"Ġburned":6005,"ĠAlice":6006,"ĠBarney":6007,"ennedy":6008,"girls":6009,"Ġpoopie":6010,"ĠGranny":6011,"Ġskipped":6012,"ĠSusan":6013,"Ġphotogra":6014,"ĠCourtney":6015,"Cind":6016,"cir":6017,"cream":6018,"dan":6019,"den":6020,"ein":6021,"ext":6022,"mix":6023,"none":6024,"Ġdent":6025,"Ġcle":6026,"Ġpou":6027,"Ġpouch":6028,"icho":6029,"Ġbeet":6030,"Ġthinkin":6031,"Ġsomeplace":6032,"Ġspo":6033,"Ġcocoa":6034,"ĠChic":6035,"Ġclub":6036,"ĠDebbie":6037,"yeisha":6038,"putting":6039,"Ġloaf":6040,"ĠTadi":6041,"ĠPlay":6042,"Ġshoulders":6043,"Ġsword":6044,"Ġcleaner":6045,"Ġpotatos":6046,"Ġrunnin":6047,"Ġroller":6048,"Ġpaints":6049,"scr":6050,"Ġknitting":6051,"everyone":6052,"ioca":6053,"Ġdrag":6054,"Ġpointed":6055,"Ġcreep":6056,"Ġgroceries":6057,"Ġbrain":6058,"Ġbrace":6059,"Ġenjoying":6060,"Ġrule":6061,"Ġcheek":6062,"Ġflaps":6063,"Daniel":6064,"ĠPittsburgh":6065,"Ġdoubt":6066,"Ġcigaret":6067,"Aunt":6068,"Boo":6069,"hug":6070,"tw":6071,"Ġwise":6072,"Ġsled":6073,"Ġcinna":6074,"Ġmer":6075,"Ġopp":6076,"ĠIsab":6077,"Ġment":6078,"Ġknown":6079,"aboom":6080,"Ġnerv":6081,"hmm":6082,"Ġfridge":6083,"ĠDakota":6084,"ĠSophie":6085,"osquit":6086,"livia":6087,"ĠRemi":6088,"ĠTeddy":6089,"Ġlotion":6090,"ĠFrench":6091,"ĠElizabeth":6092,"Ġbreaks":6093,"Ġpulls":6094,"balloon":6095,"friend":6096,"Ġcatching":6097,"scope":6098,"Ġahhah":6099,"Ġpeanuts":6100,"Ġhamburgers":6101,"Ġterrific":6102,"Ġwaves":6103,"definitely":6104,"Ġpirates":6105,"Ġfussy":6106,"Ġinvite":6107,"football":6108,"Ġjewel":6109,"Ġtrailer":6110,"following":6111,"Ġnervous":6112,"Be":6113,"dered":6114,"father":6115,"honk":6116,"sun":6117,"Ġtin":6118,"itar":6119,"Ġbak":6120,"Ġbush":6121,"Ġcell":6122,"lliot":6123,"arr":6124,"outs":6125,"Ġletting":6126,"artin":6127,"Ġtricycle":6128,"Ġarr":6129,"Ġcomm":6130,"Ġcheat":6131,"Ġscra":6132,"Ġgrill":6133,"Ġproject":6134,"Ġwhining":6135,"ĠKit":6136,"ĠWhite":6137,"Ġdrawers":6138,"blank":6139,"Ġcurious":6140,"iggle":6141,"Ġpossible":6142,"lady":6143,"pants":6144,"Ġneighborhood":6145,"ĠEnglish":6146,"Ġcollege":6147,"Ġholiday":6148,"Ġcinnamon":6149,"Mooshas":6150,"Tabitha":6151,"bul":6152,"bac":6153,"mus":6154,"Ġwine":6155,"Ġdate":6156,"Ġthirteen":6157,"Ġkleenex":6158,"along":6159,"Ġplus":6160,"ĠMinnie":6161,"thered":6162,"usual":6163,"Ġtoot":6164,"uckle":6165,"Ġcarries":6166,"together":6167,"Ġcomplain":6168,"ĠJane":6169,"ĠJimmy":6170,"loria":6171,"ĠPark":6172,"Ġdaycare":6173,"Ġcupboard":6174,"bled":6175,"Ġpiglet":6176,"Ġtraffic":6177,"ĊĊĊĊĊĊĊ":6178,"Ġpans":6179,"fruit":6180,"osaurus":6181,"Ġexcellent":6182,"ogna":6183,"Ġfurther":6184,"Ġserv":6185,"Ġcapital":6186,"Ġracing":6187,"ĠBooboo":6188,"ashington":6189,"Brittany":6190,"Ġseparate":6191,"Chantilly":6192,"ems":6193,"kick":6194,"line":6195,"mag":6196,"wuh":6197,"yl":6198,"Ġooh":6199,"Ġtons":6200,"onno":6201,"Ġbare":6202,"Ġcel":6203,"Ġlonely":6204,"Ġmap":6205,"Ġpaid":6206,"venty":6207,"Ġrot":6208,"Ġnorth":6209,"always":6210,"ustin":6211,"ĠBab":6212,"ggies":6213,"ĠAri":6214,"Ġguitar":6215,"ĠJuly":6216,"Ġlogs":6217,"Ġflakes":6218,"Ġpeg":6219,"Ġpeppers":6220,"ĠLilly":6221,"Ġnappie":6222,"ubby":6223,"Ġseconds":6224,"Ġgraham":6225,"Ġpouring":6226,"cups":6227,"books":6228,"Ġanteater":6229,"Ġelectric":6230,"Ġigno":6231,"ĠTexas":6232,"awaii":6233,"Ġclever":6234,"Brian":6235,"Kalie":6236,"Uncle":6237,"bes":6238,"bzz":6239,"dinner":6240,"Ġtroll":6241,"Ġwi":6242,"oni":6243,"Ġdest":6244,"Ġgoofy":6245,"Ġcenter":6246,"Ġfli":6247,"orld":6248,"idi":6249,"imi":6250,"imp":6251,"Ġspout":6252,"ometry":6253,"Ġkindergarten":6254,"ĠSara":6255,"ĠJaylen":6256,"Ġfluffy":6257,"Ġpeck":6258,"ĠNoah":6259,"ĠLily":6260,"Ġcrashed":6261,"rily":6262,"ĠKim":6263,"Ġchops":6264,"Ġsquishy":6265,"blocks":6266,"Ġowie":6267,"Ġswims":6268,"Ġtickling":6269,"perhaps":6270,"Ġawesome":6271,"Ġscrub":6272,"comb":6273,"Ġmagnetic":6274,"arently":6275,"ĠBarbara":6276,"Ġerase":6277,"Ġraisin":6278,"Ġbulldozer":6279,"pupp":6280,"carrots":6281,"taste":6282,"Ġwalrus":6283,"inocchio":6284,"teeth":6285,"Ġmention":6286,"Ġcelery":6287,"Tod":6288,"ikey":6289,"paste":6290,"tre":6291,"uation":6292,"wet":6293,"Ġtied":6294,"Ġsou":6295,"Ġop":6296,"nack":6297,"Ġweigh":6298,"Ġrush":6299,"Ġstem":6300,"doing":6301,"rystal":6302,"Ġyah":6303,"rax":6304,"Ġsaf":6305,"artment":6306,"Ġblink":6307,"ĠPr":6308,"Ġcrooked":6309,"Ġpoke":6310,"Ġnatur":6311,"Ġchug":6312,"Ġrobe":6313,"Ġtapioca":6314,"Ġairplanes":6315,"carry":6316,"Ġquietly":6317,"Ġgroundhog":6318,"ĠJenell":6319,"Ġdreams":6320,"uggle":6321,"rrrr":6322,"Ġaddress":6323,"Ġshells":6324,"Ġbarking":6325,"ictor":6326,"Ġdamn":6327,"ĠMiriam":6328,"Ġpoured":6329,"JJ":6330,"aco":6331,"tadah":6332,"Ġtend":6333,"Ġweasel":6334,"iter":6335,"Ġbars":6336,"Ġcoo":6337,"Ġcucumber":6338,"Ġmop":6339,"ldow":6340,"Ġseed":6341,"road":6342,"epte":6343,"Ġalthough":6344,"ĠSan":6345,"putta":6346,"ĠAll":6347,"Ġhomemade":6348,"ĠNaomi":6349,"ĠTommy":6350,"ĠLyn":6351,"ĠFro":6352,"Ġscarf":6353,"Ġcrank":6354,"Ġenter":6355,"Ġdiet":6356,"Ġunusual":6357,"Ġprice":6358,"heehee":6359,"Ġbouncing":6360,"Ġattract":6361,"Ġbegin":6362,"Ġcalm":6363,"Annie":6364,"Ġfussing":6365,"Ġporch":6366,"pardon":6367,"eggs":6368,"Ġbasically":6369,"iversit":6370,"Ġcottage":6371,"Ġmemory":6372,"Ġphotograph":6373,"Colin":6374,"Jaylen":6375,"Little":6376,"Rob":6377,"ckey":6378,"su":6379,"Ġver":6380,"Ġav":6381,"erk":6382,"Ġhic":6383,"Ġresp":6384,"hil":6385,"Ġspent":6386,"Ġbackpack":6387,"Ġreadin":6388,"ĠBuzz":6389,"arts":6390,"Ġblah":6391,"ession":6392,"Ġdrool":6393,"ately":6394,"Ġscience":6395,"Ġfinding":6396,"Ġactiv":6397,"Ġstruck":6398,"ibly":6399,"Ġstores":6400,"Ġticklish":6401,"onnaise":6402,"Ġknocking":6403,"Ġknives":6404,"ĠErica":6405,"Ġtenn":6406,"Ġwatches":6407,"Ġgoldfish":6408,"Ġeaster":6409,"Ġgerms":6410,"girl":6411,"centr":6412,"Ġwreck":6413,"Ġfilm":6414,"Ġfrightened":6415,"breakfast":6416,"Ġkoala":6417,"eptember":6418,"Cat":6419,"Gre":6420,"Geor":6421,"Swww":6422,"cra":6423,"cca":6424,"drop":6425,"jus":6426,"olly":6427,"sand":6428,"tree":6429,"ishing":6430,"Ġlitt":6431,"Ġpaws":6432,"Ġfear":6433,"order":6434,"stic":6435,"stuff":6436,"Ġent":6437,"ening":6438,"doggy":6439,"ĠMel":6440,"ills":6441,"taking":6442,"Ġsau":6443,"aged":6444,"comere":6445,"aine":6446,"ĠBunny":6447,"Ġpref":6448,"Ġshoo":6449,"Ġtruth":6450,"ĠLes":6451,"Ġbreathe":6452,"cluck":6453,"Ġbagel":6454,"Ġunhappy":6455,"ichigan":6456,"iley":6457,"ddie":6458,"Ġblankets":6459,"Ġcurly":6460,"Ġpresident":6461,"Ġfairy":6462,"spoons":6463,"Ġskunks":6464,"turkey":6465,"ĠAndrew":6466,"ĠChrista":6467,"Ġcopy":6468,"Ġcrunchy":6469,"Ġsleeve":6470,"Ġfrustrated":6471,"Ġfingernails":6472,"applesauce":6473,"Ġtutu":6474,"casion":6475,"Ġbracelet":6476,"du":6477,"iers":6478,"ko":6479,"remind":6480,"inny":6481,"Ġsom":6482,"Ġsour":6483,"oneen":6484,"Ġdel":6485,"Ġmessed":6486,"Ġph":6487,"idd":6488,"chu":6489,"ĠMal":6490,"cereal":6491,"Ġbolt":6492,"Ġbackground":6493,"Ġbookcase":6494,"ĠDick":6495,"Ġblind":6496,"Ġblond":6497,"Ġtran":6498,"Ġcomma":6499,"ĠJames":6500,"amen":6501,"ĠLord":6502,"ĠHa":6503,"ĠHawaii":6504,"Ġfallin":6505,"Ġactual":6506,"otherwise":6507,"exact":6508,"until":6509,"Ġbootie":6510,"Ġlaughed":6511,"Ġsplinter":6512,"Ġmixer":6513,"Ġterms":6514,"grab":6515,"Ġgiraffes":6516,"unate":6517,"wrong":6518,"turtle":6519,"Christ":6520,"Ġmamm":6521,"Ġcheeks":6522,"Ġabcs":6523,"ĠPiggy":6524,"ĠNorth":6525,"Ġconnect":6526,"Charlie":6527,"Ġjewelry":6528,"Ġentertain":6529,"Liam":6530,"Me":6531,"bake":6532,"hun":6533,"moon":6534,"munk":6535,"ĠXavier":6536,"Ġdere":6537,"animals":6538,"Ġlower":6539,"Ġitems":6540,"eah":6541,"Ġhan":6542,"Ġrose":6543,"Ġraw":6544,"Ġrail":6545,"adle":6546,"ascal":6547,"Ġyo":6548,"Ġabsolutely":6549,"hanie":6550,"ephanie":6551,"ĠChin":6552,"ĠCount":6553,"lives":6554,"coat":6555,"pengu":6556,"Ġbreath":6557,"Ġwatchin":6558,"Ġevening":6559,"Ġcutter":6560,"many":6561,"Ġfiretruck":6562,"Ġsings":6563,"Ġcornflakes":6564,"Ġwashcloth":6565,"Ġhorsies":6566,"ĠOld":6567,"Ġtaller":6568,"Ġtoothpaste":6569,"velop":6570,"opeye":6571,"Ġobject":6572,"Ġgolden":6573,"Ġforests":6574,"kisses":6575,"Street":6576,"ĠWoody":6577,"Ġsprink":6578,"cracker":6579,"Ġsteam":6580,"crayons":6581,"Ġreached":6582,"Ġspecific":6583,"Ġthreat":6584,"Ġdiamond":6585,"ĠBatman":6586,"Ġtemper":6587,"osquito":6588,"Baaee":6589,"May":6590,"bly":6591,"fa":6592,"mush":6593,"ued":6594,"Ġped":6595,"Ġtowels":6596,"Ġrout":6597,"asp":6598,"Ġsheet":6599,"Ġplugg":6600,"Ġnote":6601,"agu":6602,"didldow":6603,"ĠDor":6604,"Ġarmy":6605,"Ġagree":6606,"ulie":6607,"ĠJones":6608,"ĠJean":6609,"Ġschools":6610,"baba":6611,"Ġmonarch":6612,"forty":6613,"Ġstandin":6614,"achoo":6615,"Ġhits":6616,"Ġdiscus":6617,"Ġsixty":6618,"atoes":6619,"monster":6620,"Ġsnout":6621,"Ġsneeze":6622,"Ġhamster":6623,"Ġclosing":6624,"Ġfifth":6625,"Ġangel":6626,"rambled":6627,"Ġslip":6628,"birds":6629,"tonight":6630,"Ġrepeat":6631,"Ġdepends":6632,"ĠClifford":6633,"diaper":6634,"ĠJessica":6635,"ĠEwok":6636,"Ġscratched":6637,"Ġdentist":6638,"Book":6639,"born":6640,"gin":6641,"spe":6642,"Ġwool":6643,"Ġsilk":6644,"onies":6645,"Ġdigg":6646,"Ġmunch":6647,"Ġmike":6648,"ests":6649,"step":6650,"Ġmel":6651,"ences":6652,"Ġsomeday":6653,"Ġboss":6654,"ilbur":6655,"Ġworms":6656,"ĠRenee":6657,"Ġpudd":6658,"ĠPinocchio":6659,"ĠLin":6660,"ĠLex":6661,"istic":6662,"ĠGloria":6663,"Ġswings":6664,"Ġdizzy":6665,"Ġends":6666,"Ġended":6667,"Ġambul":6668,"scoop":6669,"Ġconcentr":6670,"randpa":6671,"Ġparking":6672,"Ġtypes":6673,"alend":6674,"Ġpockets":6675,"comes":6676,"ĠSteven":6677,"Ġgroups":6678,"Ġspanking":6679,"Ġgenerally":6680,"ĠGrampa":6681,"Steve":6682,"socks":6683,"snip":6684,"Graeme":6685,"exactly":6686,"Jamie":6687,"Jesus":6688,"Oliver":6689,"cute":6690,"lead":6691,"pol":6692,"Ġtum":6693,"Ġmunches":6694,"Ġhoop":6695,"Ġhaw":6696,"Ġstock":6697,"Ġrect":6698,"Ġmechan":6699,"Ġnet":6700,"Ġjail":6701,"roy":6702,"Ġspitting":6703,"Ġsponge":6704,"ĠDarth":6705,"Ġworst":6706,"toise":6707,"Ġflag":6708,"ĠTh":6709,"Ġwont":6710,"Ġwrink":6711,"Ġheadache":6712,"Ġdrinkin":6713,"Ġhearing":6714,"Ġpiglets":6715,"Ġbirdies":6716,"coln":6717,"Ġbagels":6718,"Ġuntie":6719,"Ġbowling":6720,"Ġknick":6721,"Ġbumps":6722,"ĠUn":6723,"Ġsplit":6724,"Ġsplat":6725,"Ġmarble":6726,"Ġmachines":6727,"slide":6728,"swing":6729,"Ġpiles":6730,"piggie":6731,"Ġbothering":6732,"bouncy":6733,"strich":6734,"Ġdirection":6735,"splash":6736,"Ġlipstick":6737,"fifty":6738,"Ġlosing":6739,"Ġdiapie":6740,"Ġlasag":6741,"iversity":6742,"Ġtennis":6743,"Che":6744,"Dumbo":6745,"Kennedy":6746,"cro":6747,"either":6748,"iolin":6749,"lers":6750,"oint":6751,"pumpkin":6752,"rice":6753,"sort":6754,"yla":6755,"zoo":6756,"iner":6757,"Ġpine":6758,"aya":6759,"Ġfault":6760,"Ġostrich":6761,"Ġtoad":6762,"Ġwedding":6763,"Ġrunny":6764,"alley":6765,"ots":6766,"ĠMoosh":6767,"ĠMichigan":6768,"Ġspaces":6769,"ĠDerwood":6770,"ĠSqu":6771,"donkey":6772,"ĠAugust":6773,"ĠPl":6774,"ĠFarmer":6775,"Ġexam":6776,"Ġwhom":6777,"Ġslices":6778,"Ġdevelop":6779,"forget":6780,"Ġfireplace":6781,"Ġsingin":6782,"anya":6783,"Ġbangs":6784,"Ġmommies":6785,"Ġbumper":6786,"antastic":6787,"Ġremote":6788,"Ġrattles":6789,"Ġtax":6790,"sweetheart":6791,"racula":6792,"Ġgeometry":6793,"Ġjammies":6794,"broccoli":6795,"Ġmallard":6796,"ĠMoomooshas":6797,"Ġoccasion":6798,"coura":6799,"Robert":6800,"icholas":6801,"Grandma":6802,"Zoo":6803,"fat":6804,"gosh":6805,"judge":6806,"mar":6807,"pies":6808,"peekababy":6809,"rat":6810,"school":6811,"uu":6812,"Ġsack":6813,"itin":6814,"ona":6815,"Ġduh":6816,"Ġcu":6817,"Ġcond":6818,"Ġcooper":6819,"Ġlaid":6820,"Ġowe":6821,"etho":6822,"Ġkit":6823,"Ġrack":6824,"adada":6825,"Ġeff":6826,"ene":6827,"enough":6828,"Ġforks":6829,"Ġjug":6830,"ifier":6831,"hion":6832,"Ġbodies":6833,"agag":6834,"astname":6835,"ĠDon":6836,"ĠDen":6837,"ĠSky":6838,"rowave":6839,"toast":6840,"ĠAmy":6841,"issy":6842,"ĠPuddy":6843,"ĠFo":6844,"Ġlef":6845,"ĠEddie":6846,"Ġpizz":6847,"Ġrealized":6848,"Ġzi":6849,"Ġthrows":6850,"avin":6851,"mostly":6852,"Ġstrings":6853,"without":6854,"Ġsalty":6855,"Ġpath":6856,"ĠMonster":6857,"ĠCarle":6858,"Ġsailboat":6859,"Ġchicks":6860,"ĠSpan":6861,"Ġseesaw":6862,"Ġlazy":6863,"piggy":6864,"Ġsafely":6865,"ival":6866,"iki":6867,"Ġdepartment":6868,"ninight":6869,"strawberries":6870,"tastes":6871,"scratch":6872,"ĠLeslie":6873,"reminds":6874,"ethoscope":6875,"Nor":6876,"Richard":6877,"ders":6878,"kiwi":6879,"pir":6880,"ran":6881,"sugar":6882,"uy":6883,"ucy":6884,"wake":6885,"Ġbum":6886,"Ġmous":6887,"Ġhunt":6888,"Ġonions":6889,"star":6890,"Ġrude":6891,"Ġreturn":6892,"pples":6893,"takes":6894,"Ġcarried":6895,"Ġworth":6896,"Ġhockey":6897,"orns":6898,"Ġseventy":6899,"ĠKr":6900,"Ġkeeping":6901,"airy":6902,"Ġbadji":6903,"tryin":6904,"Ġpolish":6905,"Ġeyeb":6906,"hahaha":6907,"couldn":6908,"Ġhopefully":6909,"ĠVon":6910,"Ġcovers":6911,"Ġspells":6912,"Ġwhack":6913,"Ġalligators":6914,"Ġcheerlead":6915,"called":6916,"momma":6917,"Fraser":6918,"Ġhyrax":6919,"ĠTodd":6920,"Ġsuddenly":6921,"Ġseventeen":6922,"acob":6923,"hunm":6924,"Ġambulance":6925,"De":6926,"Elmo":6927,"din":6928,"much":6929,"tes":6930,"took":6931,"twelve":6932,"Ġoop":6933,"Ġtar":6934,"Ġbaker":6935,"Ġmow":6936,"Ġmater":6937,"Ġponies":6938,"Ġthunder":6939,"Ġodd":6940,"Ġhedge":6941,"Ġnoses":6942,"uster":6943,"ĠMe":6944,"hys":6945,"ĠBilly":6946,"apan":6947,"ĠJeff":6948,"eline":6949,"Ġbrand":6950,"Ġcran":6951,"Ġbedroom":6952,"Ġpickin":6953,"Ġholdin":6954,"Ġgreens":6955,"Ġtasted":6956,"Ġcaterpillars":6957,"Ġknob":6958,"Ġbelow":6959,"somethin":6960,"Ġprick":6961,"ĠOre":6962,"Ġdryer":6963,"Ġmicrowave":6964,"Ġdrawn":6965,"daisy":6966,"Ġscratching":6967,"Ġmatching":6968,"Ġmountains":6969,"Ġperfectly":6970,"ĠGoodnight":6971,"ĠRobert":6972,"ummie":6973,"ĠSpiderman":6974,"besides":6975,"unately":6976,"But":6977,"gue":6978,"hungry":6979,"ippy":6980,"mers":6981,"phone":6982,"save":6983,"ware":6984,"Ġicing":6985,"Ġtag":6986,"Ġwhi":6987,"Ġdining":6988,"Ġitchy":6989,"addle":6990,"asy":6991,"aling":6992,"thirty":6993,"Ġyall":6994,"tasty":6995,"roar":6996,"usse":6997,"Ġbothered":6998,"Ġbacks":6999,"aguh":7000,"Ġclapping":7001,"ĠSister":7002,"Ġarrow":7003,"reek":7004,"ĠPam":7005,"Ġmilkshake":7006,"ĠWilbur":7007,"Ġappears":7008,"Ġtravel":7009,"Ġmusth":7010,"Ġmessing":7011,"Ġdisco":7012,"Ġmayonnaise":7013,"Ġgarlic":7014,"Ġeighty":7015,"Ġdesert":7016,"between":7017,"Ġreaching":7018,"Ġpeeled":7019,"Ġstacking":7020,"Ġyelled":7021,"Ġsqueaky":7022,"Ġenjoyed":7023,"Ġchipmunk":7024,"ĠKathy":7025,"Ġinvol":7026,"Ġdistract":7027,"splish":7028,"ĠBobo":7029,"Ġtortoise":7030,"Ġposition":7031,"Ġprayers":7032,"Ġstretch":7033,"straight":7034,"eleven":7035,"Ġhugging":7036,"Ġgallons":7037,"Ġbologna":7038,"Ġvariet":7039,"Ġinsects":7040,"Ġoppos":7041,"trees":7042,"Ġsaucer":7043,"Bert":7044,"Bambi":7045,"Derwood":7046,"He":7047,"Jenny":7048,"Luke":7049,"Seuss":7050,"What":7051,"cour":7052,"caterpillar":7053,"found":7054,"glasses":7055,"lob":7056,"meat":7057,"octopus":7058,"tee":7059,"Ġtease":7060,"Ġwit":7061,"Ġshi":7062,"Ġdeter":7063,"Ġbon":7064,"Ġbitty":7065,"Ġbraid":7066,"Ġgoof":7067,"Ġgums":7068,"Ġgiddyup":7069,"nom":7070,"ergy":7071,"Ġfoo":7072,"Ġtoward":7073,"Ġhabit":7074,"vert":7075,"inker":7076,"Ġbecame":7077,"abab":7078,"Ġnon":7079,"dolp":7080,"using":7081,"beans":7082,"Ġcoke":7083,"Ġoveralls":7084,"ago":7085,"Ġmod":7086,"gets":7087,"ĠAid":7088,"ĠRock":7089,"Ġshave":7090,"ĠFred":7091,"Ġshove":7092,"Ġgrad":7093,"Ġgrouch":7094,"Ġnaked":7095,"ĠRossy":7096,"ĠWashington":7097,"Ġcuts":7098,"Ġchopping":7099,"irthday":7100,"Ġsideways":7101,"psst":7102,"Ġexcused":7103,"ĠOlivia":7104,"Ġgrav":7105,"Ġdoctors":7106,"Ġcombination":7107,"Ġsaltine":7108,"Ġdae":7109,"Ġfishes":7110,"grapes":7111,"Ġlicking":7112,"Ġgrownups":7113,"Ġescap":7114,"giraff":7115,"Ġfloppy":7116,"iction":7117,"Ġwrest":7118,"Ġvitamin":7119,"Ġwiggle":7120,"adadada":7121,"Ġrhyme":7122,"ĠCathy":7123,"ĠFranc":7124,"ĠHungary":7125,"Ġscreen":7126,"Nan":7127,"Papa":7128,"Pete":7129,"Sally":7130,"Will":7131,"bra":7132,"nuhhuh":7133,"sitting":7134,"uk":7135,"vory":7136,"Ġtil":7137,"having":7138,"Ġmosquito":7139,"Ġpins":7140,"Ġhooked":7141,"Ġkicked":7142,"irl":7143,"ases":7144,"ashes":7145,"ality":7146,"Ġdiddle":7147,"daya":7148,"ĠDa":7149,"upside":7150,"ults":7151,"Ġdrill":7152,"Ġbudle":7153,"gging":7154,"ĠRolan":7155,"ela":7156,"ĠNext":7157,"ĠLo":7158,"ĠLisa":7159,"Ġchased":7160,"Ġscrambled":7161,"Ġcradle":7162,"Ġwritin":7163,"Ġunderwear":7164,"Ġexpress":7165,"Ġapparently":7166,"Ġsupp":7167,"Ġbuildings":7168,"Ġcaptain":7169,"popcorn":7170,"Ġspeaking":7171,"ĠStefan":7172,"Ġcrabs":7173,"Ġpracticing":7174,"Ġfloat":7175,"ĠIndians":7176,"point":7177,"Ġmamma":7178,"salami":7179,"Ġbikes":7180,"waffles":7181,"Samantha":7182,"Ġbiscuits":7183,"picture":7184,"Ġtimer":7185,"Ġnatural":7186,"Sandy":7187,"Tommy":7188,"byes":7189,"bawk":7190,"cars":7191,"dah":7192,"morn":7193,"tow":7194,"tion":7195,"half":7196,"Ġwea":7197,"Ġdet":7198,"Ġoper":7199,"nap":7200,"owl":7201,"child":7202,"hipp":7203,"ammy":7204,"ilocks":7205,"button":7206,"Ġcloud":7207,"ĠBill":7208,"zzie":7209,"Ġargu":7210,"oolaid":7211,"ulous":7212,"gettin":7213,"Ġcommer":7214,"ĠRoy":7215,"ĠJustin":7216,"Ġbetcha":7217,"Ġhanded":7218,"Ġcheep":7219,"ĠNathan":7220,"ĠPopeye":7221,"Ġlevel":7222,"Ġbitsy":7223,"Ġenvel":7224,"Ġfeelings":7225,"Ġthrown":7226,"ĠWe":7227,"gotcha":7228,"Ġskate":7229,"Ġident":7230,"uddle":7231,"Ġsoftly":7232,"Ġapron":7233,"Ġlegos":7234,"drive":7235,"jumping":7236,"Ġpencils":7237,"ĠInv":7238,"ĠBrisco":7239,"Ġhonest":7240,"Ġlessons":7241,"Ġpacifier":7242,"Ġparticularly":7243,"calm":7244,"ĠHelen":7245,"Ġmainly":7246,"Ġcubes":7247,"market":7248,"Ġwrapped":7249,"Ġrescue":7250,"Ġprefers":7251,"Ġsomers":7252,"Christopher":7253,"Bunny":7254,"Cl":7255,"Do":7256,"Good":7257,"It":7258,"Le":7259,"cross":7260,"neat":7261,"ole":7262,"Ġtat":7263,"haven":7264,"inal":7265,"Ġwast":7266,"Ġweensie":7267,"Ġsym":7268,"Ġphys":7269,"Ġker":7270,"Ġlim":7271,"ading":7272,"Ġstirr":7273,"Ġstethoscope":7274,"doctor":7275,"ĠMia":7276,"ĠCity":7277,"Ġclop":7278,"ĠDay":7279,"ĠDracula":7280,"Ġshook":7281,"Ġcheating":7282,"ĠLion":7283,"ipment":7284,"whenever":7285,"Ġwalker":7286,"endy":7287,"ribe":7288,"awright":7289,"ĠKer":7290,"ĠWars":7291,"Ġsugg":7292,"Ġglove":7293,"shar":7294,"colm":7295,"Ġchannel":7296,"Ġdrivin":7297,"ounce":7298,"Ġpolite":7299,"interest":7300,"Ġdriveway":7301,"chers":7302,"Ġblows":7303,"Ġspilling":7304,"Ġscritch":7305,"Ġseaweed":7306,"emo":7307,"Ġdesc":7308,"Ġmailbox":7309,"Ġpetting":7310,"birdie":7311,"Ġcosts":7312,"Ġimagination":7313,"Ġfashion":7314,"ergic":7315,"Ġsniffs":7316,"rispies":7317,"Ġproperly":7318,"ĠScott":7319,"ĠCaptain":7320,"Becky":7321,"Ġservice":7322,"special":7323,"Ġpizzas":7324,"Bar":7325,"Mot":7326,"baker":7327,"fuzzy":7328,"lock":7329,"money":7330,"pass":7331,"zed":7332,"Ġll":7333,"Ġut":7334,"itzie":7335,"Ġchose":7336,"Ġpa":7337,"Ġonion":7338,"ohna":7339,"ady":7340,"Ġreact":7341,"alo":7342,"Ġsheets":7343,"uncle":7344,"ify":7345,"Ġallergic":7346,"ĠMwww":7347,"gged":7348,"ĠRwww":7349,"Ġwaterfall":7350,"Ġscoo":7351,"Ġprof":7352,"Ġcatches":7353,"ĠHel":7354,"gey":7355,"Ġkiddo":7356,"Ġpullin":7357,"Ġjumpin":7358,"Ġhoping":7359,"Ġunzip":7360,"Ġmushy":7361,"Ġmissin":7362,"everywhere":7363,"Ġunderstands":7364,"yumyum":7365,"ĠUsher":7366,"Ġpushes":7367,"Ġgrabbing":7368,"Ġmixing":7369,"cupcakes":7370,"Ġmarch":7371,"Ġnutr":7372,"duckie":7373,"Ġraise":7374,"Ġadvent":7375,"Ġburning":7376,"Ġsurfer":7377,"ricia":7378,"dadada":7379,"Ġcords":7380,"udden":7381,"Ġdecoration":7382,"Ġrobot":7383,"Ġdisappear":7384,"ĠBozo":7385,"Ġslippery":7386,"ĠHungarian":7387,"Ġtube":7388,"view":7389,"Ġincredible":7390,"Ġflashlight":7391,"Ġconcerned":7392,"Ġmerrily":7393,"Ġrotten":7394,"Ġrailroad":7395,"Ġtemperature":7396,"ĠSpanish":7397,"Ġcheerleaders":7398,"Ġcommercial":7399,"Ġenvelope":7400,"Farm":7401,"Sha":7402,"Tom":7403,"bull":7404,"dat":7405,"motor":7406,"mwuh":7407,"sudden":7408,"vr":7409,"vard":7410,"reach":7411,"Ġwob":7412,"Ġwicked":7413,"Ġcalend":7414,"Ġmid":7415,"Ġpit":7416,"Ġpra":7417,"ighed":7418,"uto":7419,"uty":7420,"Ġros":7421,"Ġevent":7422,"oodood":7423,"edi":7424,"thy":7425,"early":7426,"Ġspinning":7427,"bers":7428,"ĠDumpty":7429,"seems":7430,"ĠSuper":7431,"ĠSeuss":7432,"toy":7433,"angles":7434,"ĠJulie":7435,"ĠJapan":7436,"Ġhopping":7437,"Ġusual":7438,"ĠPet":7439,"iper":7440,"Ġhears":7441,"Ġblueberries":7442,"Ġbead":7443,"Ġdevil":7444,"spin":7445,"Ġtraining":7446,"Ġtrained":7447,"Ġitsy":7448,"imba":7449,"ĠAnthony":7450,"Ġwax":7451,"cows":7452,"Ġjoin":7453,"Ġpassenger":7454,"sausage":7455,"rabbits":7456,"Ġcollection":7457,"Andrew":7458,"Ġexperience":7459,"Ġequipment":7460,"ĠPotter":7461,"Ġpeaceful":7462,"Ġhiccups":7463,"course":7464,"Dumpty":7465,"Jimmy":7466,"Ke":7467,"base":7468,"lamb":7469,"mare":7470,"net":7471,"ninet":7472,"rooster":7473,"Ġsus":7474,"itive":7475,"Ġcuddly":7476,"Ġlord":7477,"lebr":7478,"Ġink":7479,"Ġisland":7480,"Ġliz":7481,"asha":7482,"Ġreport":7483,"Ġjingle":7484,"Ġplum":7485,"Ġsomehow":7486,"being":7487,"Ġcarn":7488,"ĠSweet":7489,"ĠShar":7490,"bol":7491,"alrighty":7492,"ĠAng":7493,"ĠRu":7494,"ooray":7495,"Ġsituation":7496,"venue":7497,"ĠTr":7498,"Ġchain":7499,"Ġquarts":7500,"Ġcrane":7501,"ĠGoofy":7502,"Ġprob":7503,"ĠHo":7504,"Ġvol":7505,"Ġnature":7506,"Ġwhoo":7507,"Ġhotdog":7508,"Ġrod":7509,"ĠKate":7510,"Ġactive":7511,"Ġskating":7512,"Ġrecipe":7513,"block":7514,"Ġchanges":7515,"Ġtickets":7516,"Ġtonic":7517,"Ġresting":7518,"Ġchewin":7519,"cherry":7520,"Ġclimbs":7521,"Ġrounded":7522,"Ġsplish":7523,"Ġcracked":7524,"pposed":7525,"Ġadult":7526,"Ġfairly":7527,"ucas":7528,"Ġtiptoe":7529,"ĠBecca":7530,"Ġexercises":7531,"Ġsleeves":7532,"Ġdoughnuts":7533,"Ġwebbed":7534,"Ġversion":7535,"Ġviole":7536,"Shem":7537,"ĠAmerican":7538,"circle":7539,"blanket":7540,"Ġrectangle":7541,"ohnathan":7542,"suddenly":7543,"Bo":7544,"Brett":7545,"Foot":7546,"Isab":7547,"Pig":7548,"Sp":7549,"Sunday":7550,"Wood":7551,"bby":7552,"bears":7553,"farm":7554,"gah":7555,"mac":7556,"oys":7557,"pus":7558,"si":7559,"table":7560,"Ġtables":7561,"reci":7562,"Ġsung":7563,"hatty":7564,"oos":7565,"Ġphones":7566,"Ġfra":7567,"Ġolives":7568,"Ġhero":7569,"ords":7570,"ĠItal":7571,"Ġevil":7572,"ien":7573,"Ġoutdoor":7574,"ĠMikey":7575,"Ġspee":7576,"Ġtoots":7577,"bel":7578,"ility":7579,"epend":7580,"ĠCam":7581,"ĠColin":7582,"ĠDexter":7583,"Ġoffer":7584,"Ġarf":7585,"alrightie":7586,"ĠName":7587,"ĠPan":7588,"ĠLassie":7589,"Ġcris":7590,"Ġjuicy":7591,"Ġwritten":7592,"Ġnighttime":7593,"Ġenergy":7594,"Ġtablecloth":7595,"tired":7596,"Ġtaping":7597,"Ġdibble":7598,"Ġfiremen":7599,"Ġchili":7600,"Ġmothers":7601,"boosh":7602,"Ġsetting":7603,"Ġmuscle":7604,"Ġscares":7605,"ĠMiche":7606,"Ġhangin":7607,"Ġpercent":7608,"Ġcovering":7609,"Ġdumped":7610,"Ġsweatshirt":7611,"Ġsews":7612,"Ġadvert":7613,"Ġadults":7614,"Ġsaved":7615,"Ġguns":7616,"Ġfirefighters":7617,"Ġcelebr":7618,"Matty":7619,"ĠHarvard":7620,"Ġpossibly":7621,"ĠGrammy":7622,"colors":7623,"Ġdisappeared":7624,"murf":7625,"Katie":7626,"Ġfascinated":7627,"Ġillustr":7628,"Cinderella":7629,"Ġcommun":7630,"mushroom":7631,"Ġspaceship":7632,"Ġoccasionally":7633,"Ġmaterial":7634,"Ġgravit":7635,"morning":7636,"Ġadventure":7637,"Ġcalendar":7638,"Ben":7639,"Dot":7640,"Ellie":7641,"dum":7642,"garet":7643,"ially":7644,"jam":7645,"ni":7646,"rings":7647,"sli":7648,"toot":7649,"uel":7650,"Ġq":7651,"Ġeensie":7652,"Ġtuck":7653,"rec":7654,"Ġwinner":7655,"Ġbin":7656,"ann":7657,"Ġlic":7658,"nog":7659,"Ġfol":7660,"Ġdow":7661,"icles":7662,"wered":7663,"chin":7664,"usty":7665,"lookit":7666,"robe":7667,"ella":7668,"ophone":7669,"Ġorgan":7670,"hannon":7671,"ĠBuddy":7672,"ĠBugs":7673,"Ġcarve":7674,"Ġneither":7675,"essa":7676,"reeze":7677,"ĠAaron":7678,"lory":7679,"Ġholl":7680,"Ġbrief":7681,"gobble":7682,"Ġshaving":7683,"ootie":7684,"Ġmouths":7685,"Ġprop":7686,"Ġswish":7687,"neck":7688,"Ġnights":7689,"Ġviolin":7690,"Ġwaitin":7691,"Ġbreast":7692,"Ġappet":7693,"Ġappreci":7694,"Ġintro":7695,"Ġslides":7696,"Ġdef":7697,"clown":7698,"lotte":7699,"Ġdripping":7700,"Ġmessage":7701,"Ġsettle":7702,"Ġforgotten":7703,"ĠVictor":7704,"Ġmarkers":7705,"Ġstorm":7706,"Ġsimple":7707,"Ġparrots":7708,"Ġseals":7709,"Ġyoghurt":7710,"Momma":7711,"Ġponytail":7712,"Ġpennys":7713,"ĠChuck":7714,"Ġsprouts":7715,"Ġlifting":7716,"ĠEmily":7717,"Max":7718,"ĠTracy":7719,"bubbles":7720,"tractor":7721,"Ġtrolley":7722,"Ġdestroy":7723,"Ġentire":7724,"Ġthreatened":7725,"ĠLincoln":7726,"Ġlefto":7727,"Ġvariety":7728,"Ġopposite":7729,"Ġmodel":7730,"Am":7731,"Can":7732,"Dexter":7733,"Gwww":7734,"Laurie":7735,"Mac":7736,"Mia":7737,"bath":7738,"face":7739,"kn":7740,"pooh":7741,"papa":7742,"ride":7743,"rhinoceros":7744,"warm":7745,"yi":7746,"yall":7747,"Ġsight":7748,"Ġdare":7749,"Ġber":7750,"Ġbunk":7751,"Ġgift":7752,"Ġcent":7753,"Ġcav":7754,"oogey":7755,"Ġmou":7756,"Ġthr":7757,"esting":7758,"Ġdop":7759,"Ġtoss":7760,"nast":7761,"ado":7762,"Ġdong":7763,"Ġsofa":7764,"ĠSher":7765,"ĠSandra":7766,"ĠSmurf":7767,"cto":7768,"toes":7769,"erence":7770,"Ġdrums":7771,"Ġbuggy":7772,"ĠAm":7773,"ĠRabbit":7774,"ĠJacob":7775,"ĠNicholas":7776,"Ġhelpful":7777,"Ġchart":7778,"plus":7779,"Ġsmock":7780,"Ġunderwater":7781,"Ġthrowin":7782,"Ġwhoop":7783,"Ġchilly":7784,"Ġhotel":7785,"Ġtops":7786,"Ġdev":7787,"Ġstickin":7788,"Ġbuses":7789,"Ġaction":7790,"Ġrecords":7791,"bridge":7792,"ierre":7793,"finity":7794,"Ġdecis":7795,"Ġdeserve":7796,"Ġmarks":7797,"Ġwhales":7798,"Ġsquirting":7799,"square":7800,"Ġcherries":7801,"Ġstepping":7802,"Ġbeating":7803,"talking":7804,"Ġgrownup":7805,"froggie":7806,"ĠJackie":7807,"ĠGramma":7808,"fortunately":7809,"salt":7810,"ĠGreat":7811,"whaddaya":7812,"Ġcorrectly":7813,"Ġcrowded":7814,"Ġprize":7815,"ĠEdna":7816,"Ġbricks":7817,"ĠPeanut":7818,"Ġlabel":7819,"balloons":7820,"Ġdigging":7821,"Ġeyebrows":7822,"Ġinvolved":7823,"Ġberries":7824,"Dwww":7825,"Gabriella":7826,"Mother":7827,"Weener":7828,"bin":7829,"bal":7830,"cos":7831,"je":7832,"jah":7833,"muff":7834,"rum":7835,"val":7836,"Ġtad":7837,"Ġtears":7838,"heh":7839,"antern":7840,"Ġcuddle":7841,"Ġthump":7842,"earest":7843,"eapples":7844,"nal":7845,"stem":7846,"Ġki":7847,"Ġsting":7848,"Ġstream":7849,"Ġrefer":7850,"aba":7851,"abee":7852,"also":7853,"Ġfort":7854,"Ġwanting":7855,"hmallow":7856,"ĠMartin":7857,"raig":7858,"ickory":7859,"Ġalike":7860,"ĠBa":7861,"quiet":7862,"Ġblame":7863,"lions":7864,"goin":7865,"uey":7866,"ĠNick":7867,"ĠToy":7868,"Ġshakes":7869,"Ġremembers":7870,"Ġscar":7871,"Ġsched":7872,"shoot":7873,"plate":7874,"Ġgrumpy":7875,"Ġcries":7876,"ĠHow":7877,"ĠEmp":7878,"Ġrooms":7879,"Ġsliding":7880,"Ġpanties":7881,"Ġbuildin":7882,"Ġpens":7883,"izard":7884,"chase":7885,"ountain":7886,"arshmallow":7887,"scoot":7888,"Ġpatting":7889,"gress":7890,"Ġapartment":7891,"Ġvehic":7892,"Ġfigures":7893,"Ġtoaster":7894,"visible":7895,"Ġvisiting":7896,"Ġmarry":7897,"feels":7898,"Ġtwinkle":7899,"Ġfreight":7900,"watermelon":7901,"Ġwok":7902,"ĠChew":7903,"Ġcollar":7904,"Ġquarters":7905,"ĠIndia":7906,"Ġpassed":7907,"Ġbalan":7908,"Ġbabydolls":7909,"Kayla":7910,"Kayode":7911,"eezed":7912,"Ġsteals":7913,"Ġsoldier":7914,"ompom":7915,"Ġstudents":7916,"change":7917,"Ġexperi":7918,"Ġbleed":7919,"Ġrefle":7920,"swimming":7921,"Ġscrape":7922,"Ġsafety":7923,"ĠAllison":7924,"Ġshooting":7925,"Ġblonde":7926,"Ġroutine":7927,"Ġplugged":7928,"Ġsilky":7929,"Ġlasagna":7930,"Ġtaxi":7931,"giraffe":7932,"children":7933,"Ġsuggest":7934,"Mc":7935,"Um":7936,"belly":7937,"cre":7938,"cie":7939,"dis":7940,"hon":7941,"life":7942,"za":7943,"Ġtab":7944,"Ġtwer":7945,"Ġaff":7946,"Ġweak":7947,"Ġsen":7948,"Ġtheater":7949,"Ġbzz":7950,"ants":7951,"Ġgee":7952,"Ġmul":7953,"Ġpeekababy":7954,"Ġfir":7955,"Ġfantastic":7956,"Ġthi":7957,"Ġopposed":7958,"Ġtore":7959,"lee":7960,"Ġinches":7961,"Ġkin":7962,"Ġliqu":7963,"ande":7964,"Ġrich":7965,"heresa":7966,"Ġstyle":7967,"Ġrent":7968,"mend":7969,"chief":7970,"Ġpleas":7971,"usted":7972,"Ġnotes":7973,"ĠMoo":7974,"ĠMall":7975,"tails":7976,"soap":7977,"ĠCe":7978,"Ġalarm":7979,"ĠBal":7980,"Ġprep":7981,"ĠSm":7982,"Ġwherever":7983,"Ġshining":7984,"Ġcallin":7985,"Ġchef":7986,"ĠNanny":7987,"Ġscale":7988,"ists":7989,"plums":7990,"ĠElliot":7991,"Ġpipes":7992,"Ġrealistic":7993,"Ġguessing":7994,"ĠWal":7995,"ĠWendy":7996,"oohoo":7997,"clo":7998,"Ġsnaps":7999,"antly":8000,"Ġwindy":8001,"finished":8002,"Ġseventh":8003,"carlet":8004,"Ġimit":8005,"Ġdropping":8006,"Ġivory":8007,"Ġdrops":8008,"bugs":8009,"Ġridin":8010,"Ġridges":8011,"Ġobs":8012,"Ġgrocerys":8013,"Ġfactory":8014,"ĠZach":8015,"pigs":8016,"Ġfollowed":8017,"ients":8018,"Ġbulls":8019,"Ġlargest":8020,"Erica":8021,"Ġsunday":8022,"Ġcharacters":8023,"Ġweights":8024,"fifteen":8025,"pineapple":8026,"Ġpitterpat":8027,"Ġelbows":8028,"ĠHannah":8029,"Ġassociate":8030,"Timothy":8031,"Ġexplore":8032,"Ġcontinue":8033,"ĠFrosty":8034,"crazy":8035,"Ġlittler":8036,"Ġpuddle":8037,"Ġexample":8038,"lobster":8039,"ĠWeist":8040,"motorcycle":8041,"baseball":8042,"Allen":8043,"Duck":8044,"Fl":8045,"Morgie":8046,"Rolan":8047,"candy":8048,"sad":8049,"uct":8050,"Ġee":8051,"reme":8052,"incess":8053,"Ġsouth":8054,"Ġsile":8055,"Ġpure":8056,"Ġdozen":8057,"orter":8058,"iculous":8059,"Ġwhats":8060,"Ġstamp":8061,"Ġbent":8062,"Ġseek":8063,"iew":8064,"umes":8065,"eats":8066,"Ġboiled":8067,"icket":8068,"ickle":8069,"belt":8070,"Ġanyways":8071,"ĠBrett":8072,"ĠSeptember":8073,"Ġwhoever":8074,"onga":8075,"told":8076,"Ġhappily":8077,"boon":8078,"Ġcooks":8079,"ĠNicky":8080,"ĠLance":8081,"Ġshade":8082,"Ġshaky":8083,"ĠFitzie":8084,"Ġfinds":8085,"ĠGus":8086,"Ġhairs":8087,"Ġsmack":8088,"Ġnightmare":8089,"acked":8090,"Ġdifferently":8091,"Ġchief":8092,"Ġcowboys":8093,"Ġeggnog":8094,"ilda":8095,"Ġslim":8096,"Ġdeck":8097,"Ġbushes":8098,"Ġfires":8099,"Ġpushin":8100,"Ġmatt":8101,"izing":8102,"Ġhops":8103,"unks":8104,"Ġlistens":8105,"ians":8106,"Ġfocus":8107,"Ġpron":8108,"Ġbarbe":8109,"Ġdresser":8110,"Ġclocks":8111,"Ġgramma":8112,"Ġcurl":8113,"Ġmusical":8114,"drant":8115,"Ġserving":8116,"Ġclasses":8117,"Ġanswered":8118,"Ġsailing":8119,"Ġsailors":8120,"Ġtighten":8121,"Ġanswering":8122,"Ġfreezing":8123,"underneath":8124,"Ġindepend":8125,"Ġsupermarket":8126,"Ġnicer":8127,"Ġrelated":8128,"ĠKaty":8129,"Ġfloating":8130,"softly":8131,"Ġruin":8132,"ĠDisneyland":8133,"Ġleaning":8134,"barrow":8135,"Ġswallowed":8136,"Ġfingernail":8137,"Ġbolts":8138,"Ġviolet":8139,"Ġsmoking":8140,"ĠChicago":8141,"George":8142,"Ġdiscuss":8143,"Ġsomersault":8144,"ĠEmpire":8145,"carlett":8146,"Aislinn":8147,"Bam":8148,"Humpty":8149,"Jenn":8150,"Karen":8151,"Nathan":8152,"bah":8153,"buckle":8154,"duh":8155,"fy":8156,"fill":8157,"full":8158,"gers":8159,"mi":8160,"seal":8161,"super":8162,"tool":8163,"tri":8164,"yond":8165,"Ġing":8166,"Ġicky":8167,"Ġtinker":8168,"resent":8169,"Ġsaturday":8170,"Ġbald":8171,"Ġlookee":8172,"Ġmaster":8173,"Ġpaw":8174,"Ġitch":8175,"sen":8176,"oranges":8177,"lemon":8178,"Ġinform":8179,"uts":8180,"Ġstere":8181,"Ġbehave":8182,"Ġnearest":8183,"uming":8184,"thur":8185,"ĠMass":8186,"Ġplayers":8187,"Ġeaters":8188,"Ġherd":8189,"hilip":8190,"Ġorig":8191,"amily":8192,"beets":8193,"shes":8194,"Ġclink":8195,"Ġbund":8196,"Ġcommon":8197,"ĠNat":8198,"ĠTanya":8199,"cocoon":8200,"ossum":8201,"Ġheaded":8202,"Ġspoonful":8203,"Ġpleased":8204,"Ġencoura":8205,"Ġolds":8206,"rika":8207,"awa":8208,"Ġparked":8209,"Ġbyebyes":8210,"Ġswimmers":8211,"Ġmoms":8212,"elson":8213,"Ġsmelling":8214,"oyo":8215,"leaves":8216,"Ġpineapples":8217,"Ġsummertime":8218,"medi":8219,"Ġlanding":8220,"Ġwheelbarrow":8221,"chop":8222,"squirt":8223,"walking":8224,"grape":8225,"ĠBarry":8226,"Ġlesson":8227,"ĠLeila":8228,"nuts":8229,"Ġbaloney":8230,"Ġchalkboard":8231,"Ġmillion":8232,"Ġhydrant":8233,"ĠKayla":8234,"Ġdirections":8235,"Ġbasic":8236,"Ġghosts":8237,"Ġjeans":8238,"ĠJillian":8239,"Ġcotton":8240,"dinosaurs":8241,"Ġversus":8242,"ĠMadeline":8243,"ĠPotato":8244,"Ġconstru":8245,"Alice":8246,"ĠIsabelle":8247,"ĠLynette":8248,"Ġcranky":8249,"Gregor":8250,"ĠPamper":8251,"Ġdetermin":8252,"Doctor":8253,"Ġstirring":8254,"interesting":8255,"ctober":8256,"Ġexperiment":8257,"Aid":8258,"Mad":8259,"Vader":8260,"cry":8261,"cil":8262,"dough":8263,"grown":8264,"kne":8265,"nes":8266,"okey":8267,"saw":8268,"tered":8269,"Ġtumble":8270,"ino":8271,"ita":8272,"Ġbou":8273,"Ġga":8274,"isbee":8275,"ayay":8276,"sel":8277,"ories":8278,"utter":8279,"them":8280,"ata":8281,"atee":8282,"Ġrasp":8283,"Ġnana":8284,"Ġjoy":8285,"iceman":8286,"rah":8287,"amian":8288,"ĠCoke":8289,"ĠDyeisha":8290,"Ġcheap":8291,"Ġbru":8292,"Ġbrushed":8293,"Ġfawn":8294,"gold":8295,"ĠTur":8296,"ĠPep":8297,"oots":8298,"Ġscene":8299,"often":8300,"short":8301,"Ġwondered":8302,"Ġduckling":8303,"ĠWorld":8304,"whis":8305,"Ġbuilder":8306,"Ġrockin":8307,"ngth":8308,"Ġclothing":8309,"broom":8310,"Ġpopular":8311,"Ġpolar":8312,"eadow":8313,"ĠFranny":8314,"Ġbanjo":8315,"Ġpolicemen":8316,"Ġsmelled":8317,"etery":8318,"Ġcamper":8319,"Ġstronger":8320,"Ġcombing":8321,"ĠMatt":8322,"Ġtongs":8323,"Ġwaist":8324,"Ġwhisp":8325,"Ġstopping":8326,"Ġfishy":8327,"squir":8328,"Ġfilling":8329,"Ġsqueaks":8330,"ĠAlad":8331,"Ġeraser":8332,"Ġjoking":8333,"Ġcaboose":8334,"ĠCheerio":8335,"Ġclearly":8336,"Carol":8337,"Ġtreatment":8338,"whew":8339,"Ġplains":8340,"Ġthroats":8341,"Ġdirect":8342,"ĠHeidi":8343,"ĠPiglet":8344,"Ġinstrument":8345,"Ġpalace":8346,"Ġrhymes":8347,"ĠEngland":8348,"Ġedges":8349,"busy":8350,"hopefully":8351,"Ġshouted":8352,"ĠJoanna":8353,"Ġninth":8354,"Ġexplor":8355,"Ġcigarette":8356,"Robin":8357,"ĠKristen":8358,"Ġdescribe":8359,"ĠSharon":8360,"Ġsunglasses":8361,"Jennifer":8362,"mediately":8363,"knees":8364,"April":8365,"Don":8366,"Dyeisha":8367,"Ha":8368,"Rosie":8369,"Sus":8370,"fre":8371,"goose":8372,"ique":8373,"nigh":8374,"ship":8375,"upp":8376,"Ġtrop":8377,"itus":8378,"itable":8379,"Ġdying":8380,"Ġcass":8381,"Ġcmon":8382,"Ġmarshmallow":8383,"Ġpompom":8384,"idre":8385,"stuck":8386,"Ġweighed":8387,"Ġew":8388,"uho":8389,"Ġstat":8390,"Ġsher":8391,"Ġplow":8392,"Ġouta":8393,"hmhm":8394,"ĠMum":8395,"ĠMam":8396,"ĠMex":8397,"ushes":8398,"Ġbock":8399,"ickles":8400,"soda":8401,"ived":8402,"ĠCon":8403,"ĠChantilly":8404,"aint":8405,"ĠBur":8406,"ours":8407,"quer":8408,"ĠSh":8409,"ĠSean":8410,"upstairs":8411,"Ġtrot":8412,"anga":8413,"hers":8414,"Ġguard":8415,"oopers":8416,"pepper":8417,"Ġwatering":8418,"ĠPascal":8419,"Ġlemur":8420,"Ġleavin":8421,"cheers":8422,"ĠHood":8423,"ĠHam":8424,"Ġvase":8425,"ĠWhat":8426,"Ġtrapped":8427,"Ġstrang":8428,"Ġrocky":8429,"rette":8430,"anyone":8431,"Ġdanced":8432,"Ġpainter":8433,"Ġflyin":8434,"Ġturkeys":8435,"Ġcountries":8436,"olo":8437,"Ġpatter":8438,"Ġgracious":8439,"Ġsnowing":8440,"Ġimmediately":8441,"Ġbounces":8442,"Ġstepmother":8443,"Ġangels":8444,"Ġsweaters":8445,"Ġplanes":8446,"Ġstraighten":8447,"Ġnearly":8448,"Ġtaco":8449,"Ġsentences":8450,"Ġtrips":8451,"ĠCharlotte":8452,"Ġbathe":8453,"Ġsigns":8454,"Ġcostumes":8455,"ĠRobbie":8456,"Ġcarrier":8457,"Ġcoughing":8458,"wheels":8459,"Ġsmoother":8460,"snake":8461,"Ġpromised":8462,"Ġsurfboard":8463,"Ġbika":8464,"ĠGrampy":8465,"Ġpaddle":8466,"Stefan":8467,"Ġfooling":8468,"Ġelectron":8469,"Ġsquirrelie":8470,"ĠGoldilocks":8471,"ĠMoomoo":8472,"Elana":8473,"Ġpunish":8474,"huah":8475,"Ġswamps":8476,"Ġcreepy":8477,"Ġcigarettes":8478,"Auntie":8479,"Ġactivity":8480,"ĠHappy":8481,"ĠDenver":8482,"Ġcranberry":8483,"Ġcarnival":8484,"nastics":8485,"Ġschedule":8486,"Ġmattress":8487,"triangle":8488,"Ġdetermined":8489,"Ch":8490,"Jerry":8491,"Old":8492,"Remi":8493,"You":8494,"burn":8495,"birthday":8496,"fing":8497,"fold":8498,"gum":8499,"gos":8500,"gown":8501,"ki":8502,"kaboom":8503,"ners":8504,"olf":8505,"poon":8506,"surpr":8507,"sushi":8508,"vark":8509,"vious":8510,"Ġtends":8511,"Ġdrown":8512,"Ġdarn":8513,"Ġcork":8514,"Ġlat":8515,"Ġpup":8516,"ettle":8517,"Ġheck":8518,"Ġhom":8519,"veget":8520,"idence":8521,"naw":8522,"alligator":8523,"Ġstub":8524,"Ġbeyond":8525,"alog":8526,"Ġnummy":8527,"Ġuppy":8528,"dolly":8529,"ifts":8530,"terrific":8531,"ntown":8532,"usages":8533,"Ġboil":8534,"earch":8535,"Ġhist":8536,"ĠCan":8537,"ĠBea":8538,"Ġpregn":8539,"ĠShannon":8540,"Ġblouse":8541,"ĠRex":8542,"ĠJedi":8543,"Ġchecked":8544,"Ġchewed":8545,"ĠLa":8546,"ĠLiam":8547,"Ġscrib":8548,"Ġgrease":8549,"ardvark":8550,"Ġprodu":8551,"Ġshowin":8552,"Ġourselves":8553,"Ġbits":8554,"Ġnightgown":8555,"Ġvine":8556,"ĠEma":8557,"Ġsquish":8558,"Ġskates":8559,"Ġfeeds":8560,"Ġasks":8561,"Ġsandals":8562,"Ġparlor":8563,"ovember":8564,"Ġticket":8565,"Ġpolka":8566,"intst":8567,"Ġbarrette":8568,"Ġdresses":8569,"Ġbottoms":8570,"Ġvel":8571,"aids":8572,"Ġcombed":8573,"empty":8574,"Ġcrawls":8575,"Ġcrawled":8576,"Ġcourt":8577,"ĠStephanie":8578,"Ġenglish":8579,"cats":8580,"Ġstole":8581,"Ġridiculous":8582,"cowboy":8583,"Ġcape":8584,"Ġadded":8585,"Ġnewspapers":8586,"Ġsmiled":8587,"loves":8588,"lights":8589,"ĊĊĊĊĊĊĊĊĊĊ":8590,"buquer":8591,"Ġcrossing":8592,"Ġstriped":8593,"sessed":8594,"Ġgrapefruit":8595,"ĠScoo":8596,"Ġdecorate":8597,"Ġundressed":8598,"Ġassuming":8599,"Ġposter":8600,"vanilla":8601,"wonderful":8602,"world":8603,"chickie":8604,"ĠGoldie":8605,"Ġstrike":8606,"Ġauthor":8607,"ĠAmerica":8608,"Ġyawning":8609,"Ġshrimp":8610,"Ġbakery":8611,"music":8612,"ĠChinese":8613,"Norman":8614,"Ġdetail":8615,"Ġpropell":8616,"Ġintrod":8617,"Ġinformation":8618,"huahua":8619,"buquerque":8620,"Di":8621,"Gram":8622,"Kip":8623,"Moom":8624,"Nonna":8625,"Thursday":8626,"Usher":8627,"away":8628,"aunt":8629,"bzzz":8630,"cam":8631,"doh":8632,"gl":8633,"oid":8634,"pear":8635,"past":8636,"tuna":8637,"vio":8638,"yo":8639,"rels":8640,"Ġwaking":8641,"Ġsire":8642,"Ġsets":8643,"onder":8644,"Ġdee":8645,"Ġbir":8646,"Ġbul":8647,"Ġcem":8648,"Ġlit":8649,"Ġmummie":8650,"Ġmeadow":8651,"Ġpsy":8652,"Ġfiddle":8653,"Ġfudge":8654,"Ġthief":8655,"esse":8656,"Ġheels":8657,"Ġhye":8658,"stood":8659,"sted":8660,"Ġroo":8661,"adding":8662,"Ġrece":8663,"hoe":8664,"chie":8665,"chip":8666,"Ġwithin":8667,"Ġgetcha":8668,"Ġforce":8669,"ury":8670,"ĠMo":8671,"ĠMill":8672,"Ġherds":8673,"whole":8674,"rais":8675,"race":8676,"Ġboing":8677,"Ġsports":8678,"bees":8679,"Ġcoins":8680,"ĠCraig":8681,"aude":8682,"Ġfriday":8683,"ĠDutch":8684,"ĠSea":8685,"Ġshit":8686,"Ġshorter":8687,"Ġaspir":8688,"ĠAna":8689,"ĠRoo":8690,"ĠNelson":8691,"ĠTe":8692,"ĠPer":8693,"ĠLucy":8694,"ĠLady":8695,"ĠFix":8696,"plic":8697,"plastic":8698,"Ġgrate":8699,"ĠGoogey":8700,"Ġleash":8701,"Ġvote":8702,"ĠEs":8703,"Ġwalkie":8704,"Ġhotdogs":8705,"Ġintell":8706,"Ġchoices":8707,"clop":8708,"Ġfixin":8709,"spell":8710,"Ġtickles":8711,"ĠFrilly":8712,"Ġmushed":8713,"Ġaware":8714,"stache":8715,"flying":8716,"Ġtickled":8717,"mashed":8718,"ĠGrandaddy":8719,"umbre":8720,"ĠMarty":8721,"Ġgrabs":8722,"emee":8723,"Ġstrap":8724,"Ġdrivers":8725,"ĠAnna":8726,"Ġangle":8727,"Ġmarker":8728,"Ġslipped":8729,"Ġplanning":8730,"Ġobsessed":8731,"Ġenjoys":8732,"walker":8733,"ĠAlbuquerque":8734,"ĠBarnes":8735,"Ġsneaky":8736,"Ġcabin":8737,"wheel":8738,"Ġexercising":8739,"Ġxyl":8740,"Frank":8741,"Ġnickels":8742,"parag":8743,"Erin":8744,"Ġamazed":8745,"Ġdecorations":8746,"Ġsystem":8747,"Ġwiping":8748,"Ġassume":8749,"Ġinstructions":8750,"ebruary":8751,"sleepy":8752,"Ġfilthy":8753,"Ġpriv":8754,"Ġfrustrating":8755,"works":8756,"ĠNancy":8757,"ĠJanet":8758,"Ġnipple":8759,"ĠFranklin":8760,"Ġsilverware":8761,"puppys":8762,"Ġsoul":8763,"Ġeffect":8764,"Ġhedgehog":8765,"Ġprickly":8766,"Ġutens":8767,"Ġreaction":8768,"Ġwobbly":8769,"Ġviolent":8770,"Ġdowntown":8771,"Ġdecision":8772,"Ġingred":8773,"Ġexploring":8774,"Ġhomes":8775,"Ġcemetery":8776,"Ġhyena":8777,"Ġxylophone":8778,"Care":8779,"Donna":8780,"Eric":8781,"Gold":8782,"Jill":8783,"Park":8784,"Tigger":8785,"bark":8786,"basket":8787,"cue":8788,"dom":8789,"dges":8790,"hush":8791,"hooray":8792,"loo":8793,"lick":8794,"lies":8795,"lunch":8796,"ridge":8797,"sin":8798,"sst":8799,"Ġajudge":8800,"Ġweed":8801,"Ġsized":8802,"Ġdive":8803,"Ġdub":8804,"Ġdande":8805,"Ġbink":8806,"ishi":8807,"Ġcred":8808,"Ġmiles":8809,"Ġpj":8810,"Ġpause":8811,"ays":8812,"Ġfer":8813,"Ġthigh":8814,"Ġhuff":8815,"Ġinf":8816,"Ġinvisible":8817,"street":8818,"Ġkings":8819,"Ġkarate":8820,"Ġknack":8821,"Ġkoolaid":8822,"Ġrake":8823,"Ġrare":8824,"ira":8825,"aded":8826,"Ġcant":8827,"imber":8828,"Ġann":8829,"urse":8830,"ĠMer":8831,"ĠMimi":8832,"cember":8833,"Ġsaving":8834,"Ġcoin":8835,"ĠBub":8836,"ĠSn":8837,"Ġaside":8838,"Ġdrunk":8839,"ĠRos":8840,"Ġmanage":8841,"ĠJoy":8842,"Ġflu":8843,"ĠNonno":8844,"ĠNemo":8845,"ĠPierre":8846,"Ġshoulda":8847,"Ġeverytime":8848,"uguh":8849,"Ġleop":8850,"Ġprov":8851,"Ġmaker":8852,"Ġvot":8853,"ĠEars":8854,"Ġenv":8855,"ipt":8856,"Ġwhine":8857,"Ġdem":8858,"ational":8859,"speak":8860,"unde":8861,"certain":8862,"Ġsixth":8863,"Ġconcept":8864,"ebae":8865,"Ġexcitable":8866,"Ġcloses":8867,"ĠMicah":8868,"ĠBrother":8869,"Ġrecorded":8870,"Ġribs":8871,"Ġdaddies":8872,"Ġtwins":8873,"Ġrubbing":8874,"Ġbuckets":8875,"slice":8876,"Ġpeeking":8877,"Ġcardboard":8878,"bowl":8879,"Ġmuddy":8880,"Ġfields":8881,"Ġburnt":8882,"ĠPatsy":8883,"Ġindeed":8884,"frogs":8885,"buy":8886,"Ġsucking":8887,"ĠLeo":8888,"Ġinterrup":8889,"Ġfolded":8890,"Ġsuitcases":8891,"wahwah":8892,"Ġtextures":8893,"Ġprinc":8894,"Ġtwisted":8895,"Ġmelted":8896,"ĠGerman":8897,"Ġdonuts":8898,"Ġsmokes":8899,"Ġtowers":8900,"ĠDiandra":8901,"Ġstrength":8902,"penguin":8903,"Ġmousie":8904,"ussels":8905,"Ġgrouchy":8906,"William":8907,"Ġfashioned":8908,"ĠJapanese":8909,"Ġoutdoors":8910,"Ġtwerp":8911,"Ġliquid":8912,"ĠSmith":8913,"Ġslimy":8914,"Ġwhispered":8915,"umbrella":8916,"Doh":8917,"Moo":8918,"Mir":8919,"Mal":8920,"On":8921,"Put":8922,"bth":8923,"cot":8924,"des":8925,"jeez":8926,"mill":8927,"mower":8928,"oka":8929,"pit":8930,"pears":8931,"rar":8932,"sister":8933,"top":8934,"uz":8935,"Ġtit":8936,"Ġtan":8937,"Ġale":8938,"revor":8939,"Ġdiction":8940,"Ġbible":8941,"isher":8942,"Ġchow":8943,"norm":8944,"Ġmult":8945,"Ġpsst":8946,"Ġhehe":8947,"Ġhulk":8948,"Ġhanger":8949,"stinky":8950,"ohoh":8951,"Ġrash":8952,"Ġev":8953,"Ġmeerk":8954,"Ġshed":8955,"aked":8956,"unx":8957,"acks":8958,"osed":8959,"amund":8960,"apart":8961,"ĠDabee":8962,"quite":8963,"ĠSab":8964,"ĠSue":8965,"Ġtrans":8966,"Ġmob":8967,"Ġwerewo":8968,"Ġark":8969,"eremy":8970,"boing":8971,"Ġdrip":8972,"peck":8973,"Ġtalkative":8974,"ĠNep":8975,"ĠTar":8976,"ĠTippy":8977,"ĠParent":8978,"ĠLia":8979,"Ġremembering":8980,"ĠFeet":8981,"ungs":8982,"Ġhaircut":8983,"chee":8984,"ĠHer":8985,"ĠHilda":8986,"ĠEwww":8987,"ĠEllie":8988,"Ġpigtails":8989,"Ġoldest":8990,"ĠWell":8991,"Ġwearin":8992,"Ġtaped":8993,"forgot":8994,"somewhere":8995,"blic":8996,"udley":8997,"unky":8998,"Ġmesses":8999,"Ġuntied":9000,"Ġraincoat":9001,"actus":9002,"Ġlayer":9003,"Ġfamous":9004,"bigger":9005,"Ġremove":9006,"Ġlaughin":9007,"ĠMarch":9008,"ĠStan":9009,"ĠĠĠ":9010,"Ġdarker":9011,"Ġfreak":9012,"Ġforehead":9013,"ĠInc":9014,"Ġtoena":9015,"Ġsteer":9016,"Ġjokes":9017,"Ġtissues":9018,"numnum":9019,"itional":9020,"hehehe":9021,"ĠArthur":9022,"Ġgymnastics":9023,"Ġwiped":9024,"Ġhidden":9025,"Andy":9026,"ĠEwoks":9027,"microphone":9028,"Ġarrange":9029,"Todd":9030,"Ġmelting":9031,"ĠThumper":9032,"Ġphysical":9033,"ĠKermit":9034,"Ġscooter":9035,"ĠSuperman":9036,"Ġframe":9037,"Ġlicense":9038,"Ġbriefcase":9039,"Ġappreciate":9040,"Ġmoustache":9041,"ĠMallard":9042,"Ġpregnant":9043,"paragus":9044,"Ġenviron":9045,"Ed":9046,"Elliot":9047,"Jen":9048,"Miffy":9049,"Sara":9050,"cet":9051,"cers":9052,"cul":9053,"dee":9054,"grandpa":9055,"kle":9056,"lal":9057,"nels":9058,"oatmeal":9059,"yed":9060,"young":9061,"ints":9062,"Ġwhip":9063,"itched":9064,"Ġden":9065,"Ġdairy":9066,"anna":9067,"anne":9068,"Ġgifts":9069,"isandy":9070,"Ġcages":9071,"Ġcushi":9072,"Ġcactus":9073,"ersey":9074,"Ġfee":9075,"Ġfountain":9076,"Ġopt":9077,"esh":9078,"Ġdoc":9079,"Ġheater":9080,"Ġinch":9081,"idents":9082,"ari":9083,"arl":9084,"Ġrushed":9085,"lda":9086,"Ġbegg":9087,"hole":9088,"Ġcanoe":9089,"wen":9090,"absolutely":9091,"Ġnug":9092,"ryl":9093,"uset":9094,"Ġsauc":9095,"Ġnowhere":9096,"Ġmyster":9097,"Ġcocon":9098,"ĠCle":9099,"Ġclam":9100,"ĠDie":9101,"Ġprecious":9102,"ĠSouth":9103,"ĠSully":9104,"rowrow":9105,"Ġshine":9106,"Ġargue":9107,"elope":9108,"Ġflight":9109,"Ġfluff":9110,"Ġfacing":9111,"ĠPut":9112,"Ġshame":9113,"ootchy":9114,"Ġdaytime":9115,"Ġwrites":9116,"neither":9117,"Ġview":9118,"Ġwaited":9119,"Ġpige":9120,"ending":9121,"Ġchubby":9122,"ĠKip":9123,"ĠKenny":9124,"ĠWizard":9125,"aila":9126,"Ġmonday":9127,"avis":9128,"Ġskills":9129,"pillow":9130,"achuset":9131,"Ġchihuahua":9132,"Ġhiking":9133,"ealous":9134,"ropri":9135,"Ġfarms":9136,"Ġdisp":9137,"Ġpersonality":9138,"Ġeighth":9139,"oyoy":9140,"ĠMargaret":9141,"pickles":9142,"Ġcompared":9143,"patty":9144,"gran":9145,"Ġfreeze":9146,"Ġvoices":9147,"ĠMaryse":9148,"Anne":9149,"Anthony":9150,"chickens":9151,"driving":9152,"Fran":9153,"broken":9154,"Ġdisappoint":9155,"teacher":9156,"ĠMacdonald":9157,"capital":9158,"Ġstudent":9159,"crackers":9160,"Ġlawnmower":9161,"Ġinteractive":9162,"Ġninight":9163,"Ġheavens":9164,"ĠFlintst":9165,"dancing":9166,"Ġspoiled":9167,"Ġignore":9168,"Toddy":9169,"Ġopossum":9170,"Ġdiscovered":9171,"Ġescape":9172,"Ġllama":9173,"ĠHelga":9174,"Ġlizard":9175,"Ġspeech":9176,"ĠMichelle":9177,"jamin":9178,"Ġbundles":9179,"Ġstrangers":9180,"Ġingredients":9181,"Ġprincip":9182,"Ġsaucers":9183,"Bright":9184,"Bwww":9185,"Co":9186,"Moosh":9187,"Name":9188,"Sandra":9189,"Simba":9190,"World":9191,"bors":9192,"coo":9193,"hill":9194,"nummy":9195,"pow":9196,"ral":9197,"uing":9198,"vet":9199,"wers":9200,"yog":9201,"Ġtang":9202,"heavy":9203,"Ġais":9204,"Ġavenue":9205,"Ġaardvark":9206,"rer":9207,"Ġwakes":9208,"itzen":9209,"Ġdimes":9210,"Ġbay":9211,"Ġcreek":9212,"lley":9213,"Ġmum":9214,"Ġmule":9215,"Ġpers":9216,"ester":9217,"ommend":9218,"Ġhoot":9219,"Ġhip":9220,"Ġhamm":9221,"Ġinit":9222,"Ġinfinity":9223,"stret":9224,"stars":9225,"Ġwed":9226,"Ġur":9227,"irgin":9228,"Ġnoon":9229,"Ġstalk":9230,"Ġrequ":9231,"mere":9232,"Ġcann":9233,"Ġnick":9234,"imee":9235,"Ġanno":9236,"ified":9237,"Ġsocial":9238,"inder":9239,"tacos":9240,"Ġplayroom":9241,"Ġsausages":9242,"lettuce":9243,"ĠSim":9244,"ĠScarry":9245,"essy":9246,"Ġaroun":9247,"ĠRon":9248,"Ġmanatee":9249,"ĠJon":9250,"ĠJohnathan":9251,"ĠNate":9252,"ĠPhil":9253,"ĠLind":9254,"ĠLarry":9255,"ugu":9256,"ĠGab":9257,"ĠGuy":9258,"Ġlego":9259,"Ġsection":9260,"Ġleap":9261,"Ġsmil":9262,"Ġlongest":9263,"geous":9264,"Ġfeelin":9265,"Ġpokey":9266,"Ġsweets":9267,"ĠKleenex":9268,"Ġsuc":9269,"Ġrecommend":9270,"blin":9271,"ubub":9272,"ewis":9273,"bras":9274,"olog":9275,"perfect":9276,"Ġrains":9277,"Ġbarbell":9278,"answer":9279,"Ġfarther":9280,"Ġseahorse":9281,"Ġjackets":9282,"rolling":9283,"Ġstaring":9284,"Ġdads":9285,"Ġstomp":9286,"Ġanswers":9287,"choke":9288,"swiss":9289,"uced":9290,"Ġengineer":9291,"ĠYod":9292,"ĠBobbie":9293,"Ġpointy":9294,"Ġporridge":9295,"ĠDolly":9296,"Ġneighbors":9297,"Ġpressure":9298,"Ġinvited":9299,"Christmas":9300,"Brisco":9301,"Ġwipes":9302,"Ġhidin":9303,"Ġpowerful":9304,"Ġhuggie":9305,"Ġcells":9306,"Ġtonsils":9307,"Ġmentioned":9308,"ĠMalcolm":9309,"ĠSkywalker":9310,"Ġbraids":9311,"ĠFrancis":9312,"Ġsymbol":9313,"Ġpraise":9314,"Ġtootsies":9315,"Ġadvertise":9316,"Ġillustration":9317,"Ġsilent":9318,"Ġindependent":9319,"Ġconstruction":9320,"Ġstubborn":9321,"Ġhistory":9322,"camera":9323,"Ġsiren":9324,"Ġintellig":9325,"Ġdictionary":9326,"ĠNepal":9327,"Ġenvironment":9328,"achusetts":9329,"ropriate":9330,"Amelia":9331,"Grandpa":9332,"Heather":9333,"James":9334,"Mel":9335,"Mike":9336,"Pot":9337,"Ryan":9338,"bies":9339,"finger":9340,"joy":9341,"jingle":9342,"kh":9343,"koo":9344,"kie":9345,"kitt":9346,"met":9347,"meas":9348,"oife":9349,"park":9350,"pushed":9351,"suit":9352,"snort":9353,"von":9354,"vable":9355,"wave":9356,"zes":9357,"Ã¡":9358,"Ġtune":9359,"Ġwand":9360,"Ġwaddle":9361,"Ġder":9362,"anana":9363,"anessa":9364,"Ġcust":9365,"Ġcuck":9366,"Ġlungs":9367,"Ġmot":9368,"Ġfant":9369,"Ġfuzz":9370,"Ġoy":9371,"etah":9372,"kel":9373,"kelet":9374,"orp":9375,"Ġkaboom":9376,"Ġkettle":9377,"owie":9378,"Ġstiff":9379,"Ġreas":9380,"chi":9381,"chch":9382,"Ġjealous":9383,"thirteen":9384,"dolf":9385,"Ġpliers":9386,"Ġbabysit":9387,"uses":9388,"ured":9389,"ĠChatty":9390,"Ġcli":9391,"ĠBeth":9392,"ĠBonnie":9393,"ĠBumper":9394,"Ġcarton":9395,"ape":9396,"ĠDog":9397,"ĠSch":9398,"ctic":9399,"Ġtricked":9400,"mmitt":9401,"Ġcomfy":9402,"ĠAva":9403,"goats":9404,"ĠNi":9405,"ĠNo":9406,"ĠTwww":9407,"ĠLwww":9408,"ĠLastname":9409,"Ġshaker":9410,"ĠFoot":9411,"Ġscotch":9412,"shou":9413,"shoo":9414,"Ġgreedy":9415,"ĠGwww":9416,"Ġprogra":9417,"Ġcatalog":9418,"Ġheadband":9419,"Ġunderarm":9420,"inners":9421,"rikes":9422,"mail":9423,"Ġfunky":9424,"Ġfallen":9425,"ĠKwww":9426,"ĠWilly":9427,"ĠWolf":9428,"leanor":9429,"Ġslinky":9430,"shas":9431,"Ġchopped":9432,"Ġbathrobe":9433,"click":9434,"Ġsnail":9435,"someday":9436,"turning":9437,"Ġsmallest":9438,"Ġdances":9439,"Ġcooler":9440,"Ġcounted":9441,"Ġfoam":9442,"Ġpatience":9443,"Ġsnowy":9444,"Ġacorns":9445,"played":9446,"downstairs":9447,"Ġpinchers":9448,"ĠVas":9449,"Ġbouncer":9450,"Ġsurprising":9451,"Ġspelled":9452,"Ġmistakes":9453,"Ġseries":9454,"Ġterr":9455,"Ġplanet":9456,"Ġnursing":9457,"Ġboards":9458,"squeeze":9459,"Ġpackages":9460,"ĠZack":9461,"Monday":9462,"Ġtuba":9463,"Ġmeals":9464,"smart":9465,"Ġwoolly":9466,"Ġspankin":9467,"Ġsledding":9468,"ĠKayode":9469,"Ġdistance":9470,"Steven":9471,"Ġattach":9472,"Ġsoldiers":9473,"Ġinstruments":9474,"ĠSusie":9475,"Ġscreamed":9476,"Ġlifts":9477,"Ġimpressed":9478,"Cindy":9479,"Ġbarely":9480,"Ġelectricity":9481,"Ġcucumbers":9482,"Ġconnected":9483,"penguins":9484,"Ġconcentrate":9485,"ĠPluto":9486,"uuw":9487,"Ġdistracted":9488,"Ġships":9489,"Ġhonestly":9490,"Ġprofession":9491,"Ġcavities":9492,"Ġmulberry":9493,"Susan":9494,"Ġbirdy":9495,"Ġleopard":9496,"Miranda":9497,"Ġmobile":9498,"Ar":9499,"Amy":9500,"Cromer":9501,"Danny":9502,"Emma":9503,"Gail":9504,"Han":9505,"Jane":9506,"Kate":9507,"Lastname":9508,"Minnie":9509,"Martin":9510,"No":9511,"New":9512,"Pe":9513,"Von":9514,"bike":9515,"bunn":9516,"cor":9517,"cht":9518,"craw":9519,"fun":9520,"fits":9521,"french":9522,"glad":9523,"hh":9524,"kitchen":9525,"low":9526,"laug":9527,"puzz":9528,"tv":9529,"train":9530,"uppy":9531,"ujah":9532,"wide":9533,"zipper":9534,"Ġiced":9535,"Ġtant":9536,"hav":9537,"rend":9538,"Ġsno":9539,"Ġdeath":9540,"Ġbilly":9541,"Ġgear":9542,"Ġled":9543,"nos":9544,"Ġmur":9545,"Ġmang":9546,"Ġmass":9547,"Ġheel":9548,"orable":9549,"ĠIt":9550,"stein":9551,"Ġliking":9552,"athing":9553,"Ġecho":9554,"Ġstain":9555,"Ġnanny":9556,"eng":9557,"ittney":9558,"Ġplans":9559,"unched":9560,"ĠMoon":9561,"acky":9562,"looka":9563,"dya":9564,"ometer":9565,"aula":9566,"Ġclue":9567,"ĠBwww":9568,"ĠDave":9569,"ĠDudley":9570,"ĠSears":9571,"Ġshield":9572,"Ġworn":9573,"Ġhappier":9574,"ĠAwww":9575,"Ġboyfriend":9576,"Ġloving":9577,"Ġhog":9578,"Ġpeop":9579,"ĠTerry":9580,"ĠPink":9581,"ĠLor":9582,"ĠLiz":9583,"ĠFather":9584,"ĠFebruary":9585,"Ġshock":9586,"Ġgrader":9587,"pencil":9588,"Ġjugg":9589,"Ġjudges":9590,"Ġprocess":9591,"cheep":9592,"Ġunderstood":9593,"Ġholder":9594,"Ġhates":9595,"Ġbreed":9596,"ires":9597,"Ġparties":9598,"Ġroy":9599,"ĠWee":9600,"Ġappropriate":9601,"Ġsliced":9602,"Ġlighter":9603,"Ġlightning":9604,"Ġkissy":9605,"Ġfloors":9606,"Ġstranger":9607,"bler":9608,"Ġunpl":9609,"Ġuniversity":9610,"booboo":9611,"standing":9612,"Ġemer":9613,"Ġrainy":9614,"Ġchewy":9615,"Ġkneel":9616,"ĠOctober":9617,"Ġgram":9618,"Ġsnuggle":9619,"hurray":9620,"Rossy":9621,"Ġseatbelt":9622,"ordan":9623,"Ġpuppys":9624,"ledge":9625,"crunch":9626,"Ġvisited":9627,"ribly":9628,"Ġstarving":9629,"ĠĠĠĠ":9630,"comfortable":9631,"iggles":9632,"Ġbands":9633,"Ġbandana":9634,"Ġbeats":9635,"Ġracoon":9636,"Ġpepperoni":9637,"potatoes":9638,"Ġsucker":9639,"ĠLego":9640,"ĠLegos":9641,"ĠAndre":9642,"eighteen":9643,"Ġcabbage":9644,"strong":9645,"Friday":9646,"Ġrepresent":9647,"Patricia":9648,"needta":9649,"Ġsprayed":9650,"ĠGran":9651,"screwdriver":9652,"Ġstinks":9653,"Ġtorn":9654,"Ġtypically":9655,"sleeping":9656,"Ġgooey":9657,"Ġnecessary":9658,"ĠPopp":9659,"Ġsepar":9660,"ĠJanuary":9661,"Ġconsist":9662,"Ġstripe":9663,"paint":9664,"Ġbomber":9665,"Ġsolid":9666,"Ġblinking":9667,"iddler":9668,"Ġmammals":9669,"Ġsprinkles":9670,"ĠUniversity":9671,"Cheer":9672,"ĠRocky":9673,"Ġkernels":9674,"ĠItaly":9675,"Ġcommunic":9676,"mushrooms":9677,"clothes":9678,"tools":9679,"ĠMexico":9680,"ĠScooby":9681,"Ġcredit":9682,"Ġmeerkat":9683,"Ġcoconut":9684,"ĠDiego":9685,"irginia":9686,"Ġcuckoo":9687,"Pl":9688,"Phil":9689,"Saturday":9690,"beat":9691,"bons":9692,"cab":9693,"cootchy":9694,"dress":9695,"fis":9696,"fig":9697,"giggle":9698,"junk":9699,"kittens":9700,"lantern":9701,"moom":9702,"pork":9703,"parent":9704,"ras":9705,"sur":9706,"sick":9707,"hew":9708,"hever":9709,"Ġaid":9710,"Ġastr":9711,"Ġwider":9712,"Ġsake":9713,"Ġscan":9714,"Ġdice":9715,"Ġbuh":9716,"Ġbask":9717,"Ġbreeze":9718,"animal":9719,"anche":9720,"Ġmaj":9721,"erm":9722,"eral":9723,"Ġfans":9724,"etto":9725,"Ġharm":9726,"leet":9727,"ĠIs":9728,"Ġkak":9729,"Ġknight":9730,"Ġlimit":9731,"atic":9732,"Ġrang":9733,"Ġstitches":9734,"Ġrearr":9735,"holy":9736,"Ġmember":9737,"aboo":9738,"alade":9739,"umn":9740,"imag":9741,"oty":9742,"tact":9743,"Ġspons":9744,"Ġspicy":9745,"bean":9746,"uren":9747,"ĠCr":9748,"Ġelves":9749,"ĠBack":9750,"ĠBam":9751,"ĠBoneen":9752,"ĠDavis":9753,"ĠSoopers":9754,"ongs":9755,"wants":9756,"bock":9757,"Ġcomplic":9758,"ĠAis":9759,"ĠAnt":9760,"ĠAstra":9761,"hichever":9762,"Ġturnin":9763,"Ġchees":9764,"Ġflags":9765,"Ġbrushes":9766,"Ġwilling":9767,"ĠPen":9768,"ĠPop":9769,"ĠPenn":9770,"Ġlotta":9771,"Ġshoel":9772,"ĠGavin":9773,"ĠGonga":9774,"Ġleader":9775,"obile":9776,"obviously":9777,"Ġsmily":9778,"Ġunderpants":9779,"ĠEli":9780,"ĠElla":9781,"Ġicecream":9782,"Ġbreathing":9783,"endo":9784,"Ġdoorbell":9785,"Ġnar":9786,"Ġappro":9787,"Ġslam":9788,"Ġtrave":9789,"clear":9790,"Ġfeedin":9791,"Ġbirthdays":9792,"sport":9793,"Ġknobs":9794,"Ġembar":9795,"Ġlistened":9796,"oline":9797,"Ġtreating":9798,"period":9799,"Ġtech":9800,"Ġmeatballs":9801,"Ġfoal":9802,"guys":9803,"urphy":9804,"laire":9805,"Ġwarmer":9806,"Ġbooster":9807,"Ġlayin":9808,"playin":9809,"Ġsplashing":9810,"ĠMargie":9811,"tooth":9812,"pickle":9813,"Ġangles":9814,"ramp":9815,"Ġroads":9816,"Ġdaisy":9817,"grass":9818,"ĠBrussels":9819,"sixteen":9820,"ĠCheese":9821,"Ġbrains":9822,"Ġsurv":9823,"Ġerr":9824,"ĠZoe":9825,"tomatoes":9826,"codiles":9827,"ĊĊĊĊĊĊĊĊĊ":9828,"Ġcandies":9829,"Ġdelivers":9830,"Ġcomputers":9831,"ĠMcdonald":9832,"Ġrobbers":9833,"Stephanie":9834,"Ġspends":9835,"Ġdistur":9836,"Ġclips":9837,"Ġundo":9838,"Ġcockpit":9839,"Ġfoolin":9840,"ĠNorman":9841,"ĠBlitzen":9842,"ĠFrannie":9843,"ĠJessie":9844,"Ġblender":9845,"climbing":9846,"Ġouchie":9847,"ĠTrail":9848,"Ġstreets":9849,"Ġspanish":9850,"ĠKevin":9851,"bacca":9852,"Ġcooled":9853,"Ġobjects":9854,"Ġtumbling":9855,"Ġstocking":9856,"Ġzippers":9857,"Ġtarget":9858,"ĠOreos":9859,"Ġwhipped":9860,"Ġwrestle":9861,"Ġexpression":9862,"hippopotamus":9863,"Barbara":9864,"ĠHoll":9865,"Ġleftovers":9866,"Ġtadpo":9867,"Ġreferring":9868,"Ġvehicle":9869,"Ġbarbecue":9870,"Ġstereoty":9871,"ĠPotatohead":9872,"ĠPepsi":9873,"Ġtropical":9874,"ĠMumma":9875,"ĠBurger":9876,"Ġpunishment":9877,"Ġvelcro":9878,"addington":9879,"ĠRosamund":9880,"ĠFeetman":9881,"Ġwednesday":9882,"Ġreasons":9883,"Ġbaskets":9884,"Ġcomplicated":9885,"August":9886,"Boneen":9887,"Elizabeth":9888,"Grand":9889,"Kent":9890,"Lee":9891,"Lance":9892,"Mwww":9893,"Memee":9894,"Naomi":9895,"Sw":9896,"Snoopy":9897,"September":9898,"buh":9899,"bumble":9900,"cret":9901,"cused":9902,"deep":9903,"flip":9904,"glass":9905,"hide":9906,"nuuw":9907,"pay":9908,"rip":9909,"vo":9910,"wish":9911,"worm":9912,"yley":9913,"Ã©":9914,"Ġtags":9915,"Ġachoo":9916,"Ġamen":9917,"inea":9918,"Ġsug":9919,"Ġsession":9920,"Ġtherm":9921,"ondon":9922,"Ġdin":9923,"Ġdutch":9924,"Ġcas":9925,"Ġcider":9926,"Ġlumpy":9927,"Ġmarm":9928,"Ġpy":9929,"Ġpose":9930,"erican":9931,"Ġfile":9932,"Ġheh":9933,"Ġtopping":9934,"Ġhittin":9935,"vey":9936,"uta":9937,"eezing":9938,"arant":9939,"Ġliver":9940,"Ġrag":9941,"uhz":9942,"Ġstates":9943,"itted":9944,"Ġwashin":9945,"dot":9946,"dokey":9947,"Ġplugs":9948,"Ġlooka":9949,"eaters":9950,"ĠMy":9951,"ĠMurphy":9952,"Ġspins":9953,"icka":9954,"Ġcliff":9955,"Ġfrisbee":9956,"ĠBeat":9957,"ĠDot":9958,"Ġneg":9959,"quet":9960,"ĠSalley":9961,"Ġblast":9962,"ctric":9963,"Ġtrad":9964,"uli":9965,"Ġneedles":9966,"ĠRice":9967,"ĠRiding":9968,"Ġmeaning":9969,"ĠJosh":9970,"Ġhopped":9971,"Ġcheers":9972,"Ġcheetah":9973,"goat":9974,"ĠNovember":9975,"saying":9976,"ĠTime":9977,"ĠPoo":9978,"ĠLand":9979,"ĠLove":9980,"Ġchallen":9981,"Ġcricket":9982,"ĠGo":9983,"Ġsewed":9984,"Ġhairy":9985,"Ġsmiles":9986,"ĠHank":9987,"Ġenc":9988,"endrika":9989,"Ġnah":9990,"ĠKen":9991,"Ġappeal":9992,"Ġfixes":9993,"Ġladders":9994,"Ġdiving":9995,"blah":9996,"Ġamong":9997,"Ġamerican":9998,"Ġteethies":9999,"spit":10000,"spread":10001,"Ġgrowl":10002,"psy":10003,"Ġknocks":10004,"Ġfocused":10005,"ĠOz":10006,"Ġgrave":10007,"ĠEricka":10008,"Ġbooboo":10009,"Ġhamper":10010,"Ġmicro":10011,"Ġsooner":10012,"ĠValentine":10013,"ĠMarissa":10014,"Ġmarching":10015,"Ġserved":10016,"chops":10017,"Ġmedium":10018,"Ġtights":10019,"Ġadjust":10020,"ĠBrittney":10021,"Ġpajama":10022,"ooshaboosh":10023,"ĠStef":10024,"Ġtriangles":10025,"turkeys":10026,"Ġextreme":10027,"Ġsucks":10028,"Ġharvest":10029,"Ġrepair":10030,"Ġruined":10031,"Ġhallway":10032,"beads":10033,"brother":10034,"Ġfifteenth":10035,"Ġcaves":10036,"numbers":10037,"ĠDeidre":10038,"Ġcontrols":10039,"Ġformula":10040,"Sammy":10041,"Ġeduc":10042,"yleys":10043,"mission":10044,"smells":10045,"Ġconstantly":10046,"ĠAbby":10047,"Ġexposed":10048,"twinkle":10049,"Ġgrilled":10050,"Ġcomplaining":10051,"ĠPrincess":10052,"puttaputta":10053,"Ġtransc":10054,"ĠChina":10055,"ĠDorothy":10056,"Ġhawk":10057,"Ġcube":10058,"ĠAidan":10059,"Ġbudleyley":10060,"Ġbudleyleys":10061,"ĠLois":10062,"towel":10063,"Ġweap":10064,"Ġidentify":10065,"Ġroses":10066,"Woody":10067,"pussy":10068,"ĠMassachusetts":10069,"Hailey":10070,"Ġbulb":10071,"Ġaspirin":10072,"ĠFixit":10073,"basketball":10074,"Ġinfant":10075,"Ġbeggars":10076,"Ġdisappointed":10077,"Ġpeoples":10078,"Ġroyal":10079,"Ġastrona":10080,"All":10081,"Ba":10082,"Buzz":10083,"Em":10084,"Goofy":10085,"Jim":10086,"Krystal":10087,"Lucas":10088,"Rwww":10089,"ais":10090,"bop":10091,"bag":10092,"dro":10093,"field":10094,"farmer":10095,"fleet":10096,"gull":10097,"giddyup":10098,"jelly":10099,"knack":10100,"lins":10101,"mam":10102,"oppy":10103,"pre":10104,"pock":10105,"sail":10106,"suta":10107,"tis":10108,"tight":10109,"tiny":10110,"uf":10111,"vac":10112,"wag":10113,"wyn":10114,"yu":10115,"Ġvest":10116,"hase":10117,"Ġaim":10118,"Ġwarn":10119,"Ġsan":10120,"Ġsill":10121,"anie":10122,"Ġgang":10123,"Ġgunk":10124,"Ġgather":10125,"Ġglory":10126,"ooga":10127,"Ġling":10128,"Ġmaid":10129,"Ġpau":10130,"Ġpairs":10131,"erie":10132,"Ġdope":10133,"ora":10134,"Ġinvent":10135,"Ġlivin":10136,"Ġrab":10137,"Ġrav":10138,"Ġrosie":10139,"adab":10140,"Ġstung":10141,"Ġstair":10142,"Ġrewind":10143,"Ġmelon":10144,"chug":10145,"Ġjunior":10146,"Ġupper":10147,"Ġshelves":10148,"thill":10149,"thump":10150,"urry":10151,"urope":10152,"ĠMade":10153,"ĠMolly":10154,"wney":10155,"cel":10156,"letters":10157,"Ġorang":10158,"ilts":10159,"Ġanyhow":10160,"Ġanytime":10161,"Ġovernight":10162,"epetto":10163,"ĠCou":10164,"ĠCor":10165,"ĠCait":10166,"aucet":10167,"Ġclues":10168,"Ġtipped":10169,"Ġhowever":10170,"ĠBry":10171,"ĠDoug":10172,"ĠDel":10173,"ques":10174,"Ġtrust":10175,"Ġasparagus":10176,"Ġages":10177,"ggin":10178,"Ġguest":10179,"ĠRosie":10180,"issi":10181,"Ġpublic":10182,"lest":10183,"ĠNint":10184,"ĠPar":10185,"Ġstuffing":10186,"Ġchasin":10187,"ĠFitt":10188,"ĠFuzzy":10189,"Ġscales":10190,"istle":10191,"Ġmouthful":10192,"Ġcrashing":10193,"ĠGammy":10194,"Ġsexy":10195,"Ġlead":10196,"Ġswitched":10197,"Ġuseful":10198,"Ġsmarter":10199,"ĠHi":10200,"ĠHeather":10201,"Ġpopping":10202,"acy":10203,"across":10204,"Ġnascar":10205,"Ġcheeseburger":10206,"ĠWay":10207,"ĠWild":10208,"Ġcares":10209,"Ġcoup":10210,"Ġslight":10211,"Ġclosely":10212,"Ġsnails":10213,"Ġdiv":10214,"shouldn":10215,"Ġaskin":10216,"Ġtasting":10217,"Ġdancers":10218,"eaky":10219,"Ġfarmers":10220,"Ġuncomfortable":10221,"Ġbangin":10222,"Ġbanged":10223,"Ġchews":10224,"holding":10225,"Ġbarrels":10226,"fection":10227,"Ġspeck":10228,"Ġtenth":10229,"Ġtenta":10230,"Ġacro":10231,"unted":10232,"Ġdrying":10233,"Ġgrassho":10234,"Ġstrainer":10235,"blueberries":10236,"Ġdumping":10237,"trash":10238,"Ġterm":10239,"comma":10240,"Ġcompass":10241,"Ġtwirl":10242,"duckies":10243,"Ġtypewr":10244,"Ġnurses":10245,"Ġchickies":10246,"Ġadv":10247,"Ġhundreds":10248,"swish":10249,"swallow":10250,"rrr":10251,"Ġcontent":10252,"Ġadding":10253,"Ġcrossed":10254,"Ġcrocodiles":10255,"Ġsqueaking":10256,"gency":10257,"Ġtripped":10258,"Ġplanted":10259,"Ġhearts":10260,"tomato":10261,"Ġbuzzing":10262,"Ġtearing":10263,"Ġfamilies":10264,"ĠLena":10265,"zero":10266,"dadadada":10267,"Ġhooks":10268,"Ġinterview":10269,"Ġselling":10270,"parrot":10271,"Ġloader":10272,"Ġteaspoon":10273,"ĠClaude":10274,"Ġtotal":10275,"Ġstudying":10276,"Ġshadows":10277,"ĠDecember":10278,"Ġbills":10279,"Ġconnection":10280,"Ġconsider":10281,"ĊĠĠĠ":10282,"crayon":10283,"couple":10284,"ĠQuinn":10285,"Ġconcert":10286,"bubble":10287,"mickey":10288,"bacon":10289,"ĠBabar":10290,"Ġrespons":10291,"Georgie":10292,"Ġdevelopment":10293,"Ġmidnight":10294,"Ġeventually":10295,"Ġappetite":10296,"Ġprepare":10297,"Ġoriginal":10298,"crying":10299,"surprise":10300,"Ġpropeller":10301,"violet":10302,"Ġprivate":10303,"certainly":10304,"Ġtitle":10305,"unxsuta":10306,"ĠWellfleet":10307,"Ġmystery":10308,"ĠFlintstones":10309,"Ġintelligent":10310,"Ġfantasy":10311,"Ġprograms":10312,"fishies":10313,"moomilk":10314,"parents":10315,"ĠNintendo":10316,"Damian":10317,"Gay":10318,"Jan":10319,"King":10320,"Meg":10321,"Noah":10322,"Re":10323,"Rabbit":10324,"Squ":10325,"Sophie":10326,"Tuesday":10327,"bak":10328,"cone":10329,"dep":10330,"dish":10331,"gently":10332,"gaga":10333,"hook":10334,"izzie":10335,"joe":10336,"mint":10337,"phan":10338,"suck":10339,"sies":10340,"tall":10341,"tons":10342,"tiest":10343,"women":10344,"Ġtuh":10345,"Ġtour":10346,"hare":10347,"Ġay":10348,"Ġwound":10349,"Ġwins":10350,"onto":10351,"Ġbure":10352,"Ġcoor":10353,"Ġcate":10354,"Ġcudd":10355,"Ġliter":10356,"Ġmitten":10357,"Ġport":10358,"Ġfab":10359,"Ġthur":10360,"etta":10361,"etro":10362,"Ġheavier":10363,"ution":10364,"nake":10365,"stalk":10366,"Ġiss":10367,"icer":10368,"Ġrushing":10369,"irie":10370,"ades":10371,"Ġnovel":10372,"ashy":10373,"Ġbehav":10374,"means":10375,"Ġnib":10376,"Ġups":10377,"usters":10378,"ĠMiles":10379,"lymp":10380,"Ġbookshe":10381,"berly":10382,"Ġmakeup":10383,"Ġcarpen":10384,"ĠDale":10385,"ĠDinky":10386,"ĠDenn":10387,"Ġoffered":10388,"ĠSela":10389,"upty":10390,"essor":10391,"Ġdries":10392,"Ġbuys":10393,"ĠAgra":10394,"Ġguinea":10395,"ĠJordan":10396,"Ġhoppity":10397,"Ġflute":10398,"issie":10399,"ĠTweet":10400,"ĠTrain":10401,"ĠTitus":10402,"ĠLeah":10403,"Ġshots":10404,"shield":10405,"Ġgreasy":10406,"Ġtheirs":10407,"aurus":10408,"dern":10409,"obber":10410,"ossible":10411,"Ġpicky":10412,"Ġpickup":10413,"Ġsmashed":10414,"ĠEllen":10415,"ĠEleanor":10416,"Ġexha":10417,"Ġexcl":10418,"Ġpox":10419,"Ġsweety":10420,"ĠKris":10421,"ĠWanda":10422,"Ġappear":10423,"Ġappoint":10424,"clos":10425,"Ġdrawings":10426,"Ġbadge":10427,"Ġcleanin":10428,"Ġsnapped":10429,"Ġmustn":10430,"Ġstandard":10431,"uba":10432,"ontosaurus":10433,"Ġfella":10434,"brr":10435,"Ġowlets":10436,"udud":10437,"washing":10438,"asey":10439,"Ġunlo":10440,"Ġtreats":10441,"ebasket":10442,"ebbles":10443,"Ġprint":10444,"Ġbrownies":10445,"monkeys":10446,"ĠGrandmother":10447,"ĠVirginia":10448,"fourteen":10449,"crab":10450,"Ġattic":10451,"syl":10452,"Ġribbons":10453,"fishie":10454,"Ġwhaddya":10455,"iggly":10456,"Ġtighter":10457,"Ġdreaming":10458,"Ġadmit":10459,"switch":10460,"Ġwoah":10461,"drinking":10462,"Ġburner":10463,"Ġlifted":10464,"sticks":10465,"sticky":10466,"ruct":10467,"prints":10468,"smile":10469,"Ġconfusing":10470,"Ġnecklaces":10471,"alentines":10472,"started":10473,"Ġrobin":10474,"Ġbabysitter":10475,"Ġspraying":10476,"bananas":10477,"ĠChucky":10478,"Ġauntie":10479,"Ġwiggly":10480,"Ġbandaids":10481,"running":10482,"ĠElana":10483,"Ġpussycat":10484,"Ġsilo":10485,"Ġhugged":10486,"Ġrespect":10487,"rubber":10488,"Ġhunting":10489,"Ġscratches":10490,"peaches":10491,"painting":10492,"Ġspoil":10493,"ĠIsabel":10494,"ĠKimberly":10495,"stuffed":10496,"ĠMalik":10497,"Ġmammal":10498,"Ġsprinkler":10499,"Ġcuz":10500,"Ġhyraxes":10501,"dolphin":10502,"pictures":10503,"vril":10504,"nineteen":10505,"ĠCambridge":10506,"Ġholler":10507,"muffin":10508,"gressive":10509,"ĠChewbacca":10510,"Ġraspberry":10511,"whisper":10512,"Ġstatue":10513,"Ġelectronics":10514,"pasta":10515,"ĠEsther":10516,"ĠGranma":10517,"ĠHolland":10518,"Ġmarmalade":10519,"wynnie":10520,"unxsutawney":10521,"Betty":10522,"Gr":10523,"Jeff":10524,"Seth":10525,"Scarlett":10526,"Terry":10527,"Urs":10528,"Victor":10529,"Whin":10530,"Wars":10531,"buck":10532,"been":10533,"boots":10534,"crow":10535,"cular":10536,"clip":10537,"dig":10538,"dark":10539,"double":10540,"gwww":10541,"grow":10542,"gross":10543,"grand":10544,"gulp":10545,"ij":10546,"ox":10547,"pres":10548,"riding":10549,"rical":10550,"uds":10551,"war":10552,"wrap":10553,"ydan":10554,"Ġeasel":10555,"Ġtack":10556,"Ġtwent":10557,"hest":10558,"halle":10559,"Ġado":10560,"Ġaud":10561,"Ġwander":10562,"Ġthee":10563,"itious":10564,"Ġdude":10565,"Ġchat":10566,"ooom":10567,"Ġlor":10568,"Ġloop":10569,"Ġpout":10570,"Ġpoops":10571,"eto":10572,"etti":10573,"Ġtodd":10574,"Ġgoal":10575,"Ġgown":10576,"Ġinj":10577,"idges":10578,"ooky":10579,"nado":10580,"atin":10581,"Ġrum":10582,"Ġbecomes":10583,"hol":10584,"weren":10585,"alia":10586,"Ġlookit":10587,"uroy":10588,"Ġsomewhat":10589,"ĠMag":10590,"ĠMeg":10591,"ĠMootie":10592,"ille":10593,"Ġyoyo":10594,"hio":10595,"hibit":10596,"rase":10597,"Ġspy":10598,"Ġspilt":10599,"ilot":10600,"Ġcoach":10601,"Ġcolt":10602,"ures":10603,"ĠCur":10604,"ĠCasey":10605,"Ġclaw":10606,"ĠBra":10607,"ĠBud":10608,"ĠDu":10609,"ĠDoo":10610,"Ġpred":10611,"eedee":10612,"Ġshred":10613,"ctar":10614,"Ġtrim":10615,"Ġprettiest":10616,"ulate":10617,"ulars":10618,"Ġtwos":10619,"Ġbuff":10620,"Ġcomfort":10621,"ĠAoife":10622,"ĠAvril":10623,"liers":10624,"Ġguests":10625,"uffet":10626,"Ġmanners":10627,"umps":10628,"Ġlover":10629,"Ġhandy":10630,"Ġhoe":10631,"Ġusin":10632,"amel":10633,"ĠTrevor":10634,"ĠPwww":10635,"ĠPac":10636,"ĠPol":10637,"ĠPenny":10638,"Ġscall":10639,"shit":10640,"Ġgrind":10641,"Ġsele":10642,"ĠEurope":10643,"Ġbattle":10644,"ipes":10645,"Ġhatch":10646,"Ġnewborn":10647,"Ġkiddin":10648,"Ġhardest":10649,"Ġteaches":10650,"ĠWils":10651,"Ġslid":10652,"Ġsuits":10653,"Ġsqueal":10654,"Ġsquished":10655,"Ġcleans":10656,"Ġpretended":10657,"Ġmovement":10658,"Ġfireworks":10659,"Ġwindshield":10660,"spots":10661,"Ġunic":10662,"Ġcounts":10663,"scared":10664,"Ġfastest":10665,"Ġrainin":10666,"guy":10667,"cycles":10668,"ĠOr":10669,"Ġgrandfather":10670,"Ġgrain":10671,"Ġcracking":10672,"bury":10673,"ĠChristina":10674,"leaf":10675,"Ġveggies":10676,"Ġhalfway":10677,"Ġcheckin":10678,"heehaw":10679,"Ġimpress":10680,"Ġsplashed":10681,"Ġtoasted":10682,"Ġdescr":10683,"throwing":10684,"Ġpills":10685,"Ġfifties":10686,"Ġkicks":10687,"Ġfightin":10688,"Ġfighter":10689,"Ġseriously":10690,"Ġengaged":10691,"Ġraft":10692,"Ġnearby":10693,"Ġhammering":10694,"ĠCharles":10695,"Ġtractors":10696,"ĠZoo":10697,"erced":10698,"lollipop":10699,"Ġteena":10700,"Ġcolander":10701,"Ġdelivering":10702,"Ġfloats":10703,"Ġsells":10704,"Ġlarger":10705,"strange":10706,"Ġcopying":10707,"Ġloads":10708,"broke":10709,"googoo":10710,"Ġtornado":10711,"ĠMacWhin":10712,"ĠShana":10713,"ĠShayla":10714,"ĠGreen":10715,"Ġhooves":10716,"vania":10717,"ĠBlue":10718,"Ġprayer":10719,"rettes":10720,"achary":10721,"Ġsweeping":10722,"dodododo":10723,"Ġsparkly":10724,"peacock":10725,"icole":10726,"Investigator":10727,"garbage":10728,"Ġfascinating":10729,"Ġseventies":10730,"twist":10731,"Ġcellar":10732,"magic":10733,"supper":10734,"Ġavoid":10735,"Ġactivities":10736,"Ġdelight":10737,"Ġmelts":10738,"Ġmechanic":10739,"Ġracket":10740,"ĠFrancisco":10741,"Ġargument":10742,"ninety":10743,"ĠPeanuts":10744,"Ġreflection":10745,"sense":10746,"ĠTurtle":10747,"Ġpompoms":10748,"Ġsherbet":10749,"ĠLauren":10750,"Ġscribble":10751,"Ġintroduced":10752,"Ġutensils":10753,"Ġweeds":10754,"ĠJoyce":10755,"yogurt":10756,"Ġsmilin":10757,"cootchykoo":10758,"Ġmajor":10759,"ĠTrailor":10760,"Ġastronaut":10761,"Ġtypewriter":10762,"Ġbureau":10763,"sylvania":10764,"ĠWilson":10765,"Barry":10766,"Da":10767,"Dor":10768,"Dakota":10769,"Darth":10770,"Linda":10771,"Lucy":10772,"Sl":10773,"Th":10774,"Tr":10775,"Wes":10776,"Zack":10777,"amy":10778,"best":10779,"buddy":10780,"cough":10781,"cella":10782,"danger":10783,"fus":10784,"gas":10785,"hugs":10786,"izz":10787,"kitten":10788,"ketchup":10789,"lif":10790,"mid":10791,"makin":10792,"near":10793,"nets":10794,"nibble":10795,"panda":10796,"pushing":10797,"pliers":10798,"uate":10799,"Ġtalent":10800,"Ġtesting":10801,"heit":10802,"heim":10803,"rey":10804,"ini":10805,"Ġwest":10806,"Ġsizes":10807,"itor":10808,"Ġdue":10809,"Ġgay":10810,"ism":10811,"Ġcoop":10812,"ooo":10813,"lls":10814,"Ġlun":10815,"Ġlatch":10816,"Ġlitter":10817,"Ġleng":10818,"Ġmi":10819,"eron":10820,"Ġfeat":10821,"Ġfest":10822,"Ġfond":10823,"Ġfever":10824,"Ġfaucet":10825,"Ġole":10826,"Ġome":10827,"Ġopin":10828,"Ġoval":10829,"Ġhell":10830,"Ġhehehe":10831,"Ġhaul":10832,"whatchu":10833,"leno":10834,"igo":10835,"Ġinfection":10836,"nam":10837,"nasty":10838,"arrr":10839,"Ġlily":10840,"Ġlikely":10841,"Ġrah":10842,"irp":10843,"asked":10844,"Ġstall":10845,"Ġstare":10846,"Ġcanal":10847,"welf":10848,"webs":10849,"alerie":10850,"iece":10851,"ieves":10852,"umum":10853,"Ġanthill":10854,"oto":10855,"illas":10856,"abye":10857,"Ġplayground":10858,"Ġspi":10859,"Ġspear":10860,"Ġspike":10861,"Ġcozy":10862,"ĠCol":10863,"ĠCuddly":10864,"ĠBrook":10865,"ĠBuster":10866,"aple":10867,"ĠDee":10868,"ĠDetro":10869,"ĠSl":10870,"Ġblown":10871,"mmkay":10872,"Ġarrows":10873,"Ġagre":10874,"ĠRose":10875,"ĠRicky":10876,"Ġhandles":10877,"Ġflush":10878,"ĠNola":10879,"ĠTig":10880,"ĠPhilip":10881,"ĠPebbles":10882,"ĠLuc":10883,"ĠLucas":10884,"ĠFre":10885,"ĠFlip":10886,"ĠFamily":10887,"ĠFisher":10888,"Ġscold":10889,"Ġscorp":10890,"tures":10891,"ardess":10892,"oughtoh":10893,"cocoa":10894,"ĠGepetto":10895,"Ġlegged":10896,"ĠHon":10897,"Ġvalley":10898,"ĠEmmitt":10899,"assy":10900,"Ġfinishing":10901,"Ġexhibit":10902,"aca":10903,"awawa":10904,"ĠKid":10905,"Ġtrap":10906,"Ġpotent":10907,"Ġpretends":10908,"Ġrecital":10909,"Ġstruct":10910,"Ġpenis":10911,"Ġdreamed":10912,"ibility":10913,"Ġhike":10914,"Ġwinding":10915,"Ġlunchbox":10916,"undheit":10917,"Ġrollin":10918,"Ġgreatest":10919,"oland":10920,"ilyn":10921,"Ġeyeball":10922,"Ġbarber":10923,"Ġbarrettes":10924,"ĠOne":10925,"Ġbrownish":10926,"ansas":10927,"pretz":10928,"everytime":10929,"Ġhamsters":10930,"least":10931,"Ġquieter":10932,"Ġseagull":10933,"Ġsaddle":10934,"ĠVader":10935,"umbles":10936,"Ġbounced":10937,"Ġsurprises":10938,"Ġforgetting":10939,"ĠStrikes":10940,"trick":10941,"comin":10942,"Ġengines":10943,"Ġkingdom":10944,"Ġbucks":10945,"ĠSpinner":10946,"ĠSpike":10947,"ĠSponge":10948,"Ġobvious":10949,"ucson":10950,"Ġsurround":10951,"stayed":10952,"Ġburied":10953,"Ġquarterback":10954,"quickly":10955,"ĠBooboon":10956,"Ġhippos":10957,"Ġhippity":10958,"potato":10959,"Ġradi":10960,"Ġlaughs":10961,"abriel":10962,"Ġgodmother":10963,"Ġpassing":10964,"Ġsleigh":10965,"needs":10966,"Ġkittys":10967,"Ġhyp":10968,"ĠChick":10969,"Ġundone":10970,"Ġironing":10971,"Ġskiing":10972,"Ġattacked":10973,"ĠTyrese":10974,"Ġpunching":10975,"Ġpositive":10976,"Ġpalm":10977,"skim":10978,"Ġcrowd":10979,"batter":10980,"Ġloses":10981,"Jackie":10982,"xygen":10983,"Ġgallon":10984,"Ġsubject":10985,"ĠGermany":10986,"Ġaxe":10987,"inoculars":10988,"ĠReese":10989,"ĠPepper":10990,"Ġimpossible":10991,"Ġpoisonous":10992,"Ġinsect":10993,"Booboo":10994,"blankie":10995,"magnets":10996,"onnor":10997,"Ġtransport":10998,"Ġtummies":10999,"rattle":11000,"Ġcooperate":11001,"Ġeffort":11002,"ĠOreo":11003,"ĠAiden":11004,"Clifford":11005,"shark":11006,"Piglet":11007,"macaroni":11008,"Ġcrispy":11009,"Ġfolk":11010,"Ġfolks":11011,"Ġthrill":11012,"ĠHoward":11013,"Ġbalancing":11014,"Ġaffect":11015,"Ġsensit":11016,"Ġpleasure":11017,"ĠBalooga":11018,"Ġmarshmallows":11019,"Moomooshas":11020,"ĠMillisandy":11021,"Ġchowder":11022,"Ġtoenails":11023,"Ġprincipal":11024,"Ġtangled":11025,"ĠYoda":11026,"chtime":11027,"Ġemergency":11028,"Cheerios":11029,"ĠPennsylvania":11030,"Ġnarrow":11031,"Ġsurvive":11032,"Ġextremely":11033,"depends":11034,"Ġthursday":11035,"Ġbehavior":11036,"Ġappointment":11037,"ĠPoliceman":11038,"Ġlength":11039,"welfth":11040,"ĠDetroit":11041,"Ab":11042,"Bl":11043,"Go":11044,"Lin":11045,"Lind":11046,"Mikey":11047,"Olivia":11048,"Peekaboo":11049,"Sher":11050,"Theresa":11051,"aha":11052,"cont":11053,"gosaurus":11054,"iate":11055,"ired":11056,"kk":11057,"lou":11058,"lower":11059,"mash":11060,"mwah":11061,"opp":11062,"pigg":11063,"roof":11064,"sittin":11065,"tan":11066,"tor":11067,"tic":11068,"wl":11069,"wing":11070,"winkle":11071,"zona":11072,"Ġtide":11073,"rely":11074,"inters":11075,"Ġwah":11076,"Ġwinning":11077,"Ġswell":11078,"Ġsuff":11079,"Ġsesame":11080,"onzo":11081,"Ġdelic":11082,"Ġgag":11083,"Ġcrew":11084,"Ġloo":11085,"Ġlumber":11086,"Ġlaces":11087,"Ġlined":11088,"Ġmower":11089,"ayla":11090,"Ġfem":11091,"Ġhaunted":11092,"nail":11093,"stool":11094,"Ġlies":11095,"Ġdonkeys":11096,"ascar":11097,"Ġwashes":11098,"thirsty":11099,"Ġankle":11100,"ĠMoe":11101,"Ġsoggy":11102,"Ġsoaked":11103,"thern":11104,"Ġyuh":11105,"lookin":11106,"hire":11107,"raph":11108,"Ġbob":11109,"Ġbobby":11110,"Ġspir":11111,"amil":11112,"bend":11113,"Ġbacking":11114,"ĠClaire":11115,"Ġfried":11116,"Ġties":11117,"Ġtips":11118,"ĠDrew":11119,"Ġnectar":11120,"iesel":11121,"Ġpressed":11122,"artoon":11123,"ĠSu":11124,"ĠSal":11125,"Ġbleach":11126,"essions":11127,"Ġtruly":11128,"ulary":11129,"puttin":11130,"ĠRory":11131,"ĠRog":11132,"ĠRuth":11133,"Ġmans":11134,"Ġmanip":11135,"ĠJake":11136,"Ġturnips":11137,"Ġflam":11138,"Ġwatercolors":11139,"ĠNaila":11140,"ĠTheresa":11141,"ĠTunde":11142,"ĠTucson":11143,"ĠPee":11144,"ĠPoke":11145,"ĠPres":11146,"ĠPaula":11147,"ĠLi":11148,"Ġshared":11149,"ĠFer":11150,"ĠFri":11151,"Ġscrap":11152,"Ġcrink":11153,"Ġsewer":11154,"Ġleather":11155,"tsk":11156,"oby":11157,"Ġshown":11158,"nez":11159,"Ġdrinkie":11160,"Ġsmash":11161,"Ġval":11162,"Ġvalentines":11163,"ĠEx":11164,"Ġsleeper":11165,"Ġfinishes":11166,"Ġhurried":11167,"Ġpoked":11168,"Ġnaming":11169,"riot":11170,"maid":11171,"Ġchu":11172,"Ġchomp":11173,"ĠKiki":11174,"ĠWonder":11175,"Ġearn":11176,"Ġslurp":11177,"Ġslower":11178,"Ġslacks":11179,"Ġbeauty":11180,"shaky":11181,"Ġchoking":11182,"Ġsnat":11183,"Ġskim":11184,"Ġcreamer":11185,"Ġfishin":11186,"achi":11187,"antic":11188,"Ġwindmill":11189,"Ġsales":11190,"Ġunfortunately":11191,"Ġcools":11192,"orton":11193,"olk":11194,"peror":11195,"sometime":11196,"Ġsoftball":11197,"Ġeyelas":11198,"ĠOkay":11199,"ĠOhio":11200,"Ġgrandmas":11201,"Ġawoh":11202,"Ġblowin":11203,"Ġmissus":11204,"Ġsnugg":11205,"Ġsneezed":11206,"Ġclosest":11207,"Ġnecks":11208,"Ġsharpen":11209,"Ġspills":11210,"orduroy":11211,"Ġpaste":11212,"Ġpasture":11213,"Ġranch":11214,"Ġspotted":11215,"Ġvegetarian":11216,"Ġreminded":11217,"harder":11218,"blueberry":11219,"Ġvisits":11220,"Ġterribly":11221,"Ġbubba":11222,"comp":11223,"Ġrivers":11224,"Ġrats":11225,"Ġyellin":11226,"Ġcheerios":11227,"Ġbibbie":11228,"Ġjoey":11229,"ĠZo":11230,"Ġeast":11231,"ricket":11232,"Ġhills":11233,"Ġchinch":11234,"cooking":11235,"taptap":11236,"Ġhaystack":11237,"Ġpopsicles":11238,"Ġgenerous":11239,"Ġugh":11240,"snakes":11241,"itamin":11242,"Ġbunnys":11243,"Ġcops":11244,"Joanna":11245,"salad":11246,"Ġflavored":11247,"Ġwrecked":11248,"ĠWills":11249,"Ġbending":11250,"Ġunders":11251,"ĠCoco":11252,"rainbow":11253,"rocks":11254,"Ġporkchop":11255,"Ġstealing":11256,"Ġseasons":11257,"ĠLouie":11258,"ĠLouise":11259,"Ġgorgeous":11260,"ĠBlanche":11261,"Ġcontainers":11262,"Ġcrows":11263,"Ġdamage":11264,"Ġeels":11265,"Ġtucked":11266,"Ġstewardess":11267,"ĠNanette":11268,"Ġblend":11269,"Ġborrowed":11270,"ĠEmmy":11271,"Ġpuffed":11272,"Ġautom":11273,"ĠCape":11274,"Ġbeetle":11275,"Ġbarefoot":11276,"ĠLynn":11277,"Ġrespond":11278,"Cathy":11279,"sandw":11280,"Ġphrase":11281,"ĠDora":11282,"ĠLexie":11283,"Ġwrinkly":11284,"ĠUnited":11285,"crocodile":11286,"Ġcooperative":11287,"ĠMeij":11288,"Nanette":11289,"napkin":11290,"Ġnutritious":11291,"ĠRudolf":11292,"Bobo":11293,"Isabelle":11294,"Ġhollering":11295,"Ġsettled":11296,"Amira":11297,"Ġencourage":11298,"Ġcassette":11299,"Diandra":11300,"raisins":11301,"Ġbinkie":11302,"lleyball":11303,"stretch":11304,"Potato":11305,"kitties":11306,"Ġprofessional":11307,"Ġtantrum":11308,"Ġgrampa":11309,"imagine":11310,"Swiss":11311,"pocket":11312,"Ġtentacles":11313,"Ġtoddler":11314,"Ġbuffalo":11315,"Ġunicorn":11316,"ĠMacWhinney":11317,"Ġlunchtime":11318,"Ġopinion":11319,"Ġeyelashes":11320,"Amer":11321,"Aaron":11322,"Debbie":11323,"Fred":11324,"Hood":11325,"Jilly":11326,"Kim":11327,"Lou":11328,"Nicky":11329,"Te":11330,"aches":11331,"bars":11332,"coh":11333,"dar":11334,"dles":11335,"dub":11336,"dibble":11337,"gory":11338,"hickory":11339,"liest":11340,"phi":11341,"peach":11342,"ser":11343,"tear":11344,"vas":11345,"zor":11346,"ĠX":11347,"Ġtone":11348,"Ġtart":11349,"hel":11350,"Ġashes":11351,"relax":11352,"inah":11353,"Ġsucky":11354,"Ġsissy":11355,"Ġsearch":11356,"Ġsessions":11357,"ito":11358,"Ġbummer":11359,"Ġgem":11360,"Ġgiddy":11361,"Ġcyl":11362,"Ġlane":11363,"Ġmor":11364,"Ġmug":11365,"Ġpits":11366,"Ġponds":11367,"Ġitem":11368,"Ġfea":11369,"Ġthy":11370,"sem":11371,"lene":11372,"Ġinfl":11373,"Ġinvest":11374,"story":11375,"Ġwedge":11376,"arrow":11377,"owls":11378,"Ġlime":11379,"atory":11380,"omegran":11381,"andom":11382,"Ġrate":11383,"Ġraces":11384,"irling":11385,"Ġene":11386,"verage":11387,"alm":11388,"Ġareas":11389,"Ġnu":11390,"ench":11391,"eded":11392,"Ġjersey":11393,"imate":11394,"imple":11395,"Ġplat":11396,"uncan":11397,"otive":11398,"Ġouter":11399,"ĠMin":11400,"terrible":11401,"Ġgoodies":11402,"however":11403,"Ġbabye":11404,"whoever":11405,"hilda":11406,"celia":11407,"Ġspice":11408,"Ġspaghet":11409,"amps":11410,"Ġbackward":11411,"Ġcoast":11412,"Ġcoaster":11413,"ager":11414,"type":11415,"ĠCrystal":11416,"Ġcarving":11417,"ĠSleep":11418,"upsa":11419,"Ġshishi":11420,"Ġtrump":11421,"Ġmoth":11422,"Ġarch":11423,"boink":11424,"angry":11425,"Ġcomic":11426,"Ġcomment":11427,"likes":11428,"ĠRea":11429,"ĠRich":11430,"lorado":11431,"Ġholy":11432,"Ġflames":11433,"Ġbrontosaurus":11434,"reading":11435,"ĠTam":11436,"ĠPumpkin":11437,"ĠLass":11438,"Ġquilt":11439,"ĠGret":11440,"Ġleot":11441,"Ġsex":11442,"Ġworker":11443,"Ġswords":11444,"Ġopener":11445,"ĠHead":11446,"ĠHuey":11447,"Ġvoom":11448,"ĠMarkie":11449,"ouchie":11450,"achael":11451,"Ġfunn":11452,"Ġdaddys":11453,"ĠKanga":11454,"tier":11455,"Ġslick":11456,"Ġbeam":11457,"Ġdey":11458,"Ġdeli":11459,"Ġbringin":11460,"Ġglued":11461,"Ġbathie":11462,"Ġdraws":11463,"Ġsqueezed":11464,"Ġjobs":11465,"fork":11466,"Ġbadly":11467,"Ġbadada":11468,"Ġsnapping":11469,"Ġskill":11470,"Ġpanther":11471,"somehow":11472,"front":11473,"Ġbelts":11474,"Ġunbutton":11475,"damn":11476,"Ġzoos":11477,"Ġsockies":11478,"Ġlistenin":11479,"Ġnaps":11480,"yai":11481,"Ġfasten":11482,"Ġmeatball":11483,"Ġsunset":11484,"Ġsunburn":11485,"ĠOn":11486,"Ġpersonal":11487,"Ġbooth":11488,"Ġsmelly":11489,"Ġpurr":11490,"Ġaccess":11491,"Ġbumping":11492,"Ġimpro":11493,"Ġsplinters":11494,"ĠMathilda":11495,"cran":11496,"ĠChildren":11497,"prob":11498,"ĠStates":11499,"medicine":11500,"Ġlands":11501,"ribing":11502,"Ġbodybuild":11503,"Ġslipping":11504,"Brother":11505,"comotive":11506,"Ġmagnetized":11507,"ĠJenko":11508,"Ġnutcracker":11509,"angerine":11510,"sland":11511,"Ġstacks":11512,"Ġvocab":11513,"ĠBrad":11514,"Ġcapture":11515,"Ġstegosaurus":11516,"Ġtusk":11517,"Ġbeater":11518,"Ġbarks":11519,"Ġhumming":11520,"Animals":11521,"Ġburgers":11522,"ĊĊĊĊĊĊĊĊĊĊĊĊĊĊĊĊ":11523,"built":11524,"Ġsneaking":11525,"Ġimagin":11526,"Ġburped":11527,"Ġdepending":11528,"arfield":11529,"horses":11530,"ĠArlo":11531,"Ġexplained":11532,"Ġloosen":11533,"Ġundress":11534,"Ġhighest":11535,"Ġcollecting":11536,"skunk":11537,"Ġexpected":11538,"Ġbuns":11539,"ĠJiminy":11540,"Ġwalnuts":11541,"Ġdesigns":11542,"snowman":11543,"Ġassociated":11544,"Missus":11545,"Vasie":11546,"bizz":11547,"Ġautumn":11548,"Ġfrying":11549,"Ġpatterns":11550,"ĠBabe":11551,"Ġweighs":11552,"Ġverbal":11553,"ĠHailey":11554,"Ġwrinkled":11555,"ĠFozzie":11556,"scratchy":11557,"ĠMeike":11558,"Ġnonsense":11559,"dolph":11560,"Nancy":11561,"Ġsupport":11562,"Ġwasting":11563,"Ġwastebasket":11564,"Keisha":11565,"Ġdefense":11566,"Ġdestroyed":11567,"yikes":11568,"Ġdevast":11569,"ĠCelia":11570,"Aiden":11571,"Ġtumbled":11572,"ĠAladar":11573,"Ġroosters":11574,"Carey":11575,"Malcolm":11576,"ĠSimon":11577,"Ġsuccess":11578,"measuring":11579,"keleton":11580,"Ġmurder":11581,"Ġjuggling":11582,"Ġunplug":11583,"rassed":11584,"Ġembarrassed":11585,"Ġthermometer":11586,"Ġappealing":11587,"Baebae":11588,"vacuum":11589,"ĠBrycie":11590,"Ġexhausted":11591,"ĠKrista":11592,"ercedes":11593,"Ġradiator":11594,"cohol":11595,"Bears":11596,"Ex":11597,"Fat":11598,"Guy":11599,"Lilly":11600,"Lisa":11601,"Lewis":11602,"Miles":11603,"Mootie":11604,"One":11605,"Pet":11606,"Piper":11607,"Rex":11608,"Roy":11609,"Wednesday":11610,"Washington":11611,"York":11612,"ax":11613,"bom":11614,"bones":11615,"busters":11616,"cond":11617,"cmere":11618,"cartoon":11619,"das":11620,"dra":11621,"ev":11622,"fake":11623,"hoot":11624,"mice":11625,"mirror":11626,"mlins":11627,"nan":11628,"por":11629,"pher":11630,"teach":11631,"voom":11632,"yoohoo":11633,"Ġera":11634,"Ġtid":11635,"Ġtal":11636,"Ġtul":11637,"Ġtuesday":11638,"Ġtwelfth":11639,"oudy":11640,"oubles":11641,"Ġwack":11642,"Ġsig":11643,"Ġdah":11644,"Ġbitter":11645,"Ġcul":11646,"Ġlugg":11647,"Ġlunches":11648,"Ġfoss":11649,"Ġferry":11650,"Ġfero":11651,"Ġore":11652,"eable":11653,"Ġdom":11654,"omer":11655,"ompa":11656,"Ġhides":11657,"orth":11658,"uture":11659,"eee":11660,"nate":11661,"Ġkites":11662,"owow":11663,"Ġrul":11664,"Ġrise":11665,"Ġrandom":11666,"iring":11667,"irley":11668,"Ġnosy":11669,"asmine":11670,"inking":11671,"Ġsty":11672,"Ġstump":11673,"Ġret":11674,"Ġreview":11675,"Ġcantal":11676,"abor":11677,"ielle":11678,"chil":11679,"chips":11680,"thm":11681,"ims":11682,"oulder":11683,"Ġplush":11684,"Ġanc":11685,"Ġnoteb":11686,"unfortunately":11687,"ifty":11688,"ppop":11689,"roast":11690,"Ġabo":11691,"Ġabsor":11692,"hia":11693,"raine":11694,"rage":11695,"usion":11696,"lette":11697,"letubby":11698,"Ġspoke":11699,"opsy":11700,"ilver":11701,"Ġanyplace":11702,"agl":11703,"ĠCow":11704,"ĠCwww":11705,"berty":11706,"Ġelastic":11707,"Ġtile":11708,"Ġaltogether":11709,"Ġalien":11710,"Ġalcohol":11711,"ĠBus":11712,"ĠBush":11713,"ĠBland":11714,"Ġcaramel":11715,"quo":11716,"ĠSummer":11717,"ĠSaint":11718,"ctur":11719,"osal":11720,"Ġtroubles":11721,"Ġmold":11722,"nament":11723,"bob":11724,"Ġdroo":11725,"ĠAimee":11726,"Ġguarant":11727,"ĠRover":11728,"ĠJose":11729,"ĠJunior":11730,"ĠJesse":11731,"Ġlolly":11732,"Ġlocomotive":11733,"Ġhandful":11734,"Ġhandker":11735,"pend":11736,"ĠTramp":11737,"ĠLondon":11738,"sidered":11739,"ĠFall":11740,"ĠFiddler":11741,"ĠFizzie":11742,"Ġscore":11743,"Ġshocked":11744,"Ġshoppin":11745,"Ġquart":11746,"plop":11747,"plates":11748,"Ġcrush":11749,"Ġlever":11750,"obot":11751,"Ġswear":11752,"nem":11753,"Ġunderoos":11754,"Ġnightie":11755,"ĠHook":11756,"ĠEast":11757,"Ġfins":11758,"Ġfinal":11759,"ended":11760,"Ġthoughts":11761,"acle":11762,"Ġnation":11763,"Ġpartner":11764,"Ġchute":11765,"Ġcourage":11766,"tile":11767,"Ġcutest":11768,"avor":11769,"clud":11770,"Ġsketch":11771,"achute":11772,"lotion":11773,"Ġamphi":11774,"Ġparake":11775,"Ġidiot":11776,"explain":11777,"space":11778,"sposta":11779,"Ġplacemat":11780,"booshas":11781,"Ġlearns":11782,"Ġgonegone":11783,"Ġconvin":11784,"Ġcontact":11785,"Ġconsidered":11786,"ĠFriend":11787,"Ġeasiest":11788,"Ġbarbie":11789,"Ġawright":11790,"Ġapolog":11791,"Ġlays":11792,"Ġacorn":11793,"ording":11794,"peeka":11795,"aldy":11796,"Ġpinched":11797,"Ġturtleneck":11798,"ĠMarcella":11799,"Ġperfor":11800,"Ġcarryin":11801,"Ġgardening":11802,"Ġmotorcycles":11803,"Ġcompet":11804,"Ġlambs":11805,"iggled":11806,"icycles":11807,"Ġrazor":11808,"sworth":11809,"Ġfisher":11810,"squish":11811,"Ġbrakes":11812,"ĠAlissa":11813,"Ġsealie":11814,"Marilyn":11815,"Ġbury":11816,"ĠPatricia":11817,"Ġindoor":11818,"Ġblessing":11819,"ĠJackson":11820,"ivid":11821,"Ġsending":11822,"cleaning":11823,"Ġcobwebs":11824,"Ġpassy":11825,"ĠMcGregor":11826,"whel":11827,"Ġallowance":11828,"snack":11829,"Ġsurface":11830,"Ġflavors":11831,"Ġspringtime":11832,"splat":11833,"ĠTimon":11834,"ĠWillie":11835,"pancakes":11836,"Ġstinker":11837,"fireman":11838,"Ġpads":11839,"ĠCody":11840,"Ġjewels":11841,"ĠMacDonald":11842,"Ġraccoons":11843,"Ġeighteenth":11844,"ervation":11845,"Ġstudio":11846,"Ġpounding":11847,"jacket":11848,"window":11849,"ĠMcDonalds":11850,"Ġbomb":11851,"Ġsolve":11852,"ĠKeisha":11853,"Ġcheatin":11854,"ladybug":11855,"Ġholidays":11856,"ĠArizona":11857,"Ġignoring":11858,"Ġattracted":11859,"Ġpedal":11860,"police":11861,"Ġcondition":11862,"straighten":11863,"Ġskateboard":11864,"sharp":11865,"Ġrosy":11866,"Ġvolcan":11867,"ĠSmurfs":11868,"ĠAmanda":11869,"muffins":11870,"McDonald":11871,"Ġimitate":11872,"Ġdiscussion":11873,"Aidan":11874,"grownups":11875,"ĠAladin":11876,"Ġdirectly":11877,"fingers":11878,"vegetables":11879,"Goldie":11880,"Ġdandelion":11881,"Ġwerewolves":11882,"Ġnuggets":11883,"Ġpigeons":11884,"Ġcatalogue":11885,"Ġtadpoles":11886,"Ġchallenge":11887,"ĠWayland":11888,"Ġacrobat":11889,"Ġgrasshopper":11890,"Ġbookshelf":11891,"Ġcarpenter":11892,"ĠTweety":11893,"Ġadopt":11894,"Ġscorpion":11895,"Ġstructure":11896,"Ġtransportation":11897,"ĠPokemon":11898,"Ġspaghettis":11899,"Ġvocabulary":11900,"Ġluggage":11901,"Ġferocious":11902,"Ġnotebook":11903,"ĠBlandsworth":11904,"Ġhandkerchief":11905,"Bill":11906,"Dr":11907,"Farmer":11908,"Jon":11909,"Jean":11910,"Josh":11911,"July":11912,"Junior":11913,"Mo":11914,"Mart":11915,"Philip":11916,"Ru":11917,"Rock":11918,"Snow":11919,"Zoe":11920,"aah":11921,"bas":11922,"bats":11923,"card":11924,"cards":11925,"dale":11926,"during":11927,"dumpty":11928,"fee":11929,"far":11930,"fas":11931,"fur":11932,"fair":11933,"hiding":11934,"ipp":11935,"iol":11936,"jamas":11937,"kid":11938,"late":11939,"law":11940,"mons":11941,"mud":11942,"pf":11943,"pas":11944,"poop":11945,"pud":11946,"pical":11947,"rie":11948,"spill":11949,"tu":11950,"town":11951,"woop":11952,"xious":11953,"yell":11954,"zan":11955,"Ġir":11956,"ĠĊĊ":11957,"Ġicy":11958,"heaven":11959,"oupe":11960,"oufl":11961,"rets":11962,"incent":11963,"Ġwhichever":11964,"Ġsis":11965,"Ġsum":11966,"Ġsash":11967,"Ġtheory":11968,"Ġdunk":11969,"Ġdale":11970,"Ġbust":11971,"Ġbound":11972,"Ġbough":11973,"Ġbup":11974,"Ġbakes":11975,"Ġberry":11976,"Ġbingo":11977,"Ġbummie":11978,"Ġbinoculars":11979,"Ġgy":11980,"Ġgal":11981,"Ġcy":11982,"Ġcities":11983,"lleen":11984,"Ġlack":11985,"Ġmimi":11986,"Ġphase":11987,"ergies":11988,"Ġfist":11989,"Ġflex":11990,"Ġfences":11991,"Ġoxygen":11992,"Ġheli":11993,"Ġhut":11994,"send":11995,"sevent":11996,"igi":11997,"thery":11998,"ĠInez":11999,"eedy":12000,"store":12001,"steak":12002,"arar":12003,"atta":12004,"atives":12005,"ands":12006,"Ġrung":12007,"Ġrange":12008,"adays":12009,"Ġeyed":12010,"Ġreck":12011,"weight":12012,"abu":12013,"alal":12014,"almat":12015,"Ġnep":12016,"Ġjeez":12017,"doggies":12018,"ifying":12019,"ĠMart":12020,"ĠMinn":12021,"ĠMaura":12022,"ĠMaine":12023,"indian":12024,"Ġyak":12025,"rosie":12026,"Ġnowadays":12027,"Ġbackhoe":12028,"soccer":12029,"Ġcove":12030,"Ġcoal":12031,"Ġcobras":12032,"Ġoverwhel":12033,"agah":12034,"ĠCom":12035,"ĠCro":12036,"ĠChan":12037,"ĠCru":12038,"Ġcla":12039,"Ġcleats":12040,"Ġcloudy":12041,"Ġfrank":12042,"Ġwoulda":12043,"ĠBee":12044,"ĠBinky":12045,"ĠBetta":12046,"Ġcarved":12047,"quarter":12048,"ĠSunny":12049,"ĠSix":12050,"ĠSimba":12051,"ĠScarlett":12052,"Ġbloom":12053,"Ġblade":12054,"cted":12055,"Ġmode":12056,"Ġmodern":12057,"nyard":12058,"Ġaggressive":12059,"ĠAli":12060,"ĠAsher":12061,"ĠRay":12062,"umpin":12063,"umpti":12064,"Ġgirly":12065,"peg":12066,"Ġflood":12067,"ĠNyla":12068,"venient":12069,"ĠTa":12070,"ĠTo":12071,"ĠTor":12072,"ĠTole":12073,"Ġstuffy":12074,"ĠFang":12075,"ixie":12076,"Ġquilts":12077,"Ġcriss":12078,"Ġcritter":12079,"Ġcrunched":12080,"ĠGreek":12081,"ĠGabriel":12082,"Ġproport":12083,"obi":12084,"Ġswee":12085,"Ġswamp":12086,"Ġpicker":12087,"Ġsurely":12088,"Ġunderground":12089,"ĠHendrika":12090,"iption":12091,"estic":12092,"Ġpoles":12093,"Ġpoking":12094,"Ġstayin":12095,"aced":12096,"Ġnavy":12097,"rier":12098,"awful":12099,"ĠKennedy":12100,"ĠWan":12101,"Ġsawing":12102,"ballet":12103,"Ġkissie":12104,"ava":12105,"Ġbushy":12106,"Ġhurtin":12107,"watching":12108,"shoulders":12109,"Ġfirehouse":12110,"Ġcornbread":12111,"cola":12112,"Ġbaboon":12113,"brushing":12114,"Ġsecrets":12115,"Ġunique":12116,"Ġcrystal":12117,"Ġdiscover":12118,"Ġtender":12119,"Ġgrowling":12120,"Ġfoil":12121,"Ġbarnyard":12122,"ĠObi":12123,"ĠOlymp":12124,"ĠOwl":12125,"finally":12126,"Ġbrownie":12127,"Ġpersonally":12128,"lynn":12129,"merrily":12130,"Ġscarecrow":12131,"Ġringin":12132,"whack":12133,"grey":12134,"ieth":12135,"Ġunderstanding":12136,"Ġneatly":12137,"Ġcereals":12138,"willn":12139,"eyore":12140,"Ġwallet":12141,"Ġcursive":12142,"Ġseafood":12143,"Ġcamoufl":12144,"ĠValerie":12145,"orky":12146,"Ġpermission":12147,"Ġcrap":12148,"drum":12149,"ĠStep":12150,"Ġdumper":12151,"Ġmiser":12152,"Ġfights":12153,"Ġsweaty":12154,"Ġreachin":12155,"singing":12156,"Ġtwis":12157,"Ġfrequ":12158,"Ġbandage":12159,"Ġratt":12160,"Ġmedic":12161,"onka":12162,"Ġdaily":12163,"Ġcreative":12164,"sweep":12165,"Ġriders":12166,"Ġvolleyball":12167,"squash":12168,"ĠBruce":12169,"Ġsatis":12170,"sixty":12171,"Ġcroak":12172,"ĠMaryann":12173,"apparently":12174,"Ġhealthier":12175,"ĠYou":12176,"ĠYaya":12177,"ĠBarbie":12178,"ĠStevie":12179,"gesundheit":12180,"Ġantlers":12181,"Ġantelope":12182,"Ġweekends":12183,"Ġradish":12184,"Ġradishes":12185,"Ġjellyfish":12186,"Ġharp":12187,"woowoo":12188,"Ġpilots":12189,"bottom":12190,"Ġtoolbox":12191,"Ġconference":12192,"calator":12193,"purr":12194,"Stan":12195,"Ġheehee":12196,"Ġcrumbly":12197,"ĠTimothy":12198,"fox":12199,"Ġcockro":12200,"ĠSwamp":12201,"ĠColorado":12202,"Ġwiggling":12203,"Ġposing":12204,"ĠShadow":12205,"ĠRolf":12206,"Ġmagazines":12207,"vanced":12208,"ĠElaine":12209,"Ġexpecting":12210,"Ġstretching":12211,"Ġedible":12212,"Ġequal":12213,"ĠPoppy":12214,"Ġwheeled":12215,"matter":12216,"ĠDiane":12217,"Ġsparkles":12218,"Ġpunished":12219,"ĠAbba":12220,"Ġspanked":12221,"Ġroots":12222,"Ġbeetles":12223,"ĠPlaydoh":12224,"magnet":12225,"Ġflips":12226,"Ġattractive":12227,"suppose":12228,"Ġdelive":12229,"Ġphony":12230,"Ġlasagne":12231,"ĠSquare":12232,"Ġdeveloped":12233,"ĠFozzy":12234,"Ġseventeenth":12235,"Ġchipmunks":12236,"Ġbonked":12237,"Ġbonnet":12238,"Ġfooled":12239,"Ġwrestling":12240,"Ġtattoo":12241,"Ġllamas":12242,"oodoodoo":12243,"ĠAngel":12244,"Isabell":12245,"Piggy":12246,"ĠItalian":12247,"Ġcelebrate":12248,"Ġgravitated":12249,"slipper":12250,"Ġleftover":12251,"Ġscaring":12252,"honest":12253,"Ġfirm":12254,"ĠCecelia":12255,"Ġnightmares":12256,"miaw":12257,"Donny":12258,"Ġvinegar":12259,"Ġpsycho":12260,"Ġhuffed":12261,"Ġrarely":12262,"Ġannoun":12263,"ĠSabato":12264,"Ġcushion":12265,"Ġaisle":12266,"Ġhammers":12267,"Ġannoying":12268,"ĠJonathan":12269,"Ġadvertisement":12270,"Ġseparated":12271,"Pluto":12272,"Ġcheeses":12273,"crete":12274,"Ġnegative":12275,"Ġtraditional":12276,"Emily":12277,"aisin":12278,"adabra":12279,"ĠMadelyn":12280,"ĠDelma":12281,"ĠFittis":12282,"Ġfabric":12283,"Dorothy":12284,"nibbled":12285,"Ġsensitive":12286,"Ġfemales":12287,"Ġchinchilla":12288,"ĠMeijer":12289,"Ġruler":12290,"quoise":12291,"Ġamphib":12292,"pudding":12293,"Ġnephew":12294,"umptious":12295,"ĠToledo":12296,"Bee":12297,"Honey":12298,"Hetty":12299,"Jay":12300,"Johnathan":12301,"Jeremy":12302,"Ker":12303,"Kenn":12304,"La":12305,"Lyn":12306,"Lassie":12307,"Mimi":12308,"Mooshaboosh":12309,"Red":12310,"Raggedy":12311,"Renee":12312,"So":12313,"Sweet":12314,"Sean":12315,"Tar":12316,"Tadi":12317,"Tanya":12318,"We":12319,"bright":12320,"bets":12321,"dial":12322,"eeat":12323,"fantastic":12324,"gh":12325,"gug":12326,"glory":12327,"ika":12328,"jeep":12329,"lost":12330,"learn":12331,"mad":12332,"math":12333,"messy":12334,"noodles":12335,"pup":12336,"pbth":12337,"rid":12338,"rill":12339,"sim":12340,"sip":12341,"ssey":12342,"tus":12343,"tong":12344,"tummy":12345,"test":12346,"uctor":12347,"woman":12348,"wiggle":12349,"zi":12350,"zag":12351,"ĠQ":12352,"Ġtests":12353,"Ġtangerine":12354,"heat":12355,"Ġape":12356,"rent":12357,"inct":12358,"inting":12359,"inked":12360,"Ġwig":12361,"Ġwishes":12362,"Ġss":12363,"Ġskeleton":12364,"itions":12365,"Ġdu":12366,"Ġdinners":12367,"Ġbong":12368,"Ġgour":12369,"Ġmim":12370,"Ġmummy":12371,"Ġpomegran":12372,"erves":12373,"erts":12374,"Ġfu":12375,"Ġfives":12376,"Ġtol":12377,"Ġhap":12378,"orty":12379,"leg":12380,"igate":12381,"naughty":12382,"stink":12383,"Ġraff":12384,"Ġrhino":12385,"aden":12386,"Ġeld":12387,"uhh":12388,"Ġsteel":12389,"Ġrear":12390,"Ġcanes":12391,"Ġnests":12392,"edom":12393,"Ġjaws":12394,"thi":12395,"dock":12396,"urance":12397,"otter":12398,"ifi":12399,"ĠMercedes":12400,"Ġsoy":12401,"Ġsoci":12402,"teria":12403,"takin":12404,"lying":12405,"rob":12406,"roke":12407,"rael":12408,"raham":12409,"cement":12410,"useta":12411,"Ġsakes":12412,"Ġboiling":12413,"Ġbutcher":12414,"opes":12415,"Ġordered":12416,"belie":12417,"Ġoverboard":12418,"ĠCha":12419,"Ġlettin":12420,"Ġclang":12421,"Ġreader":12422,"ĠBan":12423,"ĠBook":12424,"ĠBag":12425,"ĠBible":12426,"ĠBrend":12427,"ourine":12428,"ĠSchool":12429,"ĠSeven":12430,"ĠSarl":12431,"ctuary":12432,"oses":12433,"Ġmothe":12434,"Ġprettier":12435,"Ġdrug":12436,"ĠAt":12437,"Ġguide":12438,"ĠRain":12439,"ĠRonald":12440,"ĠRaisin":12441,"Ġmeanie":12442,"oompapa":12443,"ĠJeremy":12444,"Ġloan":12445,"Ġhollow":12446,"Ġchem":12447,"Ġflashing":12448,"Ġfaith":12449,"Ġfail":12450,"ĠTasha":12451,"ĠTupty":12452,"ĠPie":12453,"ĠPaddington":12454,"Ġhelpin":12455,"ĠFal":12456,"Ġscient":12457,"ardines":12458,"Ġthroughout":12459,"Ġcrummy":12460,"Ġcruel":12461,"ĠGilly":12462,"ĠGary":12463,"ĠGwen":12464,"Ġprogress":12465,"Ġmini":12466,"Ġbeddie":12467,"Ġheadlights":12468,"cheer":12469,"nectic":12470,"ĠHoo":12471,"ĠHor":12472,"ĠHed":12473,"Ġvow":12474,"ĠEvan":12475,"Ġmommys":12476,"iple":12477,"ipate":12478,"Ġreds":12479,"Ġzuc":12480,"ousin":12481,"kenstein":12482,"Ġpoppy":12483,"Ġpoem":12484,"Ġchunk":12485,"ĠKan":12486,"ĠKansas":12487,"Ġkeeper":12488,"Ġslap":12489,"Ġslobber":12490,"Ġdemon":12491,"Ġdegre":12492,"Ġlightening":12493,"avement":12494,"Ġrecess":12495,"Ġdinnertime":12496,"cium":12497,"Ġamuse":12498,"izer":12499,"Ġchichi":12500,"Ġcorners":12501,"Ġparachute":12502,"spring":12503,"bran":12504,"chasing":12505,"Ġswimmer":12506,"Ġmessin":12507,"olt":12508,"olks":12509,"Ġnaptime":12510,"Ġdisplay":12511,"iance":12512,"Ġowns":12513,"Ġowner":12514,"Ġgrowin":12515,"Ġknockin":12516,"dda":12517,"tinor":12518,"Ġlayers":12519,"Ġaccept":12520,"Ġclimbin":12521,"Ġfatter":12522,"Ġmirrors":12523,"Ġtying":12524,"ĠVanessa":12525,"ĠPoohbear":12526,"Ġdesks":12527,"Ġmarvel":12528,"ĠStore":12529,"Ġmarkings":12530,"keeps":12531,"deer":12532,"Ġsalads":12533,"iggling":12534,"Ġmedical":12535,"ĠDadda":12536,"Ġadvanced":12537,"umbled":12538,"Ġduster":12539,"squishy":12540,"Ġcalcium":12541,"Ġsteers":12542,"Ġbased":12543,"Ġgentleman":12544,"Ġsimp":12545,"Ġhoses":12546,"grav":12547,"ĠBarr":12548,"fighter":12549,"Marty":12550,"Marvel":12551,"Ġarticle":12552,"writing":12553,"Ġfollows":12554,"cinna":12555,"Ġlollipops":12556,"Ġhandlebars":12557,"Ġextent":12558,"Ġanteaters":12559,"prom":12560,"ivan":12561,"Ġaccidents":12562,"ĠDoc":12563,"Ġescalator":12564,"ĠAnderson":12565,"eighty":12566,"smiling":12567,"Ġbullets":12568,"hanging":12569,"Ġoopsie":12570,"Ġprotein":12571,"ĠMcKayla":12572,"wheat":12573,"whether":12574,"butterflies":12575,"polly":12576,"bouncing":12577,"lovely":12578,"hostbusters":12579,"Ġloaded":12580,"Ġdecorating":12581,"Ġrobber":12582,"drawing":12583,"beaver":12584,"Ġbeanstalk":12585,"Ġexplaining":12586,"slowly":12587,"teapot":12588,"iscos":12589,"Ġskipping":12590,"eezes":12591,"Ġbacked":12592,"bumpy":12593,"camel":12594,"Ġtoucan":12595,"Ġweightlif":12596,"skunks":12597,"Ġprizes":12598,"Ġwarning":12599,"electric":12600,"moving":12601,"Ġlosin":12602,"ĠEdward":12603,"Ġdesigned":12604,"Ġantennae":12605,"Ġgallop":12606,"Ġresearch":12607,"ĠCarey":12608,"ĠGertinor":12609,"Ġrelatively":12610,"Ġhunts":12611,"Christa":12612,"ĠQuik":12613,"Ġfrys":12614,"ĠJoanne":12615,"Ġinsurance":12616,"ĠAbbie":12617,"ĠAbraham":12618,"Ġdiamonds":12619,"Ġindians":12620,"ĠChico":12621,"Ġarrived":12622,"Ġflipped":12623,"Ġflipping":12624,"Ġdrooling":12625,"Ġphon":12626,"Ġplugging":12627,"Ġconcentrating":12628,"policeman":12629,"Ġwrinkles":12630,"ĠDenise":12631,"Ġhabitat":12632,"Ġshovels":12633,"Ġmosquitoes":12634,"Ġsuspend":12635,"Bozo":12636,"Benjamin":12637,"recorder":12638,"chini":12639,"Ġorganized":12640,"Ġappetizing":12641,"Ġentirely":12642,"Macdonald":12643,"Ġbalanced":12644,"creep":12645,"Ġprepared":12646,"squirrel":12647,"uppets":12648,"ĠMamma":12649,"vegetable":12650,"ĠCanada":12651,"ĠPerro":12652,"Ġpjs":12653,"crawl":12654,"laugh":12655,"puzzle":12656,"ĠLorraine":12657,"Ġrearrang":12658,"Ġtraveling":12659,"Ġtechnic":12660,"Ġdisturb":12661,"Grandaddy":12662,"Ġmicroscope":12663,"Ġgunkies":12664,"Ġissue":12665,"ĠDennis":12666,"Ġlorry":12667,"Ġscallops":12668,"heimer":12669,"Ġagreed":12670,"Ġseagulls":12671,"batteries":12672,"ĠRogers":12673,"Ġcylinder":12674,"Ġcantaloupe":12675,"cturnal":12676,"avorite":12677,"Ġparakeet":12678,"Ġmiserable":12679,"Ġfrequently":12680,"sseyed":12681,"ĠSarlac":12682,"necticut":12683,"Ġzucchini":12684,"Ġdegrees":12685,"Ant":12686,"Billy":12687,"Cor":12688,"Cap":12689,"Dear":12690,"Dinah":12691,"Harry":12692,"Lily":12693,"Nonno":12694,"Nicholas":12695,"Pascal":12696,"Room":12697,"Scot":12698,"Too":12699,"Zo":12700,"aerobics":12701,"aarf":12702,"bid":12703,"bum":12704,"bench":12705,"cons":12706,"dead":12707,"duce":12708,"dination":12709,"free":12710,"few":12711,"feather":12712,"felt":12713,"fume":12714,"favorite":12715,"gly":12716,"gave":12717,"gloves":12718,"junior":12719,"kill":12720,"looked":12721,"mie":12722,"mos":12723,"moose":12724,"nay":12725,"nces":12726,"pra":12727,"pire":12728,"rig":12729,"rome":12730,"rite":12731,"rate":12732,"sat":12733,"sunny":12734,"smoo":12735,"slip":12736,"specially":12737,"till":12738,"tice":12739,"tiss":12740,"tcha":12741,"ux":12742,"vv":12743,"wrench":12744,"yer":12745,"Ġtsh":12746,"Ġtact":12747,"hea":12748,"heels":12749,"hasta":12750,"inja":12751,"Ġsnot":12752,"Ġsumpin":12753,"Ġtherap":12754,"itude":12755,"Ġdy":12756,"ĠdÉ":12757,"Ġdamp":12758,"Ġdiner":12759,"Ġgnaw":12760,"Ġcable":12761,"Ġlakes":12762,"Ġlining":12763,"nor":12764,"Ġmast":12765,"Ġpaddy":12766,"Ġpace":12767,"Ġpeter":12768,"Ġital":12769,"Ġfetch":12770,"Ġfidd":12771,"Ġoak":12772,"Ġoint":12773,"estle":12774,"eaked":12775,"Ġhoof":12776,"Ġhunhunh":12777,"seed":12778,"eezy":12779,"ston":12780,"stom":12781,"string":12782,"iche":12783,"atically":12784,"Ġrye":12785,"Ġraggedy":12786,"Ġwann":12787,"irk":12788,"adar":12789,"Ġnocturnal":12790,"Ġstur":12791,"Ġstacked":12792,"Ġmeg":12793,"Ġcanned":12794,"Ġknowing":12795,"wey":12796,"abl":12797,"aly":12798,"alpha":12799,"oodled":12800,"Ġniece":12801,"chya":12802,"Ġjet":12803,"Ġjars":12804,"Ġjohn":12805,"Ġjerk":12806,"Ġupright":12807,"Ġwasher":12808,"urin":12809,"unity":12810,"Ġwanta":12811,"Ġallergies":12812,"ĠMs":12813,"Ġsofter":12814,"orey":12815,"Ġgotchu":12816,"Ġplayful":12817,"hier":12818,"Ġorphan":12819,"huhuh":12820,"agon":12821,"aging":12822,"agara":12823,"Ġtippy":12824,"ĠBrand":12825,"ĠBoy":12826,"ĠBoulder":12827,"wok":12828,"wolf":12829,"Ġprey":12830,"artz":12831,"ĠSk":12832,"Ġtrooper":12833,"Ġmoist":12834,"irsten":12835,"erec":12836,"ĠRho":12837,"ĠJer":12838,"Ġcheaper":12839,"Ġcheated":12840,"Ġhappenin":12841,"elujah":12842,"Ġbrook":12843,"ĠNe":12844,"ĠTan":12845,"ĠTickles":12846,"ĠPea":12847,"ĠPoy":12848,"ĠPunxsutawney":12849,"ĠLea":12850,"Ġquality":12851,"Ġquiche":12852,"plum":12853,"Ġcru":12854,"Ġswung":12855,"Ġsmush":12856,"Ġvamp":12857,"ĠET":12858,"ĠElephant":12859,"sss":12860,"inned":12861,"Ġhatched":12862,"Ġstartin":12863,"Ġfoots":12864,"Ġfootprints":12865,"estion":12866,"kenzie":12867,"acc":12868,"acques":12869,"arms":12870,"Ġstorybook":12871,"Ġfunnel":12872,"Ġsorter":12873,"ĠKool":12874,"ĠKrystal":12875,"ĠKirsten":12876,"Chips":12877,"ĠWhit":12878,"Ġtaperec":12879,"Ġmonitor":12880,"Ġslumber":12881,"Ġbeast":12882,"inson":12883,"bitsy":12884,"ballerina":12885,"Ġcuttin":12886,"shaking":12887,"Ġchoked":12888,"Ġchopper":12889,"clouds":12890,"tells":12891,"ashful":12892,"Ġyellows":12893,"Ġairline":12894,"ibby":12895,"Ġsandy":12896,"mson":12897,"Ġcornfield":12898,"Ġpardon":12899,"exerc":12900,"spider":12901,"Ġbows":12902,"Ġwonderin":12903,"rops":12904,"Ġbuttered":12905,"aseline":12906,"Ġunlock":12907,"Ġunbuckle":12908,"Ġflys":12909,"Ġemperor":12910,"scary":12911,"Ġhighway":12912,"Ġmatters":12913,"Ġconcrete":12914,"Ġmeats":12915,"Ġprim":12916,"ierce":12917,"Ġbarked":12918,"ptiles":12919,"Ġapric":12920,"whadda":12921,"aults":12922,"etera":12923,"Ġsuppertime":12924,"Ġcurled":12925,"Ġcurved":12926,"Ġcurlers":12927,"Ġcheckers":12928,"pulling":12929,"ĠVadar":12930,"ĠVaseline":12931,"Ġcombs":12932,"ogi":12933,"Ġetcetera":12934,"elicia":12935,"Ġtoothies":12936,"true":12937,"trunk":12938,"rambles":12939,"Ġclassroom":12940,"Ġdadada":12941,"Ġbubbly":12942,"Ġshortcake":12943,"Ġcompar":12944,"Ġtwin":12945,"ĠJohnson":12946,"Ġlambie":12947,"patient":12948,"Ġtightening":12949,"Ġadm":12950,"grims":12951,"ĠSpot":12952,"ampers":12953,"Ġridden":12954,"Miche":12955,"ĠBron":12956,"Ġpaintings":12957,"Ġkiller":12958,"Ġburns":12959,"Ġcrosseyed":12960,"Ġcollie":12961,"knocked":12962,"ĠAlbert":12963,"Ġbarkin":12964,"Ġjolly":12965,"ĠZachary":12966,"Anna":12967,"Ġburst":12968,"urtles":12969,"froggy":12970,"Ġregularly":12971,"Ġbrooms":12972,"Ġflatten":12973,"Ġscreamin":12974,"working":12975,"Ġcrabby":12976,"Ġdigger":12977,"Ġsneaker":12978,"ĠDanielle":12979,"blowing":12980,"Ġmealtime":12981,"Ġinviting":12982,"poppop":12983,"ĠSheryl":12984,"Ġreptile":12985,"party":12986,"Ġvideos":12987,"Ġcopied":12988,"Ġprotected":12989,"Ġyuckies":12990,"Ġstepsister":12991,"falling":12992,"Ġcloths":12993,"Ġcocktail":12994,"Ġfoolish":12995,"ĠCole":12996,"ĠBenjamin":12997,"Ġwipers":12998,"Ġrestaurants":12999,"ĠTyleno":13000,"ĠLouis":13001,"ĠGreg":13002,"ĠNora":13003,"ĠDevon":13004,"skip":13005,"Ġstretched":13006,"Ġstretchy":13007,"Ġcubs":13008,"Ġalphabets":13009,"ĠPole":13010,"Ġselfish":13011,"Ġfussin":13012,"Ġwrapping":13013,"Ġsubway":13014,"Ġoccup":13015,"Ġstrikes":13016,"Ġgraceful":13017,"ĠQueen":13018,"Ġbombs":13019,"trains":13020,"Ġattacking":13021,"Ġtiming":13022,"ĠKeith":13023,"ĠCaroline":13024,"circus":13025,"ĠChicken":13026,"huge":13027,"Ġopport":13028,"ĠParker":13029,"ĠBaba":13030,"Ġnaturally":13031,"Robbie":13032,"Ġlittlest":13033,"Ġdelay":13034,"Ġpedals":13035,"Ġroute":13036,"steps":13037,"ĠLexy":13038,"ĠThree":13039,"courage":13040,"Ġconductor":13041,"ĠDonny":13042,"ĠAmye":13043,"Ġzipped":13044,"alingaling":13045,"Helen":13046,"hippo":13047,"Ġlimits":13048,"Ġlizards":13049,"ĠSweetheart":13050,"bologna":13051,"Spider":13052,"Ġgravitate":13053,"slippers":13054,"Ġvehicles":13055,"ĠChewies":13056,"Ġbleeding":13057,"sadora":13058,"ology":13059,"Ġcourtroom":13060,"Ġdandelions":13061,"Ġprovidence":13062,"Ġvoting":13063,"speaking":13064,"normally":13065,"pecker":13066,"ĠTarzan":13067,"Ġcanoeing":13068,"Hannah":13069,"Ġstained":13070,"Ġconsistently":13071,"Ġcommunicate":13072,"ĠIsrael":13073,"Ġkaka":13074,"Ġsponsors":13075,"Ġweapons":13076,"ĠCaitlyn":13077,"Ġslightly":13078,"Ġcoordination":13079,"Ġliterally":13080,"Ġtackle":13081,"ĠCurious":13082,"Sludge":13083,"pretzel":13084,"Lincoln":13085,"piggies":13086,"Ġmanipulate":13087,"ĠPresident":13088,"Ġsnatch":13089,"sandwich":13090,"Ġtrumpet":13091,"ĠReagan":13092,"ĠGretel":13093,"Ġbodybuilder":13094,"Ġtidy":13095,"Ġtalons":13096,"Ġguarantee":13097,"Ġhelium":13098,"seventeen":13099,"ĠChance":13100,"Ġproportion":13101,"Ġsatisf":13102,"honestly":13103,"tusks":13104,"tongue":13105,"Ġdemonstr":13106,"Ġmarvelous":13107,"cinnamon":13108,"Ġitalian":13109,"Ġointment":13110,"oodledoo":13111,"ĠWhitney":13112,"ĠTylenol":13113,"Ber":13114,"Bugs":13115,"Cricket":13116,"Day":13117,"Jess":13118,"Justin":13119,"Julie":13120,"Leah":13121,"Molly":13122,"Nala":13123,"Parent":13124,"Play":13125,"White":13126,"bone":13127,"bong":13128,"bought":13129,"barn":13130,"caught":13131,"cuz":13132,"dja":13133,"git":13134,"gun":13135,"gae":13136,"hut":13137,"hundred":13138,"iant":13139,"krispies":13140,"live":13141,"luck":13142,"mary":13143,"missed":13144,"ok":13145,"oes":13146,"pth":13147,"rad":13148,"risten":13149,"rich":13150,"rinse":13151,"som":13152,"sle":13153,"sir":13154,"sunday":13155,"snoopy":13156,"tto":13157,"timber":13158,"violin":13159,"wip":13160,"warf":13161,"yet":13162,"zilla":13163,"±o":13164,"Ã±o":13165,"Ġease":13166,"Ġest":13167,"Ġirr":13168,"ĠĊĠ":13169,"Ġtame":13170,"Ġtug":13171,"Ġtamb":13172,"Ġtiles":13173,"hay":13174,"Ġai":13175,"Ġaverage":13176,"rex":13177,"inas":13178,"inch":13179,"inally":13180,"Ġwart":13181,"Ġward":13182,"Ġweep":13183,"Ġsens":13184,"itis":13185,"itation":13186,"itsy":13187,"Ġdread":13188,"Ġdung":13189,"Ġbind":13190,"Ġbam":13191,"Ġgiggle":13192,"oooo":13193,"noise":13194,"Ġmu":13195,"Ġmut":13196,"Ġmal":13197,"Ġmil":13198,"Ġmate":13199,"Ġmile":13200,"Ġmouses":13201,"Ġpis":13202,"Ġpulp":13203,"ayley":13204,"Ġitty":13205,"inge":13206,"Ġfart":13207,"Ġfuture":13208,"Ġthinner":13209,"esota":13210,"Ġdoe":13211,"Ġdock":13212,"etc":13213,"kept":13214,"seventy":13215,"orized":13216,"idently":13217,"ĠIvy":13218,"stan":13219,"Ġwebs":13220,"htray":13221,"icent":13222,"ows":13223,"atter":13224,"atops":13225,"Ġrumble":13226,"add":13227,"adoo":13228,"Ġsteep":13229,"Ġstared":13230,"Ġrepl":13231,"Ġbecoming":13232,"Ġcannon":13233,"Ġseein":13234,"Ġnigh":13235,"Ġnoun":13236,"iefly":13237,"third":13238,"Ġplop":13239,"Ġanim":13240,"Ġputta":13241,"Ġnoticing":13242,"unts":13243,"eatin":13244,"ĠMaddy":13245,"ĠMerry":13246,"ĠMuffet":13247,"Ġsoaking":13248,"tacy":13249,"tagon":13250,"ntuu":13251,"hiy":13252,"rape":13253,"raining":13254,"Ġsaves":13255,"Ġsailed":13256,"Ġspices":13257,"Ġspooky":13258,"Ġorcha":13259,"Ġornament":13260,"beg":13261,"ilities":13262,"Ġanythin":13263,"agoon":13264,"shey":13265,"ĠCJ":13266,"berg":13267,"ĠBaldy":13268,"ĠDes":13269,"ĠDar":13270,"ĠDana":13271,"ĠDiana":13272,"ĠDamian":13273,"ĠDeedee":13274,"ĠSabr":13275,"ĠSayla":13276,"esserts":13277,"osion":13278,"Ġtrough":13279,"Ġashtray":13280,"ulu":13281,"Ġbugg":13282,"Ġbugging":13283,"lips":13284,"uffs":13285,"ĠRand":13286,"Ġcooker":13287,"Ġmanaged":13288,"Ġmeanwhile":13289,"ĠJP":13290,"ĠJasmine":13291,"Ġloft":13292,"Ġchess":13293,"tingu":13294,"Ġflesh":13295,"Ġbriefly":13296,"Ġfactor":13297,"ĠNurse":13298,"ĠNicole":13299,"ĠTower":13300,"ĠLucky":13301,"Ġshakin":13302,"ĠFish":13303,"ĠFae":13304,"ĠFlynn":13305,"Ġscab":13306,"Ġscoops":13307,"ofia":13308,"plant":13309,"ugug":13310,"ĠGonzo":13311,"ĠGarfield":13312,"penny":13313,"Ġwriggled":13314,"Ġsections":13315,"neys":13316,"Ġvag":13317,"ĠEle":13318,"Ġwaitress":13319,"ously":13320,"Ġnat":13321,"awesome":13322,"Ġchimes":13323,"Ġchunks":13324,"Ġchirp":13325,"ĠKaaee":13326,"ĠKrispies":13327,"ĠWompa":13328,"Ġcareless":13329,"Ġintense":13330,"Ġintrig":13331,"Ġslot":13332,"Ġsuds":13333,"Ġtramp":13334,"Ġkissin":13335,"Ġjumper":13336,"Ġthankyou":13337,"Ġsquashed":13338,"Ġfroggies":13339,"Ġbushel":13340,"Ġacts":13341,"Ġskies":13342,"Ġyeast":13343,"achu":13344,"ewie":13345,"ealand":13346,"Ġclover":13347,"Ġhoped":13348,"Ġflowing":13349,"unkin":13350,"Ġsockie":13351,"tem":13352,"Ġconvenient":13353,"Ġsunflower":13354,"Ġknits":13355,"Ġgiya":13356,"ĠFrance":13357,"guard":13358,"Ġeyeballs":13359,"Ġeyeglasses":13360,"Ġgrandparents":13361,"eepee":13362,"welcome":13363,"Ġmisses":13364,"Ġpats":13365,"Ġsnuck":13366,"Ġsnoopy":13367,"Ġtense":13368,"Ġwallpaper":13369,"Ġvent":13370,"Ġbooties":13371,"flo":13372,"Ġpinata":13373,"Ġsplashy":13374,"Ġsickness":13375,"Ġcamer":13376,"Ġbouncin":13377,"Ġperch":13378,"Ġperman":13379,"Ġkangaroos":13380,"Ġswingin":13381,"Ġswingie":13382,"Ġivy":13383,"Ġgenie":13384,"ĠStart":13385,"Ġsincerely":13386,"Ġclassic":13387,"devil":13388,"Ġengage":13389,"iggers":13390,"Ġripping":13391,"Ġraised":13392,"Ġvisitors":13393,"olds":13394,"Ġadorable":13395,"Ġwishin":13396,"Ġyoungest":13397,"Ġcalories":13398,"Ġkilling":13399,"pops":13400,"Ġraced":13401,"Ġhumans":13402,"ĠZealand":13403,"othra":13404,"Mariana":13405,"Ġindent":13406,"cutie":13407,"Ġsuperman":13408,"ercules":13409,"lobe":13410,"frozen":13411,"dollie":13412,"Ġpaci":13413,"Ġpressing":13414,"chairs":13415,"Ġchinese":13416,"peanuts":13417,"dadum":13418,"dadadadada":13419,"smoke":13420,"Ġlids":13421,"Ġbullet":13422,"Ġthirds":13423,"Ġstrips":13424,"Ġpooped":13425,"Ġpoopies":13426,"Ġfolding":13427,"Ġfolder":13428,"Ġotters":13429,"ikki":13430,"saac":13431,"Ġdecorative":13432,"Ġprotective":13433,"Ġrobes":13434,"Step":13435,"Ġheehaw":13436,"Ġspending":13437,"Brad":13438,"ocado":13439,"firefighter":13440,"Ġpowers":13441,"ellogg":13442,"erole":13443,"Ġsteaks":13444,"rocking":13445,"badji":13446,"ĠDecky":13447,"sounded":13448,"Ġcubby":13449,"Ġgerbils":13450,"Ġmasks":13451,"Ġproperty":13452,"Ġconscious":13453,"ingleheimer":13454,"Ġwrapper":13455,"Ġrefre":13456,"Ġolive":13457,"ĠMadison":13458,"Ġinteraction":13459,"Ġyawned":13460,"ĠJoanie":13461,"ĠScottie":13462,"Ġinsist":13463,"ĠReva":13464,"curtains":13465,"Ġdragons":13466,"Booboon":13467,"friends":13468,"Ġservant":13469,"Ġsouthern":13470,"ĠFrosted":13471,"Ġphotographs":13472,"ĠMelanie":13473,"ĠMelissi":13474,"Ġhangs":13475,"Ġbossy":13476,"ĠLexi":13477,"Ġmechanical":13478,"Ġrattlesnake":13479,"marine":13480,"Delia":13481,"Ġcranberries":13482,"ussell":13483,"Ġshoveling":13484,"ĠDaisy":13485,"Ġsupplies":13486,"Ġarguing":13487,"Shana":13488,"ĠPetes":13489,"Ġsuspic":13490,"Ġspeedy":13491,"believe":13492,"Ġcrisp":13493,"Amanda":13494,"ĠBaebae":13495,"Ġsuggestion":13496,"Ġafford":13497,"ĠWalter":13498,"Ġpureed":13499,"Ġpronounce":13500,"Ġbouillon":13501,"Ġraspberries":13502,"ĠConnecticut":13503,"Ġlattice":13504,"Ġproduct":13505,"Ġdetails":13506,"glue":13507,"Goldilocks":13508,"Parker":13509,"ĠMerrill":13510,"Ġvoted":13511,"Ġdemand":13512,"Ġinterrupted":13513,"Ġwerewolf":13514,"lalala":13515,"Ġcushions":13516,"Ġdisposal":13517,"Franc":13518,"ĠGabby":13519,"Ġbarbells":13520,"Ġclippers":13521,"ĠSchmid":13522,"bunnies":13523,"bunnys":13524,"Ġmangos":13525,"ĠAndreas":13526,"surfing":13527,"Ġshoelaces":13528,"Ġpyram":13529,"pussycat":13530,"Allison":13531,"Ġsanctuary":13532,"ĠParis":13533,"Reese":13534,"Granny":13535,"Ursula":13536,"Three":13537,"Ġfeatures":13538,"Ġpotentially":13539,"Ġthrilled":13540,"Lindsay":13541,"Ġdelicate":13542,"amilia":13543,"ĠFerdie":13544,"Ġcrinkly":13545,"Ġundersh":13546,"darling":13547,"Ġfunniest":13548,"Ġfossil":13549,"Ġdomestic":13550,"Ġdrooly":13551,"ĠFriendly":13552,"Ġapologize":13553,"ĠMartha":13554,"Ġdelivered":13555,"Ġamusement":13556,"Ġweightlifter":13557,"Ġsuspenders":13558,"smooth":13559,"alphabet":13560,"Ġopportunity":13561,"Ġputtaputta":13562,"Ġorchard":13563,"ĠSabrina":13564,"Ġtrampoline":13565,"ĠSchmidt":13566,"Ali":13567,"Bat":13568,"Bab":13569,"Bonnie":13570,"Col":13571,"California":13572,"Dee":13573,"Dick":13574,"Dog":13575,"Fro":13576,"Har":13577,"Hank":13578,"Jacob":13579,"Lex":13580,"Larry":13581,"Lester":13582,"Mam":13583,"Oh":13584,"Oz":13585,"Ron":13586,"Sleep":13587,"Two":13588,"This":13589,"Tunde":13590,"Vanessa":13591,"Zach":13592,"boot":13593,"bicycle":13594,"caw":13595,"cope":13596,"credible":13597,"dust":13598,"dessert":13599,"gain":13600,"gung":13601,"kuhz":13602,"lujah":13603,"main":13604,"maker":13605,"mobile":13606,"nun":13607,"nana":13608,"noodle":13609,"oven":13610,"psh":13611,"pract":13612,"rack":13613,"runn":13614,"rats":13615,"sht":13616,"tt":13617,"tip":13618,"uated":13619,"wink":13620,"wild":13621,"winky":13622,"xim":13623,"yoyo":13624,"zam":13625,"zaa":13626,"Ġtale":13627,"Ġtilt":13628,"Ġtales":13629,"health":13630,"halloween":13631,"infinity":13632,"Ġwink":13633,"Ġsuh":13634,"itos":13635,"Ġded":13636,"Ġdup":13637,"Ġdash":13638,"Ġdoodle":13639,"Ġbid":13640,"Ġbitten":13641,"Ġbawk":13642,"Ġbicycles":13643,"ancy":13644,"Ġgig":13645,"Ġgah":13646,"Ġcong":13647,"Ġcaf":13648,"llas":13649,"Ġlump":13650,"nobi":13651,"Ġpuck":13652,"Ġpitch":13653,"Ġpavement":13654,"erved":13655,"Ġflee":13656,"easter":13657,"Ġdove":13658,"etry":13659,"Ġhooray":13660,"Ġhae":13661,"Ġhalves":13662,"second":13663,"orice":13664,"orms":13665,"nabat":13666,"ste":13667,"stone":13668,"stock":13669,"Ġkna":13670,"oho":13671,"aries":13672,"ickel":13673,"Ġliar":13674,"year":13675,"Ġrin":13676,"Ġrink":13677,"Ġrider":13678,"Ġrrr":13679,"Ġrags":13680,"Ġrusty":13681,"adine":13682,"Ġster":13683,"Ġstork":13684,"Ġstale":13685,"Ġreel":13686,"mex":13687,"hoy":13688,"abba":13689,"already":13690,"oody":13691,"Ġnee":13692,"Ġnifty":13693,"chim":13694,"uma":13695,"ency":13696,"enjoy":13697,"threw":13698,"thumb":13699,"unta":13700,"Ġoutfits":13701,"ĠMunch":13702,"ĠMale":13703,"indy":13704,"ackety":13705,"whereas":13706,"ppies":13707,"ores":13708,"tery":13709,"lyde":13710,"rol":13711,"wny":13712,"Ġability":13713,"hiya":13714,"rairie":13715,"Ġsails":13716,"Ġspong":13717,"Ġorient":13718,"agaga":13719,"shed":13720,"shell":13721,"ĠCee":13722,"ĠCho":13723,"ĠCorn":13724,"ĠCub":13725,"uckles":13726,"aky":13727,"Ġelabor":13728,"Ġalert":13729,"Ġalmos":13730,"Ġalgae":13731,"ĠBright":13732,"ĠBingo":13733,"ĠBiscos":13734,"ĠDeb":13735,"ĠDucky":13736,"Ġneh":13737,"ĠSpl":13738,"ĠSugar":13739,"ĠSolt":13740,"Ġblues":13741,"Ġshift":13742,"Ġmole":13743,"ahh":13744,"donkeys":13745,"Ġhappiness":13746,"wanzaa":13747,"Ġaggrav":13748,"boli":13749,"ulas":13750,"Ġdrummer":13751,"Ġdribble":13752,"Ġcoulda":13753,"Ġguessed":13754,"ĠRal":13755,"ĠRod":13756,"ĠRoland":13757,"ĠRachael":13758,"ĠRussell":13759,"Ġmanager":13760,"ĠJay":13761,"ĠJello":13762,"Ġflea":13763,"issor":13764,"Ġbrat":13765,"Ġuhhum":13766,"ĠNinny":13767,"ĠNinja":13768,"ĠTer":13769,"ĠTitch":13770,"ĠTickle":13771,"ĠPic":13772,"ĠPir":13773,"ĠPur":13774,"ĠPro":13775,"ĠPil":13776,"ĠPampers":13777,"ĠLong":13778,"ĠLiv":13779,"Ġshades":13780,"Ġchap":13781,"ĠFord":13782,"ĠFamilia":13783,"Ġshore":13784,"shiny":13785,"Ġqueek":13786,"coll":13787,"Ġeverythin":13788,"Ġgranny":13789,"uga":13790,"Ġdoghouse":13791,"ĠGoose":13792,"ĠGlobe":13793,"Ġlemons":13794,"Ġjuices":13795,"Ġmint":13796,"Ġminus":13797,"Ġseg":13798,"Ġworkers":13799,"Ġleague":13800,"Ġcattle":13801,"Ġcatcher":13802,"adeh":13803,"ĠHouse":13804,"ĠHuds":13805,"ĠEskim":13806,"ipoo":13807,"Ġreddish":13808,"forest":13809,"Ġreality":13810,"innin":13811,"hanted":13812,"Ġmighty":13813,"Ġhated":13814,"Ġexplan":13815,"Ġcamels":13816,"Ġpod":13817,"Ġbroth":13818,"Ġsweeter":13819,"Ġsweetest":13820,"Ġfeets":13821,"Ġlovey":13822,"Ġwhiny":13823,"ĠKwanzaa":13824,"ĠWord":13825,"airplanes":13826,"ailable":13827,"Ġdefin":13828,"Ġtrace":13829,"Ġglow":13830,"Ġglider":13831,"Ġfours":13832,"shame":13833,"avia":13834,"Ġthankful":13835,"Ġrunt":13836,"Ġdiarr":13837,"Ġsket":13838,"Ġmornings":13839,"Ġblocking":13840,"Ġrecent":13841,"Ġbuilds":13842,"Ġfeeder":13843,"Ġbuyed":13844,"ondale":13845,"ibr":13846,"babys":13847,"Ġbabes":13848,"spr":13849,"spot":13850,"anyways":13851,"udent":13852,"hrm":13853,"nightie":13854,"orte":13855,"Ġturquoise":13856,"everland":13857,"Ġyummers":13858,"Ġprison":13859,"Ġbargain":13860,"tines":13861,"Ġbrushin":13862,"Ġmissy":13863,"Ġpinkie":13864,"eteria":13865,"untie":13866,"antage":13867,"Ġleafy":13868,"Ġcurve":13869,"Ġcurrent":13870,"flap":13871,"Ġscrumptious":13872,"Ġsadly":13873,"ĠVinnie":13874,"overalls":13875,"ograp":13876,"meanwhile":13877,"Ġperfume":13878,"Ġdragged":13879,"picking":13880,"Ġpays":13881,"Ġtongues":13882,"Ġpicnics":13883,"dae":13884,"Ġgardener":13885,"Ġmischief":13886,"Ġribbet":13887,"Ġelement":13888,"Ġwai":13889,"ceptive":13890,"jumpjump":13891,"Ġrivet":13892,"Ġcrest":13893,"Ġstolen":13894,"Ġchicky":13895,"ĠSpark":13896,"sweater":13897,"Ġpeeka":13898,"ugged":13899,"ĠCheeto":13900,"Ġcrawlin":13901,"Ġcontroller":13902,"Ġpacking":13903,"Ġsibling":13904,"Ġspeaks":13905,"Ġspeaker":13906,"hamburgers":13907,"ĠZeven":13908,"Maria":13909,"ĠPatty":13910,"Ġpeppermint":13911,"calling":13912,"Ġindic":13913,"Ġindivid":13914,"logy":13915,"loaf":13916,"ĊĊĊĊĊĊĊĊĊĊĊĊ":13917,"pottie":13918,"Ġaccent":13919,"raccoon":13920,"racadabra":13921,"Ġdigest":13922,"yuckies":13923,"Ġdaughters":13924,"Ġeleventh":13925,"Ġpractically":13926,"Ġgerman":13927,"ĠBefore":13928,"Ġtunnels":13929,"ĠHarvey":13930,"Ġpeeling":13931,"Ġconfident":13932,"Ġhens":13933,"chewing":13934,"ustralia":13935,"Ġtanks":13936,"Ġdarlin":13937,"Ġcartwheels":13938,"Ġcharged":13939,"ĠKaylia":13940,"ĠCoca":13941,"Ġassist":13942,"Ġassign":13943,"adadadada":13944,"ĠMacGregor":13945,"ruffruff":13946,"Ġelectrical":13947,"Ġposy":13948,"ĠGreggy":13949,"ompany":13950,"Ġinstructor":13951,"eyeb":13952,"Ġtouches":13953,"Ġofficial":13954,"Ġwarmed":13955,"elevator":13956,"Ġequals":13957,"worth":13958,"Ġsteady":13959,"Ġjunky":13960,"ĠPolly":13961,"squeaky":13962,"ĠGolden":13963,"sneak":13964,"Ġnineteenth":13965,"ĠHankey":13966,"ĊĠĠĠĊ":13967,"Ġhunters":13968,"wearing":13969,"smaller":13970,"missus":13971,"Ġpatients":13972,"ĠScotty":13973,"ĠSnowman":13974,"Ġexplode":13975,"Ġexplosion":13976,"Katz":13977,"Kathy":13978,"Ġthrees":13979,"Ġfiber":13980,"friendly":13981,"Ġprojects":13982,"bacco":13983,"beside":13984,"imples":13985,"puppets":13986,"Ġsafari":13987,"koala":13988,"Ġentertaining":13989,"Ġentertainment":13990,"Ġdiscussing":13991,"Ġmechanics":13992,"Ġtoads":13993,"ĠSqueaky":13994,"agagagag":13995,"rannos":13996,"ĠKrist":13997,"Ġeyebrow":13998,"Ġteased":13999,"Ġshiver":14000,"brave":14001,"ĠLoi":14002,"towards":14003,"Goodnight":14004,"Ġlimb":14005,"yumyumyumyum":14006,"Shadow":14007,"ĠRudolph":14008,"Ġrodent":14009,"farmers":14010,"ĠCameron":14011,"Ġcelebration":14012,"Ġqwynnie":14013,"ĠBaum":14014,"McKayla":14015,"Ġpleasant":14016,"seals":14017,"Ġbouquet":14018,"Ġbruised":14019,"goldfish":14020,"fresh":14021,"Ġcasserole":14022,"ĠBeaver":14023,"Ġproducts":14024,"Ġintroduce":14025,"Moomoo":14026,"ĠTeppy":14027,"Jillian":14028,"barking":14029,"cheeks":14030,"ĠHershey":14031,"ĠIncredible":14032,"Ġarrangement":14033,"Ġfeely":14034,"Ġnugget":14035,"Ġpigeon":14036,"Ġinitiate":14037,"Ġnickname":14038,"Ġcustomer":14039,"Ġoyster":14040,"ĠNiagara":14041,"Peanut":14042,"Ġsnoring":14043,"ĠDavey":14044,"Ġstereotypical":14045,"Ġsugars":14046,"Ġcashier":14047,"tighten":14048,"celery":14049,"Ġadvantage":14050,"iceratops":14051,"Ġchatter":14052,"ĠDukes":14053,"Ġimpressive":14054,"Ġhypnot":14055,"ahahah":14056,"Ġspirit":14057,"Ġflamingo":14058,"Ġautomatically":14059,"semble":14060,"Ġinflu":14061,"Ġenemy":14062,"Ġleotard":14063,"porcupine":14064,"ĠCowboy":14065,"Ġnational":14066,"cluding":14067,"Ġconvinced":14068,"Ġadoption":14069,"Joshua":14070,"iolis":14071,"Ġcycle":14072,"ĠCruz":14073,"ĠTaunta":14074,"Lynette":14075,"believable":14076,"ĠFalcon":14077,"branches":14078,"Ġsimply":14079,"feathers":14080,"tissue":14081,"Ġvampire":14082,"Ġtaperecorder":14083,"warfs":14084,"Ġwarthog":14085,"Ġcameras":14086,"Ġundershirt":14087,"Ġcafeteria":14088,"nabata":14089,"ĠSoltz":14090,"ĠHudson":14091,"Ġdiarrhea":14092,"ĠTauntaun":14093,"Ang":14094,"Aimee":14095,"Buster":14096,"Cwww":14097,"Cola":14098,"Chatty":14099,"Duncan":14100,"Ewww":14101,"Easter":14102,"Fre":14103,"Gus":14104,"Gavin":14105,"Jacques":14106,"Ken":14107,"Lwww":14108,"Nemo":14109,"Nurse":14110,"Per":14111,"Pea":14112,"Price":14113,"Popp":14114,"Rover":14115,"Rydan":14116,"Sh":14117,"Sky":14118,"Sesame":14119,"Twww":14120,"Tisha":14121,"Thanksgiving":14122,"Wacky":14123,"aww":14124,"bib":14125,"burp":14126,"cand":14127,"cast":14128,"cucumber":14129,"dun":14130,"dirt":14131,"darn":14132,"dickory":14133,"ena":14134,"gna":14135,"gree":14136,"ghost":14137,"kat":14138,"lar":14139,"lash":14140,"loud":14141,"mess":14142,"nn":14143,"nu":14144,"poom":14145,"pipe":14146,"pitcher":14147,"silver":14148,"tim":14149,"tot":14150,"tack":14151,"turing":14152,"tigers":14153,"wal":14154,"yarn":14155,"Ġou":14156,"Ġteen":14157,"Ġtush":14158,"Ġtiring":14159,"oul":14160,"hamed":14161,"Ġamber":14162,"Ġads":14163,"reg":14164,"Ġwid":14165,"Ġsoo":14166,"Ġsss":14167,"Ġsigh":14168,"Ġsardines":14169,"Ġyous":14170,"itz":14171,"itary":14172,"onya":14173,"Ġdang":14174,"Ġdummy":14175,"Ġbait":14176,"Ġbaw":14177,"Ġbzzz":14178,"anan":14179,"Ġgit":14180,"Ġges":14181,"iselle":14182,"ooaa":14183,"Ġly":14184,"Ġlent":14185,"Ġlicked":14186,"Ġlantern":14187,"noone":14188,"Ġmig":14189,"Ġmwah":14190,"Ġmales":14191,"Ġpap":14192,"Ġpeed":14193,"Ġpah":14194,"Ġpeak":14195,"Ġpounce":14196,"Ġpbth":14197,"eria":14198,"erinas":14199,"Ġfuel":14200,"Ġthir":14201,"Ġod":14202,"esan":14203,"Ġhind":14204,"Ġhilar":14205,"sewing":14206,"oric":14207,"ĠIce":14208,"eeay":14209,"eehaw":14210,"nation":14211,"Ġka":14212,"atas":14213,"atue":14214,"Ġray":14215,"Ġrump":14216,"adian":14217,"Ġnod":14218,"Ġnor":14219,"asher":14220,"asper":14221,"Ġeeat":14222,"Ġehrm":14223,"Ġstings":14224,"Ġstamps":14225,"Ġreplace":14226,"Ġreptiles":14227,"hore":14228,"hopping":14229,"Ġmeme":14230,"Ġmeets":14231,"Ġcanary":14232,"Ġcancer":14233,"Ġknowledge":14234,"web":14235,"ably":14236,"above":14237,"alive":14238,"oodoo":14239,"Ġnyum":14240,"church":14241,"chomp":14242,"umby":14243,"Ġath":14244,"Ġja":14245,"Ġuppie":14246,"thr":14247,"Ġpla":14248,"Ġanti":14249,"Ġputty":14250,"unscrew":14251,"otic":14252,"otton":14253,"Ġwantin":14254,"ĠMun":14255,"ĠMont":14256,"ppiet":14257,"ppety":14258,"iller":14259,"Ġyu":14260,"Ġyolk":14261,"Ġsayed":14262,"rope":14263,"Ġplaydough":14264,"hive":14265,"rather":14266,"Ġboar":14267,"Ġspoo":14268,"Ġspat":14269,"hya":14270,"hyah":14271,"ambler":14272,"beer":14273,"ilty":14274,"ilizer":14275,"Ġcokes":14276,"Ġcopper":14277,"Ġbookie":14278,"ĠCory":14279,"ĠCrispies":14280,"ĠConnor":14281,"ĠCorduroy":14282,"buttons":14283,"Ġclack":14284,"Ġclipper":14285,"Ġfrown":14286,"Ġtipping":14287,"ĠBut":14288,"ĠBell":14289,"Ġcarb":14290,"Ġcarbon":14291,"ĠDoh":14292,"ĠDaws":14293,"ĠDidi":14294,"Ġprepar":14295,"ourth":14296,"qua":14297,"ĠSo":14298,"ĠSir":14299,"ĠSissy":14300,"Ġblo":14301,"Ġtriceratops":14302,"Ġashamed":14303,"named":14304,"tol":14305,"Ġarts":14306,"Ġarrest":14307,"yere":14308,"erek":14309,"bod":14310,"Ġbully":14311,"ĠApple":14312,"uffed":14313,"ĠRick":14314,"ĠRush":14315,"ĠRandy":14316,"ĠRiver":14317,"ĠRonnie":14318,"Ġcookbook":14319,"Ġballerinas":14320,"ĠJu":14321,"ĠJersey":14322,"ĠJingleheimer":14323,"ĠJabba":14324,"Ġflirt":14325,"Ġgirlie":14326,"Ġbrake":14327,"ĠNascar":14328,"ĠNeverland":14329,"ĠTiger":14330,"ĠTron":14331,"ĠPi":14332,"ĠPal":14333,"ĠPeek":14334,"ĠPeg":14335,"ĠPiper":14336,"ĠLet":14337,"ĠLise":14338,"ĠLewis":14339,"ĠLagoon":14340,"Ġshaggy":14341,"Ġhelpers":14342,"Ġchases":14343,"ĠFor":14344,"ĠFair":14345,"shley":14346,"Ġquiver":14347,"Ġquacked":14348,"Ġgremlins":14349,"plunk":14350,"Ġgrizz":14351,"Ġcrump":14352,"Ġcrashes":14353,"ostrich":14354,"ĠGu":14355,"ĠGarden":14356,"ĠGita":14357,"ĠGiselle":14358,"Ġlend":14359,"Ġprove":14360,"Ġmines":14361,"Ġheading":14362,"chet":14363,"Ġholders":14364,"ĠHot":14365,"Ġvet":14366,"Ġvines":14367,"ĠEye":14368,"forever":14369,"geese":14370,"Ġbrea":14371,"armesan":14372,"riet":14373,"Ġgreenbeans":14374,"Ġwhoosh":14375,"Ġfalled":14376,"Ġchuck":14377,"Ġhotter":14378,"ĠWar":14379,"ĠWed":14380,"ĠWater":14381,"ĠWest":14382,"ĠWisc":14383,"ĠWein":14384,"Ġearrings":14385,"Ġkeepin":14386,"Ġintent":14387,"Ġslave":14388,"Ġlighting":14389,"waiting":14390,"Ġinterests":14391,"shapes":14392,"clam":14393,"claws":14394,"forward":14395,"Ġhurted":14396,"onsin":14397,"Ġsnar":14398,"Ġdiver":14399,"Ġending":14400,"Ġtoybox":14401,"plenty":14402,"Ġcolder":14403,"Ġmatzo":14404,"Ġrocker":14405,"turned":14406,"antie":14407,"anteater":14408,"Ġhorseback":14409,"spray":14410,"anymore":14411,"Ġsecure":14412,"char":14413,"Ġsalmon":14414,"Ġtickly":14415,"aska":14416,"Ġpaintin":14417,"ounge":14418,"ortion":14419,"Ġemu":14420,"scissors":14421,
[...]
